nep3 1 C 
cutoff 4.2 3.7 37 28
n_max 10 8
basis_size 10 8
l_max 4 2 0
ANN 50 0
  1.6311117e+00
 -2.2988596e+00
 -3.1426775e-01
  1.3713478e+00
 -2.3202732e+00
  5.1642585e-01
  1.3872133e+00
  2.3312204e+00
  1.1368186e+00
 -1.1614159e+00
  8.3931649e-01
 -1.3803138e+00
 -4.3275365e-01
  4.0192139e-01
 -1.9828925e-01
  8.6406026e-06
 -1.1967057e-02
 -2.6375596e-06
  8.4681940e-01
 -1.0292704e+00
 -8.5947347e-01
  6.3238400e-01
 -9.6568239e-01
 -1.1961570e-01
 -4.8662210e-01
  6.6610193e-01
  6.5503299e-01
 -3.8078535e-01
 -4.9408950e-06
  3.5309002e-01
 -1.1489491e-01
  1.0437740e-01
  1.5050540e+00
 -2.5937042e-01
 -1.3445716e+00
 -1.0620621e-01
  3.2617262e-01
  6.7277539e-01
  4.3484077e-02
 -4.8908117e-01
  5.7572758e-01
 -1.9320097e-02
  2.1199191e-01
  1.3391553e-01
 -1.9322842e-01
  2.1273478e-05
 -1.5970123e-01
  2.5399539e-01
  7.7184814e-01
 -6.5520057e-05
  3.2293481e-01
 -3.3907041e-01
 -3.1269714e-01
 -5.7183037e-04
 -2.1635555e-03
 -1.9479489e-02
  8.9225006e-01
  5.9597522e-01
 -1.8523286e-01
  1.3795624e+00
  2.8116630e-02
 -7.6969087e-01
 -2.8826401e-01
  8.2767949e-02
 -8.8187796e-01
 -9.0679067e-01
 -1.6677276e+00
 -4.4315425e-03
 -1.3426303e+00
  7.2128063e-01
 -6.3587886e-01
 -1.1901273e+00
 -8.5561061e-01
  1.2687049e-05
 -1.1592501e-01
  1.4728478e+00
 -7.6315111e-01
  3.1545398e-01
  4.6331668e-01
  2.1503034e+00
 -8.3977371e-02
 -1.2965744e+00
  7.3144674e-02
 -8.7713248e-01
 -3.5692376e-01
 -3.7882917e-02
  4.4909731e-01
  4.8294470e-01
  9.9309975e-01
 -2.4452682e-01
  1.1335691e+00
  1.6318709e-05
  5.3680480e-01
 -3.3212750e+00
  3.0108567e-02
  4.0414369e-01
 -4.6062222e-01
 -9.9515522e-01
  1.3059415e-01
  1.0960903e-01
  7.1204412e-01
  1.5871462e+00
 -1.8724519e-01
 -4.0845102e-01
 -7.3561598e-05
 -2.5750510e-06
  5.2507496e-01
 -1.0263005e+00
 -8.7007457e-01
 -5.1787974e-05
 -2.6326117e-01
  7.6832372e-01
  2.7830988e-06
  2.4858084e-05
  4.0182908e-06
 -7.9009305e-06
  5.6625181e-06
 -2.0413678e-05
  5.0476701e-06
 -5.9138993e-06
  1.6260035e-05
 -2.5171921e-05
 -3.3130564e-05
  1.9709440e-05
 -6.6013049e-06
  1.9315574e-05
 -1.0445735e-05
  3.2123804e-05
 -3.6517572e-06
 -8.5735910e-06
 -8.8322413e-06
 -4.4618519e-05
  2.1760239e-05
 -2.0464930e-05
 -1.2638970e-05
  9.6752004e-08
  3.0739215e-05
  1.9732637e-05
  8.3902405e-06
  1.6696165e-05
  2.1314336e-05
 -3.1090774e-05
 -3.2954489e-05
  7.4960867e-06
 -4.5929642e-06
 -4.0698513e-05
 -9.6441236e-06
 -2.2230106e-05
  4.4583831e-07
  1.1222861e-05
  2.6556111e-06
 -3.8379440e-05
  1.8378696e-05
 -5.1383839e-05
  7.9642241e-06
  8.6129774e-05
 -8.5776031e-05
  4.3864649e-05
 -2.4146780e-06
  1.9955882e-05
 -1.8507886e-05
 -1.7565126e-05
 -3.5436682e-05
  1.1545522e-04
  2.3439156e-06
  6.4627716e-06
  4.2267202e-05
 -2.4632802e-05
  2.2477495e-04
  3.5675725e-01
  9.3023318e-01
  6.0153641e-02
 -8.6806343e-05
 -1.4113666e-01
 -1.2315129e-01
  5.9330680e-05
 -1.8185511e-01
  4.0496859e-01
 -4.6873587e-01
  2.0751266e-02
  5.9504098e-01
 -7.1600734e-05
  1.7962174e-01
  2.3670689e-05
  1.2507130e+00
  1.0610616e-05
  4.0202978e-01
 -7.0839942e-06
 -2.4338411e-01
  4.4351900e-01
 -5.1224529e-06
  1.0011533e+00
 -7.6996201e-01
  1.5521368e-01
  5.7712030e-02
  6.0788572e-01
 -2.4548151e-01
 -2.7411737e-02
 -2.9551584e-05
 -5.9847721e-06
  2.4819563e-05
  1.4350413e+00
 -1.5565280e+00
  1.8142340e-06
 -3.4918225e-01
  1.8249552e-01
 -1.8696429e-01
 -1.9353340e+00
 -3.1475711e-01
 -5.8901846e-01
  3.1063306e-01
 -1.0303737e+00
  4.7899117e-05
 -2.9024523e-05
  1.0210997e-01
 -2.2386898e-04
 -1.4825390e-05
 -3.0724025e-06
  2.0583387e-01
 -6.1255312e-05
 -1.7439585e-06
 -4.8005215e-05
 -9.5059831e-06
 -8.7442477e-06
  1.2223905e+00
  1.7359577e-02
 -7.0295417e-01
  3.0438434e-05
 -8.6673364e-02
  9.6703449e-04
 -2.5499101e-05
  1.3501248e-02
 -4.3366250e-02
  1.2970382e+00
 -3.8910061e-06
 -1.0007973e-05
  8.4740534e-02
  4.8182112e-01
  3.5667264e-01
  9.8333927e-05
  6.1740670e-02
 -2.3206569e-05
  6.7513611e-05
 -1.2205492e-03
 -1.9246640e-06
  2.2166719e-01
  1.7885235e-04
  6.6489351e-01
 -1.4454409e-01
 -2.9825783e-01
  1.0935089e-04
  5.3885467e-02
 -1.3018182e-05
  7.2538719e-06
  4.7319816e-05
 -6.7043528e-02
 -7.6830596e-02
  4.4072010e-02
 -1.1680981e+00
  1.0649120e-05
  8.3488949e-06
 -1.3877165e-01
 -1.5410469e-05
 -5.0760120e-01
 -1.5336461e-01
 -3.2921307e-05
 -1.1682241e+00
 -2.3846011e-01
 -8.2001856e-07
 -2.6602787e-03
 -1.3338038e-05
 -6.2351042e-05
 -2.0154729e-02
  3.3009022e-05
  9.0271091e-01
 -2.4373362e-04
 -9.5187657e-05
 -9.2484324e-06
  2.6291487e-01
  1.8375236e-05
 -1.2790413e-05
  9.3020853e-06
  7.4136864e-07
  1.9317376e-05
 -2.0253352e-05
 -2.3145762e-05
  4.0554714e-06
 -7.6516408e-06
  1.0398139e-04
  6.8887298e-06
 -2.1992191e-05
  6.9415873e-06
 -1.8233296e-06
 -2.7575872e-05
 -3.0886824e-06
  1.2837003e-05
  1.3514527e-05
  8.7674662e-06
 -6.3630682e-06
 -3.9795373e-06
  9.9912504e-06
 -1.6574006e-04
  2.3956354e-05
 -2.5244437e-05
  2.5956777e-05
 -2.8088916e-06
 -2.3643308e-05
  8.7659993e-07
 -1.4678689e-05
  3.9526928e-04
 -8.3133391e-06
  1.2871421e-04
  5.6467466e-05
  2.5487732e-05
  2.5513515e-05
  9.2572947e-05
 -2.3936656e-05
 -1.8469242e-07
  1.6127912e-06
  8.8544557e-06
  7.3584888e-05
  3.1612810e-05
  2.6413605e-05
 -2.0349034e-05
  7.7773999e-05
 -6.1371820e-06
  1.4950801e-05
 -9.0838694e-06
  7.8430694e-06
 -1.4576692e-05
  5.8086403e-06
  4.2718248e-06
  1.0668220e-05
 -3.0372744e-06
 -3.2614604e-05
  4.0807245e-06
  4.4924459e-01
 -1.9407446e+00
 -1.5954553e+00
  9.2569989e-01
 -2.4520478e+00
 -2.1867788e+00
  2.6916569e-01
  1.3750087e+00
  3.3033161e+00
  2.3976691e+00
 -3.7533438e-01
 -7.6464069e-01
  1.8059043e+00
 -1.9772189e-02
  3.1536338e+00
  3.7078032e-01
 -5.8640730e-01
 -1.8446895e-04
 -8.4423244e-01
 -1.3306342e+00
  4.8140516e+00
  2.6846390e+00
 -2.9557173e+00
 -1.9015786e-01
 -1.0436946e+00
 -2.0290737e+00
 -3.6678296e-06
  1.9016911e+00
  3.9574206e-05
 -1.3350632e+00
  2.0880246e+00
 -1.6105567e-01
 -5.7070024e-02
 -9.6690315e-01
 -1.2045375e+00
  1.6410045e-03
  6.7359045e-02
  1.5423548e+00
 -2.2212016e-06
  1.7383641e-01
  5.5575538e-01
 -6.7521477e-01
  2.0824139e+00
  1.1265024e+00
 -1.5944861e-01
 -8.4082216e-01
 -8.8472146e-01
 -1.2212987e+00
 -6.5706890e-06
  3.8329995e-06
 -3.3351731e-01
 -5.1703852e-01
  5.0068802e-01
 -2.9394390e-05
 -4.1224036e-01
  9.3935233e-01
 -2.8631472e-05
 -6.2246327e-05
 -2.2670809e-05
  7.5583039e-06
 -6.4862929e-06
 -1.4191469e-02
  3.4450597e-05
  4.6330075e-05
  1.6447908e-04
 -5.0158930e-01
  1.6957531e-05
 -4.6340708e-07
 -6.8050373e-05
 -1.8170605e-05
 -8.8999197e-03
 -4.7622787e-05
  6.1996357e-06
 -2.3864504e-05
 -3.6910353e-03
  4.9256772e-02
  8.9247633e-06
  1.9065592e-05
  4.0447125e-05
 -5.5415254e-05
  1.2903311e-04
 -9.1383125e-05
 -1.5043261e-05
 -1.6499076e-04
 -3.2787134e-06
  2.5988120e-01
  1.3495254e-02
  1.3288397e-01
 -5.6965869e-06
  3.5438348e-05
  1.8823236e-01
 -3.1395561e-05
 -1.0488841e-04
 -6.6141329e-06
 -7.1799095e-06
 -4.9441514e-06
  3.2909565e-02
 -8.8368433e-06
 -1.5902588e-04
  1.0007121e-05
  5.1630861e-05
 -7.1343602e-05
  2.2282162e-01
  2.9995365e-06
  5.0327733e-05
 -1.2066112e-05
 -1.3235428e-06
  2.8146114e-05
  8.1817516e-06
  2.1514386e-05
  5.0707375e-05
 -1.1211067e-06
  6.3306320e-01
 -5.1733892e-02
  1.2950343e-05
 -9.8070270e-01
 -1.6155194e+00
  8.2008088e-01
 -3.1442973e-01
  6.7618370e-02
 -9.4516540e-01
  7.5280678e-01
  3.7103408e-05
 -7.4481171e-01
 -5.6366080e-01
  2.0122167e-01
 -1.3322219e+00
  5.9320027e-01
 -6.2410638e-02
  1.7022134e-05
 -2.2436462e-01
 -3.8689312e-01
 -2.1409544e-03
 -3.8327560e-01
 -1.2230147e+00
 -5.7362858e-02
  1.1645599e-01
  8.4620528e-03
 -8.6311647e-06
 -1.7828718e-02
  1.0149088e+00
 -4.7666483e-02
  5.1125753e-01
  2.8212622e-01
  2.4530718e-02
 -1.6887109e-01
  4.0234536e-01
  2.1358885e-05
  1.0641564e-01
 -1.9853716e-05
  4.3346495e-03
  1.6192967e-01
  1.1509877e-01
 -1.3414034e+00
  7.8357625e-01
 -1.2424868e-01
  1.5188731e-05
  3.4669198e-02
 -1.8861588e-02
 -4.5376354e-01
 -2.5902981e-01
 -3.8936400e-05
 -2.3020026e-01
  4.6784491e-05
  1.8973418e-02
 -2.2789663e-09
  5.8340961e-06
 -3.4773970e-05
 -2.1241036e-05
  7.6179372e-06
 -1.9629746e-05
  2.7176502e-04
 -3.0951029e-05
 -6.5762320e-06
 -1.8661549e-05
 -1.4694280e-06
 -5.2851141e-07
 -5.4721069e-05
  4.8529707e-02
 -1.8375369e-05
 -3.5142602e-05
 -5.1027719e-06
  2.0768231e-05
 -2.8112614e-05
  5.8326463e-05
  1.9219540e-05
 -1.2221800e-04
  3.9316084e-05
  5.5442935e-05
 -3.4986958e-06
  1.9735637e-05
  8.4651168e-05
  2.0344903e-06
 -2.2049329e-05
  6.7989927e-06
 -3.5529803e-05
  7.6460710e-05
  1.2746171e-04
  7.6437500e-06
  6.9180009e-05
 -4.8772938e-05
  1.9943958e-05
  6.8394758e-02
  2.1388370e-04
 -1.8404971e-05
 -6.7306602e-05
  4.6978439e-05
 -1.9117949e-06
  2.7111948e-05
  3.9941511e-05
 -2.2989306e-01
  5.1211646e-05
  4.2395917e-05
  1.2131770e-06
  1.4228222e-04
 -1.4432847e-05
  8.0717955e-06
  3.3509596e-06
 -5.9083322e-06
 -4.3013647e-06
 -3.0467116e-05
  1.7928378e-05
  2.2323469e-05
  2.5170084e-05
  3.4260798e-02
  1.3826565e-01
  2.9732137e+00
 -1.9181231e+00
  9.4939280e-01
  1.2744517e+00
  3.2440419e+00
 -1.8893364e-01
 -9.5273054e-01
  1.9744867e-01
 -9.8750412e-01
 -1.3322480e+00
 -1.0510521e-01
 -1.4354604e-01
 -5.6957394e-01
  6.4166576e-01
 -1.1994467e-01
  3.9445159e-01
  1.3680267e+00
 -7.6547003e-01
 -4.7396457e-01
  6.9269824e-01
  1.8088552e+00
 -5.0469023e-01
 -3.4635633e-01
 -2.3934603e+00
  1.0295391e+00
  2.2105935e+00
  1.4756279e-03
 -3.7405884e-01
 -2.4512546e-02
 -1.7267045e+00
 -1.7805569e+00
  2.5949426e+00
  3.9535549e+00
 -3.0090991e-01
 -1.3656940e+00
  3.2198247e-01
 -3.4574088e-01
 -1.5729347e-01
 -4.7042993e-01
  3.4270328e-01
  8.2099533e-01
  3.8379773e-01
 -6.0041040e-01
  5.7268876e-01
 -7.5306797e-01
 -1.8178673e-03
 -9.0205616e-01
 -4.2238627e-02
 -6.0588652e-01
  2.0231437e-05
  7.1074057e-01
  2.2007653e-05
 -1.2331895e-01
  1.4196776e-04
 -1.1305265e-04
 -3.2957048e-06
 -9.3104491e-06
  3.1149870e-04
  5.6413097e-05
 -1.9670535e-05
  9.5786427e-06
 -7.2689090e-06
 -3.4585515e-05
 -1.7406595e-05
  4.0690238e-06
 -1.9597468e-05
 -2.1203454e-05
 -6.0456646e-06
 -6.3474727e-05
 -1.4374328e-05
 -2.0702781e-05
 -1.8615790e-05
 -7.9046404e-05
  4.8509838e-07
 -4.0896857e-06
 -3.4224016e-07
 -1.8923369e-05
  1.5695825e-05
 -4.0593764e-05
 -6.3836042e-06
 -1.9412209e-05
 -1.2309103e-07
 -6.7455083e-05
  3.9990735e-04
 -2.0994150e-05
  7.9091615e-06
  6.2287859e-06
  1.2890501e-05
 -6.8358066e-05
 -7.2483572e-06
 -5.0924505e-06
  1.9759071e-04
  6.7936749e-06
 -3.4050787e-05
  2.8852485e-06
 -5.2832488e-06
  3.9797274e-06
 -9.8107976e-06
  6.1540908e-05
  3.0482781e-05
  3.3301208e-06
  6.2482573e-06
 -4.8486140e-06
 -7.4602804e-06
  3.7801315e-06
  1.1973138e-05
 -7.7995595e-05
  6.6181246e-07
 -1.6783069e-05
 -4.8684313e-05
 -5.2909408e-02
 -1.5614699e+00
  1.6909659e-01
  1.2548794e+00
  9.8599333e-01
  6.1069310e-02
 -1.3576920e+00
 -2.2357760e-01
  4.2822796e-01
  1.3972327e+00
  1.1863621e-01
  1.8086275e-05
  8.9889979e-01
 -6.0412513e-05
 -7.1683007e-01
  1.6292900e-01
 -4.0546337e-01
  2.0597738e-05
  7.2248721e-01
  1.7023467e-01
  4.7028524e-01
  1.2366205e+00
  1.5426485e-01
 -2.7584234e-01
 -2.9338333e-01
  3.4727409e-01
 -3.5145193e-01
 -4.6536636e-02
  8.1872299e-02
 -1.7217402e-01
 -1.3647972e+00
 -5.7963926e-01
  1.0336576e+00
  6.9779068e-01
  6.1388940e-01
  1.0793617e+00
 -9.1161364e-01
 -2.2162333e+00
 -1.2184806e+00
 -4.6837395e-01
 -8.7772846e-02
  1.3403679e-01
 -3.1564966e-01
 -2.6047686e-01
 -2.4665279e-02
  2.3837698e-01
  4.7155517e-01
  2.0458704e-06
  3.7415633e-01
  3.5916436e-01
 -2.2956599e-01
  9.9826658e-01
  1.2863562e+00
  2.4090141e-05
  4.0998157e-02
 -3.5575369e-01
  3.1393374e-06
 -1.9264613e-05
 -6.6785715e-06
  1.9880938e-05
  5.6802783e-05
 -2.4353249e-04
  4.1415755e-05
  1.1911080e-05
  5.4453598e-05
  1.2059932e-05
  1.1168704e-05
 -2.3978522e-05
  2.1374362e-05
  3.4263983e-06
 -3.6667399e-05
  7.7540890e-06
 -3.1218344e-06
 -2.0895386e-06
 -9.5505216e-05
  4.3204718e-06
 -5.0717531e-06
 -3.2432312e-05
  6.1920218e-06
  1.5748501e-05
 -7.7549902e-07
  1.0416871e-04
 -8.9360146e-06
 -1.1361464e-05
 -7.4304523e-08
  5.0098304e-05
  1.3388119e-05
 -2.1942620e-07
 -5.4643009e-05
  2.0685038e-05
 -4.8591655e-06
  3.4716636e-06
 -1.4084010e-05
  3.9479815e-05
  1.1927487e-05
  3.7985860e-06
 -4.0712155e-05
  4.5391394e-06
  1.5831256e-07
 -2.5840154e-05
 -1.7104359e-05
  3.6774043e-05
  3.7021589e-05
 -2.9989038e-05
 -8.0657410e-05
  3.5193907e-06
 -3.5910023e-05
 -1.8538387e-05
 -7.1179420e-06
 -1.2114874e-05
  1.2133862e-05
  9.6076350e-05
  6.7881885e-04
 -1.5504368e-02
  4.0934334e-05
  6.7057861e-03
 -2.0493877e+00
 -8.0658710e-01
  2.7698874e-01
 -3.2312754e-01
  3.7364140e-01
  3.0237794e-01
 -6.6173919e-02
 -4.2707658e-01
 -3.5843495e-01
  4.6869054e-01
  2.4344690e-01
 -5.9919808e-02
  9.4141763e-01
  1.5576525e-05
 -1.4535002e-01
 -1.7436087e-01
 -3.0859622e-01
 -6.3330692e-01
  1.2867842e-02
  9.4706005e-01
  1.4294146e-05
  3.4311485e-01
 -7.6235345e-05
 -1.2320650e-01
  5.2160390e-02
  1.1595950e-05
 -6.7581904e-01
  1.6194572e+00
  2.0699596e+00
  1.4046500e-02
  4.1895887e-01
  7.5989682e-04
 -9.5466399e-05
  8.2986906e-02
  3.3045068e-01
 -1.0668739e+00
  1.7770191e-01
  1.2888192e+00
  2.0483705e-01
  7.1683955e-01
  2.7671449e-03
 -6.0132094e-02
  3.1533554e-01
 -2.3935636e-05
 -2.0590659e-04
 -4.6973796e-06
  4.6359077e-02
  1.3719608e-05
  2.7276913e-03
  9.5189607e-06
  5.8285799e-04
  3.0705787e-06
  2.1731818e+00
 -1.0707408e+00
 -2.5591335e+00
 -8.8311720e-01
  5.8895242e-01
 -4.0698728e-01
  1.2359338e+00
 -6.9602776e-01
  8.2563311e-01
 -4.3624301e-02
  2.0005774e+00
 -2.1567805e-01
 -8.0916554e-01
 -9.0118825e-01
  4.3374863e-02
 -3.4790403e-01
 -1.5314500e-01
 -2.5918435e-02
 -7.7917826e-01
  7.4919255e-05
  3.1103423e-02
 -2.6962307e-01
 -1.1643263e-01
 -1.1965927e+00
 -3.9479449e-01
 -1.2330253e-01
 -6.5290058e-01
 -4.9670219e-01
  2.0285906e-01
  2.2779973e+00
 -7.6445198e-01
 -1.3583437e+00
  1.1714294e+00
  1.5722207e+00
  2.7603140e+00
  4.1719285e-01
 -9.0221423e-01
 -1.8077879e+00
  9.3449259e-01
 -8.6013012e-02
 -3.3356237e-01
  1.6562381e-01
 -1.1623429e+00
  2.1781918e-01
  9.7407395e-01
 -2.4420610e-01
  5.8149481e-01
  3.9439558e-04
 -6.2420424e-02
  2.1443421e-03
 -1.7651078e+00
  7.0847934e-01
 -1.5977587e+00
  1.1403002e-01
 -8.2191028e-02
 -5.0345261e-04
  7.5720918e-06
  3.8964241e-05
 -4.2994692e-05
  2.6210319e-06
 -2.2691711e-05
 -9.0814947e-06
 -8.2252845e-06
  1.4662112e-05
 -3.6534202e-05
 -4.3267471e-05
  1.0686218e-05
  4.3049749e-05
  1.2845356e-05
 -5.1669056e-05
 -4.3855257e-06
 -5.5146852e-06
 -5.8683286e-06
 -8.8556735e-05
  1.4085036e-05
 -2.1296079e-05
  6.0728798e-06
 -1.6657843e-05
  1.3204773e-05
  9.4674269e-06
 -4.2648699e-05
 -9.8682149e-06
  1.0815931e-05
 -1.1732606e-05
  6.2343155e-05
 -7.2420960e-05
  7.2669859e-06
 -2.0289443e-05
 -1.0235292e-05
 -3.3242482e-06
  3.0911206e-06
  3.2319338e-05
  1.3908378e-05
  4.3112217e-05
  1.0093129e-05
 -1.8605679e-05
 -3.9153501e-06
  1.2656095e-05
  1.0581386e-05
 -3.4047542e-05
  4.3324631e-05
  5.5083670e-05
  7.7878096e-05
 -9.7780912e-06
  6.4861515e-06
 -3.8687454e-06
 -4.1417668e-05
  3.7345300e-05
  3.4904882e-05
 -2.8562854e-06
 -1.3047068e-05
 -9.6771528e-06
  1.6396810e-01
 -3.7051144e-01
 -6.2039292e-01
 -3.6342567e-01
  1.1415032e-01
 -1.7021831e-02
  1.3659961e+00
 -2.0403779e-01
  2.2003214e-01
  7.6406634e-01
  5.4783064e-01
  4.1124618e-05
  3.6240311e-03
 -1.0856706e+00
 -2.0360219e+00
  5.1575983e-01
 -1.5940599e-01
 -3.0872588e-06
 -1.1812547e+00
  5.4673624e-01
  7.7019483e-03
  1.8045706e-01
  9.7495690e-02
  1.5369089e+00
  2.5591788e-01
 -1.6981721e-01
 -2.8670134e-02
  1.6729994e-01
  1.8845956e-05
  3.8925964e-01
 -1.0155584e-03
  3.4485808e-01
 -4.2877909e-02
 -1.1356651e-01
 -3.6278933e-01
 -2.4084124e-05
 -1.6245139e-01
  2.1953784e-01
 -2.5341576e-03
  3.2837281e-01
 -2.0158958e-02
 -7.1861602e-02
 -5.1770574e-01
  1.3246059e+00
  4.7084495e-06
  3.8728389e-01
 -1.7917676e-02
  1.9215611e-05
 -1.3910992e-06
  9.9310164e-05
  5.1463705e-01
 -1.1045945e-02
 -3.8540347e-03
  3.3855700e-05
  4.4565579e-01
  1.5691761e-05
 -1.4167813e+00
 -3.0799482e-02
  3.7753433e-03
 -8.0666089e-01
 -1.4418693e+00
  3.5865929e-02
 -1.1476496e+00
  9.7567052e-01
 -8.1190485e-01
  1.5872184e+00
 -3.6131740e-02
  1.3384478e+00
  5.6408203e-01
 -1.4257113e-06
  3.7927648e-01
 -1.4251701e+00
  5.9475404e-01
  5.1987785e-01
  3.2297638e-01
  1.2826302e-05
  1.0849499e+00
  1.0015702e+00
  1.1529690e+00
  8.2954276e-01
 -8.5226589e-01
 -8.4844398e-01
 -1.9391112e+00
 -1.5407825e+00
  2.3751229e-02
 -2.3758437e-03
 -3.4562740e-04
 -3.8086668e-01
 -8.1353933e-01
  1.5814152e-01
 -4.2984077e-01
 -1.4873420e-05
  1.0018954e-01
 -3.7919316e-01
  2.7421242e-01
  4.3097562e-01
  5.6274569e-01
 -1.5251454e+00
 -3.5184216e-01
  1.5025758e+00
 -7.2100449e-01
  2.2675838e-01
 -6.8692261e-01
  1.0528902e-03
 -5.0285816e-01
 -6.6837633e-06
 -2.1771986e+00
  1.1776844e+00
 -4.0686357e-01
  1.9247543e-04
 -5.9919853e-02
 -5.7493567e-01
 -1.2174321e-01
  5.9605371e-03
  1.3923806e-01
  8.4900357e-02
  2.6638341e-01
 -2.1677647e+00
 -3.9667830e-01
 -2.2137549e-06
  9.0202951e-01
  8.8963091e-01
 -7.5906432e-01
  1.5801875e-01
  8.0605543e-07
  5.8213031e-01
  3.2842592e-05
 -8.0792070e-06
 -4.1785446e-01
 -1.5389778e-04
 -1.3594901e-02
 -1.2785524e-04
 -8.9522786e-02
 -8.0608851e-01
 -1.2295198e-04
  1.3174221e-02
 -7.5148374e-02
 -1.3760796e+00
  1.7301099e-01
  1.0509117e+00
  3.3066543e-05
 -3.5278472e-01
 -2.4194575e-05
  1.3269930e-05
  1.8601818e-04
  1.2756799e+00
 -1.3171842e+00
  1.8040932e-05
 -4.0168275e-06
  6.1405051e-01
  1.0780917e-02
  5.1770484e-01
 -8.1558689e-02
  1.3177993e+00
  1.8191135e-02
 -6.5084375e-02
 -1.4128309e-04
 -1.8453977e-05
  1.0487355e+00
 -9.6723943e-06
 -3.8567830e-02
 -7.0176116e-06
  1.2245416e-05
 -9.5833056e-02
  6.9605157e-05
 -4.2590364e-05
  3.8694106e-05
 -9.8158603e-07
 -1.0060243e-05
 -1.1264719e-06
 -2.1306591e-04
  6.8448372e-07
  3.9897836e-06
 -1.2761481e-04
  3.1246804e-05
 -1.1019440e-05
  1.0786222e-05
 -1.4306927e-05
  4.1207579e-05
 -2.8149057e-05
  8.7265671e-06
 -1.4547183e-05
 -4.0100895e-06
  2.5782125e-05
 -1.4972968e-05
 -4.6248442e-05
  8.4390713e-06
 -3.1786985e-05
 -2.8963967e-05
  9.9482204e-06
  1.0752835e-06
 -2.0775085e-04
 -7.3928982e-06
 -2.9791527e-05
 -3.3741344e-05
 -2.0868353e-04
 -4.0168914e-05
  9.1704178e-06
 -1.3114060e-05
  1.4078797e-05
  1.2176048e-05
  3.1924294e-05
  2.7863998e-05
  1.3039297e-04
 -5.2814366e-06
 -1.2664978e-05
  2.2237325e-06
 -1.0445561e-05
  7.3173719e-06
 -6.8981877e-05
  7.0485594e-06
 -2.5461937e-04
  9.2554190e-05
 -6.1607457e-06
 -2.1213398e-06
  1.7003642e-06
 -2.5265543e-05
  3.4724546e-06
  1.9254971e-05
  2.2372449e-05
  3.3815982e-07
  1.4483810e-05
 -2.4644511e-05
  8.7409080e-06
 -5.1048715e-07
 -3.1506876e-05
 -4.4265813e-05
  7.7931843e-05
 -8.8554389e-06
 -3.9503298e-05
 -3.4781954e-06
  1.8538724e-06
 -3.9497008e-05
 -1.4992974e-05
 -9.7185084e-06
 -3.9808900e-05
  1.3529968e-05
  1.5040849e-05
 -8.6054370e-06
 -3.6682477e-06
  1.0668063e-05
 -1.2126126e-05
  1.0529371e-05
 -1.2214097e-05
 -5.9293652e-06
  1.1781445e-06
 -1.0258395e-05
  1.8591089e-05
 -2.7425249e-05
 -1.6538319e-05
 -9.0977601e-06
  2.2190356e-05
  4.3940621e-05
 -3.1331065e-06
 -1.2413774e-05
 -4.9017559e-05
  1.1693951e-05
  8.2874494e-06
 -6.9584667e-06
  1.2902865e-04
  1.1850973e-05
 -4.7477533e-06
  3.7412792e-05
  2.5394573e-05
 -7.1012342e-05
  1.4543349e-05
 -7.2684787e-07
 -1.2736729e-05
 -5.5682076e-06
  1.1899376e-05
 -2.2795954e-05
 -4.8101050e-05
 -1.2313944e-05
  1.7822873e-06
  2.6559057e-05
 -3.4825098e-05
 -7.4717409e-06
 -7.7356754e-07
  9.1011925e-06
 -1.4921171e-05
 -1.5277747e-05
 -3.3200151e-06
  7.2631730e-05
 -7.3557007e-05
 -4.1480907e-05
 -6.4900574e-05
 -1.8812298e-04
  1.1942880e-05
  2.0210529e-05
  4.7210437e-05
  5.6908786e-05
 -5.0034654e-05
 -2.0104459e-04
  2.0125663e-05
 -4.1307762e-06
 -1.2176788e-05
 -2.9051671e-05
 -5.7559946e-06
 -1.4022144e-05
  7.2140647e-06
  2.8079563e-05
 -2.2432596e-05
 -3.9077153e-05
 -2.3054618e-04
 -3.6335809e-05
 -1.1593917e-05
  4.4060482e-05
 -1.5899464e-06
  1.5142897e-05
 -4.1390304e-05
  1.2413423e-07
 -1.1776091e-04
 -1.2922978e-04
 -7.4795775e-05
 -2.8832642e-06
  1.8992780e-05
 -8.1261414e-06
 -2.1452135e-04
 -1.5594571e-05
 -4.1531407e-06
 -4.5314391e-05
 -1.6450652e-04
  2.1424057e-06
 -1.1265405e-05
 -6.8148460e-05
 -7.1870258e-05
 -1.7480135e-04
  9.6719932e-06
  7.5867547e-06
  1.4487483e-07
 -2.7174730e-05
  1.5280690e-05
 -1.9883924e-05
  1.2999685e-05
 -6.3554376e-06
 -1.8912291e-06
 -3.0600026e+00
 -5.1498324e-01
  5.7869804e-01
  6.6984242e-01
  3.3093041e-01
  5.5400747e-01
  3.4270135e-01
  1.2344151e-02
  1.2384963e-01
 -2.7169702e+00
  4.6806362e-01
  1.9495076e-01
 -2.9483261e-02
  7.9872680e-01
 -5.3280294e-01
 -5.0057727e-01
  3.8394412e-01
 -1.0745378e+00
 -1.4462554e-03
 -2.0838040e-01
 -1.4049010e-01
  1.0638205e+00
 -3.9081419e-01
 -1.9882867e+00
 -6.5365314e-01
  1.4896750e-01
 -1.0412724e-03
 -1.4294863e+00
  6.2573773e-01
  2.1005943e-02
 -1.7263505e-01
 -9.8799014e-01
 -1.3073264e+00
 -1.5661077e-04
 -5.8883935e-01
 -7.6719463e-01
 -2.4263869e-01
 -1.2011882e+00
  1.1086291e-01
  6.2373091e-02
  3.6956444e-01
 -3.9825878e-01
 -3.9792296e-01
 -5.5690680e-02
  1.0721439e-03
  1.2360775e-01
 -1.9587523e-01
  8.2034812e-06
 -6.4237095e-02
  9.8134678e-06
 -8.9583635e-02
 -1.3139015e+00
  2.8709337e-01
  6.7171110e-05
  3.1910905e-01
  6.1956290e-02
 -1.0406759e-05
 -2.6438084e-01
 -1.2096328e-01
  6.1875820e-02
 -8.6504281e-01
  9.6818037e-02
  3.6386155e-05
  1.6910659e-01
  3.7053335e-03
 -7.7234201e-02
  5.3266112e-02
  3.0491795e-02
  3.7129721e-05
 -3.1374913e-04
  1.2148234e+00
 -1.0569463e-01
 -4.9266905e-01
 -1.1775190e-01
 -4.4765044e-02
  9.9848783e-01
 -3.5684709e-02
 -3.1199742e-02
 -1.4650455e-01
  5.8865262e-04
  7.7155173e-06
 -7.6151830e-01
 -3.6472741e-01
  4.9164131e-01
 -7.9566765e-01
  8.5629625e-03
  6.8448285e-06
 -8.9857006e-01
  1.0737300e+00
  1.3805261e+00
  5.3835261e-01
  4.3633050e-01
  1.5911710e-04
  2.2173028e+00
  5.7731863e-06
  3.2267690e-01
  5.9515566e-01
  5.8108819e-01
  6.1091465e-01
  1.2265405e-01
 -1.1664901e-06
 -4.1596923e-05
 -3.0667360e-03
  8.2550541e-06
 -2.9618479e-06
  7.6603072e-05
 -1.4239432e-01
  4.6536174e-05
  6.2071939e-04
  1.1615413e-05
  4.2098040e-06
 -2.7234844e-06
 -1.0379625e-01
 -5.8495975e-01
  8.9385494e-06
 -6.0212702e-01
  1.3653224e+00
  1.4750798e+00
 -1.3311800e+00
 -7.6783466e-01
 -1.0200140e+00
  2.1890688e+00
 -8.6466765e-01
  2.5084044e-04
 -4.6192098e-01
  5.8309197e-01
  1.6028268e+00
 -1.1867157e+00
 -4.5107765e-05
 -6.2369293e-01
 -4.3787870e-01
  8.6140853e-06
  1.1967639e+00
  1.6756526e+00
 -4.0675773e-06
  1.2252942e+00
  1.5711720e-01
 -7.0230909e-02
  1.4461248e-05
 -9.6818238e-01
  4.2751330e-01
 -5.0025368e-01
 -3.7324021e-04
 -1.7749503e-01
 -1.8080884e+00
 -7.6463039e-06
 -1.4798141e+00
  2.9131068e-02
  8.1010306e-01
 -1.4592339e+00
 -7.3368651e-01
  1.1835662e+00
 -4.7111291e-01
 -3.4325333e-06
  5.3602481e-01
 -1.0087126e+00
  1.3708738e-05
  7.8531665e-01
 -4.0518658e-05
 -3.4277083e-03
 -5.0921924e-02
  1.2879788e-05
 -5.0231365e-06
  3.6190249e-05
  1.6171079e-02
  3.2282620e-05
  1.2849974e-05
 -4.2466760e-05
 -6.9846469e-01
  3.3090982e-01
  3.9337954e-01
 -9.0882438e-01
  4.6727794e-01
 -4.2963099e-01
  4.7610843e-01
 -7.3538977e-01
 -2.3934041e-01
 -1.5050483e+00
 -4.9091473e-01
  1.4043767e-05
 -6.3546258e-01
 -4.0455621e-01
  2.6683518e-01
  1.0331560e-01
 -8.1659220e-03
  5.0880134e-02
 -1.6783495e-02
  2.8329473e-06
 -1.5596360e-01
  2.6570215e+00
  8.4012789e-01
  3.4525561e-01
  6.6668403e-01
 -6.4477247e-01
  3.8397638e-06
  6.9367230e-01
 -8.6176586e-01
 -5.5240816e-04
 -1.5369080e+00
 -2.5660064e+00
 -1.0343188e+00
 -2.9009221e+00
  3.8993132e-01
  3.6371771e-01
  8.2262203e-02
 -8.7619328e-01
  7.3792946e-01
 -2.9257730e-01
  1.2832271e+00
  2.5203416e-01
 -1.0134812e-01
  1.1929715e+00
 -2.0270205e-05
  7.1116345e-05
 -5.0440556e-01
  2.0837432e-01
 -1.2348610e-01
  2.5563585e-04
  1.5653501e-01
  2.2802949e-04
  8.6320553e-04
 -3.7209025e-05
  2.6875174e-02
 -2.2505422e-04
 -3.0711704e-01
  1.5057365e+00
 -5.7030678e-01
 -1.2529870e+00
  1.3505447e-01
  2.7423200e-01
  1.1490326e+00
  1.5723293e+00
 -8.5247092e-02
  3.7421632e-01
 -9.2090362e-01
  6.2335683e-03
 -2.1109250e+00
 -1.1292226e+00
 -4.5452997e-01
  1.1127441e+00
 -6.9699579e-01
  5.6856929e-06
  2.8198156e-01
 -8.5698850e-03
 -1.3547959e+00
 -1.5422903e+00
  6.9292730e-01
 -1.5106938e+00
  8.9971030e-01
 -7.0370488e-02
  7.7918506e-01
  1.0993736e+00
  4.0516019e-01
 -1.6229178e+00
 -1.4453202e+00
 -5.5442160e-01
  1.8652745e+00
  6.4345312e-01
  1.7912586e-01
 -1.3033664e-01
  1.2804241e+00
  2.0032918e+00
 -8.2670488e-07
 -3.7102982e-01
 -6.1730992e-02
  7.6077265e-01
 -3.6498943e-01
  1.4405808e+00
 -1.7898117e+00
  4.8562494e-01
  1.2782909e-01
  1.7607639e-02
  9.7913362e-06
 -1.7957645e-05
 -1.4948480e-01
 -2.1150632e-05
 -9.6782023e-01
 -4.6686898e-03
  1.5739608e+00
  8.2259727e-01
 -2.2313870e-05
 -1.4110297e-04
 -2.4672272e-05
 -8.5711654e-05
 -8.1278587e-05
 -1.0943000e-04
  1.9704836e-05
 -7.9213760e-06
  8.3066727e-05
 -2.5854237e-05
  2.6242795e-05
  2.7906510e-05
 -1.7269347e-05
  2.8450891e-05
 -8.6149608e-05
  3.0469013e-05
 -2.0511216e-05
 -8.2958315e-05
 -1.1794079e-05
  2.8551769e-05
 -2.0160087e-05
 -2.6947622e-05
 -2.8939528e-05
  5.2449901e-05
  2.8899072e-05
 -2.5662415e-05
 -1.4367358e-04
  1.3854686e-06
  1.6585198e-05
  4.5722016e-04
  8.9105430e-05
  2.0036616e-05
  2.3972840e-05
 -1.6974528e-04
 -8.6557491e-05
 -9.3316739e-06
 -3.0401925e-05
  2.4783318e-05
  8.1694896e-05
 -1.4571800e-05
  2.2241009e-05
 -8.2309189e-06
 -3.0348468e-05
 -1.0207506e-05
  1.2835261e-05
  1.1168658e-05
  8.4176172e-05
  6.7259338e-05
 -2.9131854e-05
 -9.3824119e-06
  2.4895400e-05
  1.5318333e-06
 -1.5772105e-06
 -3.0448897e-05
  1.1574717e-05
 -8.1227416e-05
  2.3375072e-05
  8.2980678e-06
  2.8723218e-05
  3.0837873e-05
  2.2347142e-05
 -2.3347506e-05
  2.8220506e-05
  1.1241703e-05
 -2.1447027e-05
  1.1608919e-05
  9.0636175e-05
 -9.4965217e-05
  4.4451503e-05
 -5.3346771e-06
 -9.0847840e-05
 -5.7773781e-05
 -8.7854503e-05
  2.9619070e-05
  1.3541310e-05
 -2.0590533e-05
 -1.2616839e-05
  2.5589121e-05
  2.7729493e-05
  1.9402760e-05
  1.7594235e-05
 -5.3132982e-07
  2.4647188e-05
 -2.7564962e-05
  9.4478373e-06
 -5.3802960e-06
  2.4019733e-05
  2.8516390e-05
 -2.2460677e-05
 -1.4331909e-05
 -3.2317312e-05
 -2.1394815e-05
  9.3611152e-07
 -2.9706736e-05
  2.9363875e-05
  1.7938317e-05
  6.5271147e-06
 -4.8089933e-06
  2.9305951e-05
  8.9080262e-05
 -6.9696102e-06
  4.3833529e-06
 -2.7060709e-05
  7.0440638e-06
 -2.8644756e-05
 -6.5165230e-05
  2.8289631e-05
 -2.6584279e-05
  1.0361354e-05
 -1.5695374e-05
 -9.2813971e-06
 -1.1281418e-05
  4.5302054e-01
  1.2364438e+00
  1.2853655e-01
  5.0615960e-01
 -9.5779926e-02
 -1.8111207e-01
 -2.4679928e+00
 -2.2321390e-01
  4.1360085e-04
 -4.4342132e+00
 -8.3365136e-01
  1.7452471e-01
 -2.3094699e-04
  8.5303967e-05
 -3.7947729e-01
  2.5783444e-02
 -1.0013187e+00
  5.8669895e-01
  7.5814527e-01
  1.0809013e+00
  5.1570290e-01
 -4.9877796e-02
 -1.9707166e-02
 -1.1115320e+00
 -8.1673390e-01
 -1.5795900e+00
 -8.4017777e-01
  5.5431023e-02
 -5.1644552e-01
 -6.1364812e-03
 -3.5151893e-01
 -1.3498118e+00
  7.2963011e-01
  3.0979007e-02
  6.4178908e-01
  7.1090501e-05
 -1.8519928e-01
 -2.3488889e+00
  1.2330627e+00
 -1.5191804e+00
 -1.5489711e+00
 -9.2568052e-01
  2.9752405e-02
 -2.1330693e-01
  1.9613646e-01
 -8.2391226e-01
  4.9170905e-01
  2.2663791e-03
  2.2003169e-01
  8.9093635e-05
 -7.1132821e-01
  2.0955567e-01
 -9.0427583e-01
  1.5007643e-05
  1.1803331e-05
 -2.9079281e-04
  5.8858353e-01
 -8.0360585e-01
  1.6171262e-01
 -5.6544906e-01
  8.5304058e-01
 -5.4642603e-02
 -5.7753611e-01
 -1.9191294e+00
 -3.9066095e-02
 -5.6935310e-01
 -1.8617115e+00
 -6.5501702e-01
  6.8513519e-01
  3.5176089e-01
 -5.3730202e-01
 -2.6022279e-01
 -8.0856317e-01
  2.3952330e-02
  1.2975657e-01
 -9.0730646e-05
  8.3938944e-01
  1.1193194e+00
 -6.9918448e-01
  6.7764640e-01
 -3.7813464e-01
 -5.5102140e-02
  1.2667608e-01
 -3.7646058e+00
 -3.7599224e-01
 -3.6194828e-01
 -3.5255626e-01
 -7.5771171e-01
  7.2109860e-01
  1.0063622e+00
 -7.2619714e-02
  1.2241749e-03
  3.8079929e-01
  2.8750939e-02
 -1.7793033e-01
 -5.9948963e-01
 -3.1567772e-03
 -1.1980284e+00
 -1.1744956e+00
  4.8960183e-02
 -1.9115942e-04
 -1.1306943e+00
  3.4644276e-01
  3.5659508e-05
  1.0907658e+00
 -2.5291939e-03
  1.4540830e-04
 -2.3134588e-01
  9.5894063e-01
 -2.9266872e-05
  5.8356029e-01
  9.1389054e-05
  1.0509336e+00
  1.1892289e-01
 -4.4340553e-04
 -1.2693675e+00
 -6.7309541e-01
  1.1678322e-01
  1.1026249e+00
  1.2754717e-01
  4.9285691e-02
  7.9573876e-01
  1.0902587e+00
  1.5035866e-01
 -3.9831838e-01
 -1.5776671e+00
  2.3452611e-01
  8.0329724e-02
  3.4785184e-01
  1.7129096e-05
  7.5608667e-05
  5.8424590e-05
  1.5047991e-01
  1.3876075e-01
 -3.0522511e-05
  2.1747341e+00
 -7.0443535e-01
 -3.9041135e-01
 -1.5015092e-06
 -4.3211234e-01
 -6.1602336e-01
  1.7765712e-02
 -2.0433905e+00
  2.1239297e+00
  2.8596315e+00
 -1.2862002e+00
  5.4379827e-01
 -8.9133032e-02
 -3.0150488e-01
 -1.8008115e+00
  9.3110681e-01
 -5.3835255e-01
 -5.7303436e-02
 -4.2224035e-01
 -2.5311285e-01
 -2.5583278e-02
 -3.1007203e-01
  8.0369698e-04
  4.3940410e-01
  1.1684938e-02
  5.4777986e-01
 -3.0727810e-05
  6.8808222e-01
 -2.6259990e-05
 -5.1172692e-03
 -4.1865351e-06
  2.2890936e-01
  6.0719587e-03
 -7.0443720e-01
 -2.3714006e-01
 -1.8654737e-01
 -8.4820443e-01
  2.0228066e+00
  6.5301865e-01
 -1.5135193e+00
  8.0328544e-05
  3.7503394e-03
 -4.4716620e-01
  4.2233273e-01
  4.1880994e-05
  9.5553142e-01
  9.4451904e-02
 -2.1945187e-01
 -1.1644936e-01
 -1.8453476e-03
 -2.8392798e-05
  7.6323974e-01
 -2.4078194e-02
  3.3440581e-04
 -2.0977490e-01
  1.1797588e+00
 -2.1673954e-01
 -1.2973325e+00
  6.3732125e-02
 -1.0280504e-02
  2.1254446e-04
 -2.9134297e-01
  2.3079182e-03
  1.5362169e-01
  4.1841501e-01
 -1.4707208e+00
  5.5640084e-01
 -3.0632164e+00
 -2.9904342e-05
 -4.9807346e-01
 -1.7016977e-03
  9.1132075e-05
 -1.2135178e+00
  7.0195139e-04
 -1.0766282e+00
 -1.8044595e-01
 -4.9789256e-01
  5.0723356e-05
  7.2022706e-01
  4.6109155e-02
 -6.9338977e-01
  3.3126619e-01
  2.9318038e-05
  1.3583454e+00
  6.2055551e-06
 -1.2603937e+00
 -2.5690173e-05
 -2.7919685e-05
  5.7006784e-04
 -9.5831382e-01
 -4.6748263e-03
 -7.7180934e-01
  2.9915376e-05
  3.9596701e-04
  1.5881850e-01
 -3.6888620e-01
 -1.4860139e-04
  6.9244377e-02
 -2.1079638e+00
  3.4097034e-01
  2.5996507e-05
 -1.6855526e-01
 -1.1574469e-01
 -1.2374891e+00
  5.7561046e-01
  1.7477113e-01
  9.8466939e-01
 -1.6891044e+00
 -2.9110930e-05
 -6.7348324e-02
 -7.6496315e-01
 -1.4335602e-03
  2.6509376e-02
 -1.4748822e-01
  8.8018298e-01
  5.1857241e-06
 -9.9900293e-01
 -1.2967618e-04
  1.8936339e-01
 -1.1097531e+00
  8.0599481e-01
  5.0161201e-01
  1.4388095e-01
 -1.0326961e+00
  5.2877750e-02
  1.7952846e-01
 -1.7357619e+00
  1.5030789e+00
  1.2168504e+00
 -1.9659801e+00
 -8.0225599e-01
 -9.4586420e-01
  9.6879715e-01
  3.1497565e-01
 -6.2178528e-01
  9.3463689e-02
 -2.9696672e-05
  1.2033082e-05
  2.4768769e-05
 -3.4224737e-01
  2.1359250e-01
  1.8571644e-05
 -1.5054480e-04
 -1.3934500e+00
 -9.1029127e-05
 -1.9099505e-05
  2.4205903e-05
 -1.4173037e-04
  1.7223112e-05
 -2.6519619e-05
 -6.8831599e-07
  2.5556970e-05
  2.6544762e-05
 -3.1448025e-01
 -2.8728853e-05
  3.0486946e-05
 -7.8378296e-05
  3.0525542e-05
  2.6417478e-05
 -2.2088274e-05
 -1.3607174e-05
 -1.2758729e-06
 -5.9972367e-06
 -1.6306631e-05
  1.9049377e-05
 -2.8630877e-05
 -7.1281256e-06
 -3.2102591e-05
 -2.2832466e-05
 -2.9377115e-05
 -1.3897843e-04
  1.8264822e-05
 -1.7516335e-05
 -1.8668554e-06
  2.6784894e-05
  3.0275220e-05
  5.8840419e-06
 -8.2246761e-04
  2.3512497e-05
 -1.6128690e-05
  8.3489640e-06
 -2.1240530e-05
 -7.3490346e-06
  2.7852473e-05
  4.3041375e-05
  2.2379421e-04
  2.9498819e-06
 -2.9597348e-05
  1.7467923e-05
 -3.0377490e-05
  1.4146766e-05
 -8.2763712e-05
 -4.8010138e-06
 -2.1632566e-05
 -8.6117390e-05
  1.6925402e-05
  2.5686608e-05
 -3.0428137e-05
  1.3347739e-05
 -1.0758924e-05
 -2.5626548e-05
  3.1905988e-01
 -1.0368637e+00
  1.6574751e-01
 -1.5456703e-01
 -9.1004032e-01
  9.3172264e-01
  5.0193779e-02
 -1.1303374e+00
 -1.9052764e+00
  4.2103893e-01
  5.3464711e-02
  1.1066868e+00
  1.2740935e-01
 -1.1176870e+00
  1.7533966e+00
  1.4077543e-01
 -1.1175216e+00
  7.1970385e-01
 -2.9485542e-01
  1.0558619e-03
  1.0034581e-01
  5.7261590e-02
 -1.6590056e-04
  1.0299473e-01
 -3.0470392e-01
 -1.1092182e+00
 -6.9796915e-05
 -1.7338895e+00
  1.5511470e-01
  1.2654814e-01
 -3.1853294e-01
  2.4683122e-01
 -2.0702413e-01
  5.0545275e-01
  1.4071058e+00
  2.1253950e-04
 -1.8637761e+00
 -2.8269789e-01
  9.6728774e-03
 -1.7189658e-01
  4.9036714e-01
  3.5427775e-02
  1.2677350e+00
 -9.5117843e-01
  1.4211184e-01
 -5.8590591e-01
 -1.7780318e+00
  2.2492663e-06
 -2.6565301e-01
 -3.0505831e-05
  1.2275974e-01
  3.8444149e-04
 -6.8595517e-01
  2.3695888e-05
 -6.6511059e-01
 -1.7158802e-01
 -2.0181493e-05
 -3.0516832e-05
  7.3655897e-06
 -5.5413789e-06
 -2.3118451e-05
 -2.6703427e-05
 -2.0003336e-05
  9.0666963e-06
 -3.0174255e-05
  1.8841884e-05
  1.0148952e-05
 -2.1986449e-05
 -2.0729332e-05
 -2.8283912e-05
 -1.3791559e-05
 -1.3557647e-06
  2.3081112e-07
 -1.1228683e-05
  3.0067727e-05
  2.4006576e-06
 -1.7298349e-05
 -2.9881752e-05
 -2.5231919e-05
  1.7039267e-05
 -2.1990156e-05
 -2.9957944e-05
  9.0078320e-05
  1.6632875e-05
  4.0683904e-04
 -1.0754875e-05
  1.3650298e-05
 -6.1011519e-06
 -1.2676202e-05
 -2.5400994e-05
 -9.0621861e-06
  2.0123905e-05
 -2.2379551e-05
 -2.8644583e-05
  2.2674867e-05
  2.5526166e-05
 -1.3697994e-05
 -6.5572672e-06
  2.2418448e-05
  2.8237610e-05
 -3.6816815e-05
  3.0345114e-05
 -7.2872375e-05
  2.5617628e-05
 -1.3754163e-06
 -2.0148614e-06
 -2.4676177e-05
  6.4827080e-05
  2.1219332e-04
  1.0096240e-05
  2.7976652e-05
 -3.0137287e-05
 -3.0819538e-01
 -2.4664207e-01
 -1.6207407e+00
  6.7886919e-02
 -9.9209920e-02
 -7.6270358e-06
 -1.2469567e+00
 -7.0064831e-01
 -1.8396012e-01
  9.3203688e-01
  4.4839445e-01
  1.1848681e-01
 -1.1318548e+00
 -2.9324321e-02
  1.0839539e+00
  6.4410195e-02
  1.3019616e-02
  1.4884365e-04
 -2.7696872e-01
  5.0161707e-01
  2.2341275e-01
 -9.6169099e-02
 -5.8577454e-01
  3.0005619e-01
  2.4383040e-01
 -1.5735896e-01
 -2.3532097e-01
  7.9252034e-02
  6.4911580e-01
  1.9948244e-01
 -1.9334190e+00
  3.5969028e-01
 -1.2351410e-02
 -3.7300763e-01
 -1.6823106e+00
 -1.3737247e-06
  1.1663713e+00
 -3.4417276e+00
 -9.3871725e-01
 -9.0938598e-01
  7.0394892e-01
 -5.1932774e-02
  1.9275682e+00
 -1.0603672e-01
  4.1146344e-01
  3.6764693e-01
 -7.0460451e-01
  4.3456525e-06
  7.8878875e-05
  3.5184115e-02
 -7.8550744e-07
  2.9411929e-02
  3.1008583e-01
  1.3262960e-04
  7.1107888e-01
  7.5244584e-06
 -8.5807770e-01
 -1.8007430e-01
  5.1033244e-02
 -9.8915309e-01
  5.0965339e-02
 -7.1927898e-05
 -2.7245636e+00
  1.5395184e-05
 -8.4674686e-02
 -5.4569411e-01
 -1.4303863e+00
  1.5138381e-04
 -1.2803423e+00
  1.8757019e-05
 -2.7660566e-05
  2.2535150e-05
 -9.9342507e-01
  3.1796552e-04
  2.0864718e-01
  3.0363010e-05
 -1.9268756e-01
 -4.8683271e-01
 -3.8282511e-01
 -9.9652356e-01
  3.0803838e-01
 -1.2524093e+00
  2.2288707e-05
  4.6139359e-01
 -3.8137627e-01
 -1.7378395e-03
  2.1157190e-01
  2.5715323e-02
  9.3196207e-01
  6.3312584e-01
 -1.8635564e-04
  2.6830479e-05
  1.9607444e-01
  6.1064895e-02
  9.1903466e-01
  2.8474885e-01
 -3.4314987e-01
  7.0182866e-01
 -2.6200099e-02
  1.0421667e-01
 -1.5081126e-05
 -1.7482694e-02
  2.6689177e-05
 -1.6947741e-05
 -1.3762883e-04
 -3.5326182e-05
 -9.9090569e-02
 -1.7580183e-05
 -3.0546380e-05
  8.1962949e-05
 -1.8521929e-05
 -3.1523816e-02
  1.8654623e+00
  9.0225214e-01
 -1.4023028e-01
  9.9512494e-01
 -1.2789352e-01
 -1.8709250e-01
 -7.7950829e-01
  3.2444692e+00
  1.3309890e-02
  1.5022824e+00
  3.4921256e-01
  2.5908178e-02
 -9.0128332e-02
  3.4918758e-01
  4.5237024e-04
  8.4386650e-04
  1.5378805e+00
 -2.7852604e-05
  5.5827969e-01
 -7.8460101e-07
 -6.0784829e-01
 -2.1621732e-03
  2.0421331e-03
 -1.3121560e+00
 -1.1298716e+00
 -1.9113135e-01
 -2.8479651e-01
 -1.0108907e+00
  7.5399733e-01
  3.6784425e-01
  8.0549560e-02
  1.8102314e-01
 -4.0765222e-02
 -9.2797452e-01
 -7.3196423e-01
 -1.1411990e-06
 -6.1308946e-02
 -4.9124646e-01
  9.8330063e-01
 -7.5717157e-01
 -1.0592924e+00
  4.5339224e-01
 -2.6723888e+00
 -4.7771373e-01
  4.8724059e-02
 -5.7037298e-02
 -8.1138447e-02
  2.4433413e-05
 -4.0925015e-06
  2.7577031e-05
  7.4185157e-01
 -1.2023624e-01
 -3.6793205e-01
 -1.3257544e-05
  1.6058277e-03
 -8.3419713e-05
  7.0441012e-05
  2.0653251e-05
  2.0334992e-05
 -3.0452218e-05
 -2.6755599e-05
  2.2946804e-05
  4.8796446e-05
 -2.8867638e-05
 -3.0203095e-05
  2.2087799e-05
  3.9371598e-06
 -2.5666299e-05
 -1.7609813e-05
 -2.4408637e-05
 -1.7713544e-05
 -1.3986139e-05
  2.9162902e-05
 -1.5643209e-05
 -3.3173055e-04
  2.1434365e-05
  7.6946276e-07
 -9.9261297e-07
 -1.7762730e-05
  2.6407271e-05
  1.7943232e-05
  2.7008191e-05
 -2.9461542e-05
  2.4780098e-05
  2.0493126e-05
 -1.7128075e-05
 -2.3644388e-05
 -3.2442119e-06
 -2.9460307e-05
 -2.2251352e-05
 -3.4566738e-06
 -2.8678081e-05
 -2.5130146e-05
  7.2427247e-06
 -2.1610456e-05
 -3.1801352e-05
 -2.5144407e-05
  8.7847220e-05
  1.3869639e-05
  2.5157386e-05
  2.8712384e-05
  2.7963946e-05
  8.6872096e-06
  2.4034896e-05
  8.9093206e-05
 -2.1033453e-05
 -1.8871534e-06
 -2.6567041e-05
  2.5612686e-05
  4.7437188e-06
  2.4945575e-05
 -2.9260449e-05
  3.0518273e-01
 -3.4190488e-01
 -2.1970780e+00
  1.0348815e+00
 -5.7091366e-02
 -1.9626459e-01
  2.3955854e-02
  4.1085044e-01
  1.3186473e+00
 -1.1573426e+00
  4.3714148e-01
 -5.6289351e-01
 -2.4369536e-02
 -2.9274244e-05
 -5.3319260e-03
  1.2791567e+00
  4.9193940e-01
  9.8075807e-02
  1.4865067e+00
  2.7456495e-04
 -6.9985241e-01
  1.9978715e-01
 -1.0858189e-05
  5.6182873e-01
  7.1776885e-01
 -5.7847387e-01
  1.4170923e-05
  1.5928351e+00
  2.1128087e+00
  1.8569720e-01
 -6.2286586e-01
  6.2990379e-01
  1.6789966e+00
  9.3997180e-01
 -3.2866336e-04
  2.8732118e-01
  1.4110923e+00
 -4.7822019e-01
 -3.3854037e-06
 -5.9431005e-01
  4.0230808e-01
  5.0604892e-01
 -3.2885882e-01
  7.0852655e-01
  3.2040980e-01
 -7.5336471e-02
  2.0126314e-01
  1.3880602e-05
 -1.8055888e-01
  1.5146564e-03
 -3.4029674e-02
  1.5520791e-06
  2.3391385e-02
  2.4620334e-05
  3.9056490e-06
 -3.0118861e-05
 -2.0546364e-05
  7.6284618e-05
 -3.5705303e-03
  8.0060257e-05
 -1.0645313e-02
 -2.5072359e-04
  3.3402104e-02
  1.1286576e-03
  1.9876226e-05
  1.9968950e+00
  4.3853396e-01
  2.6770902e-05
  9.7561139e-01
 -4.8090766e-05
  8.9965612e-03
  3.2705229e-02
  1.0924371e+00
 -1.9255342e-04
  2.1970846e-01
 -1.5244454e-04
  2.0132253e-04
 -4.4877075e-02
 -8.1965243e-03
 -3.4046225e-02
 -3.3565811e-04
 -2.0223469e-02
  4.2436160e-02
 -6.0879989e-05
 -1.3685794e-04
 -1.7159109e-05
 -4.2259738e-02
 -8.2300566e-02
 -1.9580954e-04
 -8.3876252e-03
 -4.4638003e-04
 -7.5381213e-05
 -8.9304602e-05
 -1.2606229e-01
 -9.3621056e-06
  2.2906290e-06
  2.8646323e-01
 -2.6380485e-01
  8.9230342e-03
 -2.5819190e-04
 -2.9746192e-05
  2.5832545e-02
 -1.2568490e-01
 -2.6743757e-05
  2.4785299e-05
 -9.0366448e-05
 -7.2440653e-06
 -2.8010502e-01
  3.0143543e-05
 -2.9217256e-06
 -7.0831571e-05
  8.8561006e-05
  8.4694482e-05
 -2.9065832e-05
  7.3277070e-06
  7.9029896e-06
  2.6918451e-05
  1.6374939e-05
  5.5613136e-06
 -2.8009998e-05
 -2.6449012e-05
  2.0495550e-05
  1.6808357e-05
  1.7936069e-05
 -3.2215419e-01
 -6.7945200e-07
  6.9169355e-06
 -3.4712939e-05
  3.7484679e-06
 -1.0431270e-04
 -1.8065149e-08
  1.5963949e-06
  3.1878822e-06
  3.6474175e-06
 -2.4960435e-05
 -9.7689363e-06
 -1.6900791e-05
 -1.0564203e-05
 -2.7438626e-05
  1.9261639e-05
 -9.0157730e-05
  1.8164788e-05
  2.7287311e-05
 -1.0659486e-04
  1.8198602e-05
  5.9320500e-06
  9.6656495e-06
  4.9481655e-06
 -7.6048923e-06
  5.6577724e-06
 -2.6980768e-05
  8.0549108e-07
 -2.8069158e-05
 -2.3321954e-06
 -6.1789533e-06
  2.4485644e-05
 -1.3279046e-06
 -1.0261741e-05
 -2.9321218e-05
 -1.5462516e-05
 -1.3561480e-04
  3.0515090e-05
  1.6327564e-05
 -2.6846876e-05
 -5.1804154e-06
 -2.7360546e-05
  2.2144279e-05
  5.8150413e-06
  2.1894670e-05
 -9.1075570e-05
 -2.8244309e-05
 -4.3400773e-06
  2.7934098e-07
  2.2274295e-05
 -1.0464655e-05
 -1.2965233e-05
  1.1529047e-04
  1.8689254e-05
 -5.3988821e-05
 -1.5546597e-05
  2.7504211e-05
 -2.4637166e-05
 -2.8593384e-05
 -2.9655352e-05
 -1.2382567e-04
  2.4131732e-05
  3.8784427e-05
 -4.3289761e-05
  1.9417839e-05
 -1.2831386e-05
  2.6569682e-05
  2.4516192e-05
 -2.9678768e-05
 -1.7790351e-05
  1.0308921e-05
  9.0121604e-05
  2.3874572e-05
 -8.7169274e-06
  2.5397032e-05
  2.9190709e-05
 -2.4688476e-05
  3.4290790e-06
 -2.9973298e-05
  1.5198971e-04
 -7.1029841e-05
 -4.1902940e-06
 -1.8218658e-05
  1.6793841e-05
 -1.1631471e-05
 -1.2837122e-05
  1.9088911e-05
  2.1116748e-05
 -2.6594871e-05
 -3.0263880e-05
  2.3170905e-05
 -1.9198471e-05
  2.6543485e-05
  2.6423357e-05
  2.9448856e-06
  1.4311564e-05
 -2.2285220e-05
  2.1676722e-05
  2.9664936e-05
 -1.6200831e-05
  8.5732037e-01
  3.3622915e-01
 -8.0642617e-01
  1.6029334e+00
 -1.8893000e+00
  2.0244244e-05
 -2.3341599e+00
  1.4537193e+00
  1.6939795e+00
 -2.3714073e+00
  5.1694208e-01
  8.8231474e-01
  9.2598039e-01
  6.7420840e-01
  1.7630394e-01
  7.6944016e-02
  7.8972405e-01
  1.3588408e-05
 -1.9996414e-02
  1.3599128e-01
  7.1852824e-05
 -5.3603840e-01
  1.2343407e+00
 -3.7526966e-03
  1.4028708e-05
  1.0584999e+00
 -1.2082977e-05
 -1.4822029e-01
  4.4684978e-03
 -9.6412569e-02
 -2.9610803e-02
  9.0176277e-02
  1.0410402e+00
  1.1610842e-01
 -2.9864295e+00
 -3.0164590e-05
 -1.8800899e-01
  9.9381141e-02
 -1.7104797e-01
 -8.6184686e-01
  1.6452637e+00
  2.4577420e-02
 -1.8760240e-01
 -8.3840686e-01
  6.9865469e-06
  1.2603268e-02
  3.6438633e-04
 -4.9676200e-05
 -6.9723505e-01
 -2.0570065e-05
  3.9661769e-04
 -7.7529901e-01
  3.7879980e-01
 -2.6462289e-05
  1.4952880e-03
  2.9818328e-05
 -1.9035295e-01
  5.8489484e-01
  4.2296831e-02
 -4.2740181e-01
 -1.6085956e+00
  1.1566457e+00
 -8.5926038e-01
 -5.7563025e-01
 -7.7722706e-02
  4.1438736e-02
 -5.9304035e-01
  2.4010313e+00
 -4.2754641e-01
  3.1416425e-03
 -9.3329990e-01
 -4.4028208e-01
 -4.3072516e-01
  1.2447242e-01
 -1.7362297e+00
 -1.3338317e+00
  1.7543261e+00
 -4.4883749e-01
 -4.1631404e-01
  5.9321368e-01
 -1.6390686e+00
 -1.5388438e+00
 -4.1408443e-06
  1.1809753e+00
  1.8333989e+00
 -2.6884764e-01
 -9.8823059e-01
  3.4298432e-01
  2.4674134e+00
 -4.0061510e-01
 -4.6643883e-01
 -8.6998172e-02
  3.7440535e-01
 -4.2269272e-01
  2.3088710e-02
 -1.3619171e+00
 -1.6420470e+00
 -7.7037764e-01
  5.4155827e-02
  2.3957343e+00
 -6.6733479e-01
  1.4983091e+00
  1.4517295e+00
 -3.0508576e-05
  1.2868844e-01
  2.9584093e-05
 -9.6460283e-01
  2.7470689e-05
 -8.9773554e-01
  9.1149523e-05
 -2.3672476e-01
 -1.1548826e+00
 -2.5099766e-01
 -1.8618673e-01
 -5.8983076e-02
  2.4139896e-05
  2.2418857e+00
  1.4390488e+00
 -4.0871748e-01
 -2.6898555e-05
 -3.0464354e-01
 -3.1122670e-01
  7.9131454e-02
  3.3195167e-06
 -1.4925659e-01
  2.4036663e-04
  8.2652926e-01
 -1.3347946e+00
 -1.1570678e+00
 -4.5192915e-01
  1.0401880e+00
  6.0639662e-01
  1.1441245e+00
  5.0600535e-01
  7.4551098e-02
 -9.9128187e-02
 -6.1523968e-01
 -2.1072365e-02
 -1.3711128e-01
 -1.2488519e+00
  1.7787054e-01
 -1.5991069e-01
  6.4361024e-01
  1.1074419e-01
 -1.2209738e+00
  1.0037388e-02
  1.4923831e+00
 -1.1070816e-05
 -6.0277534e-01
 -9.5792001e-01
  2.8263976e-05
  4.7922400e-01
 -9.3779284e-01
  1.7201165e+00
  5.3572506e-01
  4.2454305e-01
  3.9072970e-06
 -1.9690791e-01
 -5.5014026e-01
 -4.7321919e-01
 -2.9510021e-01
 -5.7660971e-05
 -2.3443054e-05
 -8.5773892e-05
  8.8404316e-01
  7.7784294e-05
  3.3600807e-06
 -5.5861613e-04
  7.7982957e-05
 -3.0109453e-05
  1.5046156e-05
 -2.0823009e-05
  2.6475191e-05
 -2.3852015e-05
 -3.0040528e-05
 -8.7939261e-05
  2.7560151e-05
  4.8525941e-05
  1.7847484e-05
  6.7364922e-06
  2.8884180e-05
 -1.6331567e-05
  7.9198253e-06
  1.4036561e-05
  1.4944511e-05
 -2.7580818e-05
 -2.1968379e-05
 -2.6348414e-05
 -1.6358596e-05
 -2.9325834e-05
 -2.8584294e-05
  1.4921304e-05
 -2.6966924e-05
 -2.6458307e-05
  2.6382577e-05
 -1.6433518e-05
 -1.7359249e-05
  1.6541640e-05
  9.7126531e-06
 -2.2980341e-05
 -1.5247398e-04
  1.0317111e-05
  1.5304417e-05
 -2.2056318e-05
  1.9049037e-05
 -2.7696065e-05
  2.7319547e-05
  1.2585569e-05
 -3.0465508e-05
 -2.6473659e-05
  2.6807351e-05
  6.7776498e-05
  8.6019918e-06
  1.0870664e-05
  2.8810144e-05
  2.3507322e-05
 -8.4727099e-06
 -1.6722450e-05
  1.8490648e-05
  2.9003502e-05
  2.5604126e-05
  2.5727906e-05
  2.8383909e-05
  9.4258730e-06
  1.7214875e-01
  1.4964814e+00
  6.8426962e-06
  2.5841998e-02
 -1.8995540e-01
  2.4786719e-05
  1.4680151e+00
  2.1337965e-04
 -2.9798613e+00
 -1.9145498e-05
 -4.1568077e-01
 -1.9781328e-05
  3.1336215e-01
 -2.8430466e-06
  1.6259763e+00
  1.4411315e+00
 -3.2309985e-05
  1.4598436e+00
 -1.1347185e+00
 -2.4520741e-01
  1.1700132e-04
  6.7101764e-06
  2.8366205e-05
 -6.3098770e-01
  1.7356722e-01
 -3.0613706e+00
 -8.6308599e-01
 -1.7046744e+00
  9.8320188e-06
  3.0276731e-05
  6.3804915e-04
  3.5586706e-01
  1.5114806e+00
 -1.5198615e+00
 -1.3107274e-01
 -6.0664802e-06
  1.9236462e-01
 -2.9689932e-05
 -8.9199060e-01
  1.7660265e-01
 -3.3753135e+00
  7.8249468e-05
  3.2346485e+00
 -2.9952008e-01
 -2.7142933e-06
  8.4119049e-05
 -6.2201226e-01
  6.6000104e-01
  2.1286302e+00
  1.7412664e-05
 -1.4523896e+00
  1.8003193e+00
 -2.8171311e-05
 -3.7025231e-01
 -4.5803538e-01
  1.4589651e-01
 -1.4534385e+00
  4.6027163e-01
  1.1818869e+00
  1.7494869e-01
 -7.5637364e-01
  7.7951610e-02
  2.0325561e+00
  2.7829740e-06
  8.1710809e-01
  7.7328485e-01
 -2.4533590e-05
  1.0251060e+00
  1.9574795e+00
 -5.2194518e-01
  1.3135843e-01
 -1.6536143e-05
 -5.0786915e-03
 -1.2918049e+00
  6.8798715e-01
  5.1992750e-01
  1.2469330e+00
 -7.0468026e-01
  1.3428098e-01
 -3.0128074e-05
  8.1028086e-01
 -5.2836257e-01
 -2.1953192e+00
  4.9429068e-01
  5.1414239e-01
  2.5369752e-02
  1.2359809e+00
 -3.8821734e-02
  6.0984957e-01
 -5.8863956e-01
  4.4131878e-01
  3.0582243e-05
  6.8038756e-01
 -5.4971051e-01
 -1.8339301e-02
  6.3809362e-06
  1.1861061e+00
 -1.1755412e+00
  1.1805896e+00
 -6.2093801e-05
  7.2369494e+00
  1.2074964e+00
  1.2536833e-01
 -2.0379834e+00
 -1.1401778e-01
  1.4594229e+00
 -1.2128192e+00
  6.4437729e-01
  1.0000461e-01
  4.6235761e-01
 -2.5501385e-01
 -1.5934582e+00
  2.2636817e+00
 -1.0033719e-01
  2.1711581e+00
 -8.2070512e-01
 -1.7799787e-01
 -2.5100493e+00
 -3.3915157e+00
 -1.4262122e-01
 -1.3933944e+00
  1.7131224e+00
  7.5783843e-01
  1.5853669e-01
 -9.6441507e-01
  1.7688886e+00
  1.4403182e+00
 -1.0542465e+00
 -1.0853717e+00
 -1.4343730e+00
  2.2251539e+00
 -3.0348170e-01
 -1.4518619e+00
 -1.8657413e+00
  6.6459268e-01
  1.5164905e+00
 -1.0015258e+00
  2.5065951e+00
 -8.6187226e-01
  1.0000001e-01
 -1.0183326e+00
  8.9737475e-01
 -2.9041135e+00
  1.0000008e-01
  6.0125500e-01
  7.5811666e-01
  8.5420817e-01
  1.6878682e+00
  9.3118501e-01
 -1.7090453e+00
 -5.5262256e-01
 -1.2758795e+00
  1.5381873e+00
 -1.1532607e-01
  1.7974801e-01
  1.0150061e-01
 -1.1304723e-01
  1.9767097e-01
  1.0125046e+00
 -1.0904399e-01
 -6.8126595e-01
  6.0124969e-01
  3.7359619e-01
 -6.8949461e-01
 -1.0172434e+00
  1.8025475e+00
 -5.5364990e-01
  6.0431719e-01
  1.1014516e+00
  6.2919790e-01
  5.5755496e-01
  8.9459062e-01
 -2.4747374e+00
 -1.7527336e-01
  3.7852347e-01
 -1.0003055e-01
  2.9254067e-01
  1.5490506e+00
  1.6457309e+00
 -1.0015243e-01
 -1.0770721e+00
  7.0725751e-01
 -1.6202981e+00
 -1.9629595e+00
 -1.5641174e+00
 -1.6387205e-01
 -9.5033526e-01
  9.7968620e-01
 -1.0000912e-01
 -1.8336021e+00
 -4.4725189e-01
 -1.7982776e+00
  1.8335983e+00
 -2.4688113e-01
  9.5155478e-01
 -5.9830421e-01
  1.9414942e+00
  6.2884516e-01
 -2.0623028e-01
  1.1940306e+00
 -1.0287285e+00
 -7.7939790e-01
 -1.1508789e+00
  3.0875331e-01
 -1.0576780e+00
 -1.1847439e+00
 -2.5863585e+00
 -1.7766696e+00
 -2.8337851e-01
  1.2474252e+00
  7.4586368e-01
  3.0925459e-01
  1.3346058e+00
 -6.5545505e-01
  1.9816202e+00
 -1.9403031e+00
 -1.4648501e+00
  1.0681762e+00
 -2.0280433e-01
 -1.4612279e+00
  1.1593627e+00
  1.4790628e+00
 -4.0466937e-01
  1.0000830e-01
  1.3764793e+00
 -2.1494749e+00
 -1.3187820e+00
 -7.2966319e-01
 -2.4251096e+00
  1.3218845e+00
  6.9167221e-01
  1.4572982e+00
 -8.5137361e-01
 -5.3884423e-01
  2.8938596e+00
 -4.1999359e+00
  1.7366691e+00
 -4.2015800e-01
  1.2554320e+00
  6.5399164e-01
 -1.4328468e+00
  2.5936887e+00
 -5.3400192e+00
  1.7610451e+00
  8.0413043e-01
 -1.9580687e+00
  3.0637302e+00
 -1.0000365e-01
  4.7272298e-01
  9.1668689e-01
 -2.2501571e+00
  2.7487168e+00
 -5.7789272e-01
  2.6311646e+00
  7.7655381e-01
  1.0690306e+00
  1.5668727e+00
 -5.1497006e-01
 -8.3782852e-01
  2.1914272e+00
 -2.2166135e+00
  1.0000046e-01
  1.7016366e+00
 -2.9517708e+00
 -2.7354124e+00
  1.8017704e+00
  7.6207173e-01
 -1.1710116e+00
 -1.9976798e-01
 -1.9591584e+00
 -2.2478194e+00
  2.7715081e-01
 -2.2234077e+00
 -1.5613596e+00
  1.0000001e-01
  2.9298050e+00
 -1.0002633e-01
  1.9935904e+00
 -9.2156982e-01
 -2.0020142e+00
  2.8157766e+00
  1.0000060e-01
  1.0000281e-01
  3.9471021e-01
  5.4852122e-01
  2.2728581e+00
 -1.0772094e+00
  2.2954707e+00
  4.2581573e-01
  3.6216428e+00
  1.6603382e+00
 -4.1619253e+00
 -1.4724367e+00
 -5.9385753e-01
  2.5871712e-01
 -1.8733827e+00
  2.8495481e+00
 -1.1669294e+00
 -1.1482924e+00
  7.8696823e-01
 -7.4383032e-01
 -1.5916505e+00
  5.0409144e-01
  3.2747202e-02
  3.2747202e-02
  3.2747202e-02
  3.2747202e-02
  3.2747202e-02
  3.2747202e-02
  3.2747202e-02
  3.2747202e-02
  3.2747202e-02
  3.2747202e-02
  3.2747202e-02
  5.7079595e-02
  5.7079595e-02
  5.7079595e-02
  5.7079595e-02
  5.7079595e-02
  5.7079595e-02
  5.7079595e-02
  5.7079595e-02
  5.7079595e-02
  2.3829302e-02
  2.3829302e-02
  2.3829302e-02
  2.3829302e-02
  2.3829302e-02
  2.3829302e-02
  2.3829302e-02
  2.3829302e-02
  2.3829302e-02
  1.1378043e-02
  1.1378043e-02
  1.1378043e-02
  1.1378043e-02
  1.1378043e-02
  1.1378043e-02
  1.1378043e-02
  1.1378043e-02
  1.1378043e-02
  1.6105510e-02
  1.6105510e-02
  1.6105510e-02
  1.6105510e-02
  1.6105510e-02
  1.6105510e-02
  1.6105510e-02
  1.6105510e-02
  1.6105510e-02
  8.9295218e-03
  8.9295218e-03
  8.9295218e-03
  8.9295218e-03
  8.9295218e-03
  8.9295218e-03
  8.9295218e-03
  8.9295218e-03
  8.9295218e-03
