nep3 1 C 
cutoff 8 4.5 155 48
n_max 8 8
basis_size 12 12
l_max 4 2 0
ANN 50 0
  5.9726193e-05
 -3.2289136e-06
  4.7639933e-05
  1.9816589e-05
  4.0598559e-05
  3.6375773e-06
  6.4896558e-05
 -7.8999783e-06
 -4.4851304e-06
 -2.9567789e-05
  7.6453871e-05
 -1.9655483e-05
 -2.5654146e-05
 -2.0782845e-06
 -1.0854813e-05
 -4.8367006e-06
 -7.7549208e-05
 -8.1634542e-05
 -4.1677449e-05
 -1.2455504e-05
 -2.0140553e-05
  2.8092227e-05
 -1.4241992e-05
  9.0689682e-06
  5.9062921e-05
  3.4108962e-05
 -3.8653266e-06
 -2.9231578e-07
 -8.5302701e-05
 -3.5571586e-05
 -1.0181991e-06
  2.4561730e-05
 -3.6152909e-05
  1.5554830e-05
  3.8348990e-05
  2.6923095e-05
 -5.2152791e-05
  6.2343541e-05
  1.0241460e-05
 -5.8524223e-05
 -2.1304473e-05
  5.2445021e-06
 -7.0655093e-05
  4.0400546e-06
 -1.4460465e-05
 -2.3606433e-05
 -5.5178360e-05
 -3.9849401e-06
 -4.5401241e-05
 -2.0523676e-05
  1.0276043e-05
  6.5183369e-05
 -2.4148972e-06
 -2.7105694e-05
 -4.9132336e-06
  5.3010681e-06
 -1.1834961e-05
 -2.6239453e-05
  2.3925853e-05
  4.3579221e-05
 -5.5159260e-05
  3.7839771e-05
  2.8468639e-05
  2.5203577e-05
 -1.9180465e-05
  1.1383821e-05
 -1.6614160e-05
  1.5315432e-05
 -1.4808389e-05
  4.4265074e-05
 -2.0851072e-05
  2.4001805e-05
 -7.1342420e-06
  7.9809888e-06
 -3.9002811e-05
 -1.1946002e-05
 -2.8010352e-05
  1.6030126e-05
 -1.0041558e-06
  1.5624697e-05
 -2.2153154e-05
 -3.3013166e-05
 -2.5169917e-05
  1.5665169e-05
 -6.0665501e-05
  1.7828035e-05
 -1.8382307e-05
  3.2867933e-06
 -2.6732796e-05
  1.2262734e-05
 -6.3640531e-05
  1.8729611e-06
 -1.9518930e-05
  2.1824608e-06
 -1.9510417e-05
 -8.8074175e-06
  8.0109843e-05
 -1.0910861e-05
 -1.0082995e-05
  5.1352275e-05
 -9.8278557e-05
 -3.3579690e-06
 -3.3194010e-05
 -4.3109499e-06
 -1.8195675e-05
  1.1096193e-05
  1.3234475e-04
 -6.1437699e-05
  2.5895124e-05
  1.1068178e-05
 -3.0672101e-05
  2.1632002e-05
 -9.0296016e-05
 -1.6881673e-05
  5.1583178e-05
 -1.0906370e-05
 -2.7683731e-05
 -4.3379616e-05
 -5.3919750e-05
 -1.6865943e-05
 -3.4963665e-05
 -2.2455295e-05
  7.1167347e-06
 -8.8608409e-05
  1.0135068e-04
  1.6540573e-05
  4.5458441e-05
 -4.6566303e-05
  1.1828349e-04
  1.7603830e-06
 -1.6572440e-05
 -2.6874084e-05
 -1.9601563e-05
  5.8195728e-06
  3.6545123e-05
 -1.4199258e-05
 -3.4894427e-05
  1.1683494e-05
  1.0362628e-05
 -2.0081757e-06
  3.7826670e-05
  2.9376517e-05
 -4.0861043e-05
  3.9835240e-06
 -3.3549633e-05
  5.7601987e-06
 -2.4419132e-05
 -2.1552494e-05
 -8.8448351e-06
 -5.1879856e-06
  7.3621828e-05
 -3.9539577e-06
  1.7499984e-05
  7.2579742e-06
  9.8227310e-06
 -1.4862275e-05
 -6.3514002e-05
 -5.8374289e-06
 -3.9559258e-05
  6.6775079e-05
  3.2794353e-05
  4.5017983e-05
  1.6180720e+00
  1.7032064e-04
  2.9207575e+00
 -2.5611323e-01
  5.6907487e-01
 -4.2191786e-01
 -3.1844375e-01
 -2.8792229e+00
 -9.5296621e-01
  1.0151842e-04
 -7.4007489e-02
 -6.4933216e-03
 -4.3370095e-03
 -4.4411160e-02
 -6.4814991e-01
 -1.0344403e-04
 -1.9693580e+00
  9.7490418e-01
 -1.3477288e-01
  9.6617937e-01
  3.7626706e-02
  7.9299164e-01
  1.8431137e+00
  1.3792278e-01
  5.8539975e-02
  5.9238493e-01
 -6.4709646e-01
  1.2546016e-01
 -1.8467670e-02
 -7.5780481e-01
  4.4286153e-01
 -3.3062157e-01
  4.4483915e-01
  9.6705377e-01
  9.5928036e-02
 -1.7146070e-01
 -3.5163516e-01
 -1.6579148e+00
  1.9135474e-01
  2.7024958e-01
 -1.2179532e-01
  1.9541243e-01
  3.6088514e-01
 -3.8887012e-01
 -3.1133636e-03
  4.0098028e-05
 -9.2395339e-06
  5.5935830e-05
 -3.6473502e-06
 -4.8824000e-01
 -9.7647162e-06
 -1.7643544e-05
  9.6536654e-01
  4.8538521e-05
  1.3181144e-05
  5.9580383e-05
  8.6503906e-06
  5.7335717e-05
  5.9331907e-04
 -1.8132908e-02
 -2.0809171e-06
  6.7913104e-05
 -7.6790648e-03
 -1.2093569e-04
  3.1709253e-05
 -9.2694786e-04
 -7.6459750e-05
 -2.3721118e-04
  2.8115039e-06
 -2.1383057e-04
 -7.0225447e-05
  9.2645569e-05
  1.4587320e-05
 -1.1643099e-04
  1.0605166e-04
 -4.8702284e-05
 -9.9514116e-05
 -7.0892696e-05
 -1.9971056e-05
  1.0061271e-01
 -8.1680082e-05
  1.7504809e-02
 -3.1554509e-06
 -3.5401372e-05
 -2.3958992e-05
 -1.0985296e-01
 -3.1593707e-05
  5.5767770e-04
 -1.0042214e-01
 -8.2979765e-05
 -1.1543694e-05
  1.5936373e-04
  1.2560201e-05
 -2.8049690e-05
  1.0217921e-04
 -4.4759386e-04
  2.5232095e-05
 -3.4661538e-05
 -6.2659528e-05
 -8.4214234e-06
 -5.7766251e-06
 -4.2254140e-04
  2.6019956e-05
 -3.6603902e-04
  3.6115569e-05
 -4.7325784e-06
  9.1121638e-06
  1.1856960e-04
  1.1698942e-04
  1.5935647e+00
  4.2603162e-01
 -3.8994126e-02
  1.7625085e-01
 -8.1068982e-05
 -2.8295344e-01
  2.8231621e-01
 -1.0091744e-01
 -7.2711532e-06
  2.1943506e-05
 -5.6054485e-03
 -7.3325409e-06
 -3.8698385e-05
 -3.2294447e-05
  1.1568642e-05
 -2.2686744e-04
 -4.1568060e-06
 -4.1190851e-05
 -5.2243220e-05
 -1.3473992e-01
  3.8431685e-05
 -8.8602636e-04
 -4.6821031e-05
 -8.8367105e-06
  4.1639335e-02
 -1.9244611e-05
  4.2122221e-01
  5.2348812e-05
  3.9986917e-05
  2.8448376e-05
 -8.3758421e-02
 -4.0965810e-05
 -1.0722181e-01
 -2.6035960e+00
 -1.0879314e-04
 -4.5502358e-04
  7.2732726e-03
  8.4684354e-05
 -1.5627799e-04
  2.2364861e-01
 -7.3512465e-06
  1.0578483e-04
 -1.2500621e-01
 -2.1705923e-04
  3.4544708e-05
 -1.5839684e-04
  7.1201214e-07
  5.6887377e-05
  2.7957027e-05
  7.8350795e-06
  5.5855664e-05
 -1.1607790e-05
  7.7573874e-05
 -9.3613841e-02
 -4.8621274e-05
  5.3761894e-01
 -1.9404775e-01
 -1.0327516e-01
 -5.2662767e-06
 -3.6583307e-01
  9.6898413e-01
  8.2968527e-01
  3.8326049e-01
 -3.6652017e-01
 -2.7593604e-01
  1.1747608e+00
 -4.3727804e-02
 -1.2689397e-04
 -8.3337172e-06
  1.7803297e+00
  6.7382812e-02
 -3.4144890e-02
 -7.4175572e-01
  5.9680915e-01
  2.1764348e+00
 -1.7812723e+00
  1.3152386e+00
  8.7591251e-03
 -1.4999759e+00
  3.8039546e-02
 -2.8264372e+00
  4.2889796e-02
 -1.8379530e-02
  3.0240386e-03
 -4.6129793e-01
 -6.7589176e-01
  1.1490302e+00
  8.5432339e-01
  1.5753286e+00
  5.2569149e-04
  1.8711695e-01
  3.4488985e-01
  2.1354280e-01
 -8.7379605e-01
 -1.2807579e-01
 -7.0701677e-01
  9.5140256e-02
  9.8682654e-01
 -3.3378720e-01
  1.7004182e-05
 -3.8660710e-05
  5.0273851e-05
  2.7392531e-05
  1.4829625e-01
 -1.0194703e-05
 -8.2118696e-01
  4.3298918e-05
  4.3477434e-05
  2.1579150e-05
 -1.7645600e-05
 -2.7011231e-07
 -2.9097571e-05
  9.4169297e-07
  1.1266445e-06
  2.7382628e-05
  1.7491633e-05
  7.5462514e-05
  9.1789101e-05
 -2.7434044e-05
 -5.5992823e-06
 -5.6478388e-05
  3.1714251e-05
  1.7187540e-05
  9.8413628e-05
  1.3767602e-05
 -2.1751068e-05
  1.8170911e-05
  7.9739102e-06
  1.2837443e-05
 -3.1493473e-05
 -3.7767379e-05
  4.8261620e-05
 -7.7789693e-05
  1.6793307e-05
 -1.6957913e-06
 -1.2465108e-06
  2.8573819e-05
  9.7812754e-06
 -6.4117648e-06
  2.4517917e-06
  1.4150643e-04
 -1.2282706e-05
 -4.1770352e-05
  7.3366842e-05
 -5.8788119e-06
 -1.7764047e-05
  7.5821290e-06
 -4.6158253e-05
 -1.0430483e-06
 -2.8737333e-05
  9.6809068e-05
  1.6759739e-05
  8.6737518e-06
  1.5580184e-04
  5.8772957e-06
 -2.0725032e-05
 -3.7069287e-05
  1.7214332e-05
  2.6241794e-05
  3.7656484e-06
  3.2731982e-06
 -7.6991200e-02
 -4.1433163e-05
 -5.4830539e-01
  1.8291105e-01
  2.7735578e-04
 -3.2864922e-01
  3.9102110e-01
  2.0458716e-01
 -1.1651286e-04
  9.9383942e-06
  4.2388714e-05
 -1.5398477e-06
 -6.2633342e-05
 -3.1643405e-05
  4.0485866e-05
 -5.4581644e-04
  5.2236146e-03
  1.6573450e-01
  7.5045577e-06
  2.9883236e-01
  3.5291996e-02
  3.6464164e-05
  6.4578140e-05
  1.2287117e-03
 -4.0686751e-05
  4.6826747e-01
 -6.5237728e-05
 -1.2853451e+00
  1.4397634e-04
  2.8344548e-01
 -2.2061853e-05
 -1.6805474e-01
  1.2642932e-04
  2.7460966e-04
 -3.8147679e-01
  3.3442535e-05
  6.6847444e-02
  1.9606871e-03
  5.5572839e-04
 -3.5417263e-05
 -1.0582384e-01
 -5.5385641e-05
  3.6593589e-01
  1.5147045e-01
 -2.9309664e-05
 -2.6558348e-05
 -2.3222041e-04
  3.2612836e-05
  2.7573176e-04
 -1.7830007e-05
  6.0127495e-05
 -5.7484963e-06
  1.0559987e-04
 -3.2621510e-06
  1.1867088e-05
  3.4756544e-05
 -4.4919857e-06
 -3.2644905e-06
 -4.3491364e-05
  2.8750788e-05
  1.3605984e-05
 -2.0225085e-05
 -3.7949707e-05
 -3.3572920e-05
 -7.1562226e-06
 -3.5582980e-06
  3.0283678e-05
  3.5201156e-05
  2.0911521e-05
  5.2624058e-05
  1.4155087e-05
  4.2105243e-05
  3.7117727e-05
 -2.2712500e-05
 -2.3916471e-05
  5.3595802e-05
  7.7311533e-06
 -3.2312314e-06
  1.4081035e-05
 -7.5052914e-05
  4.0890667e-05
  2.7067290e-05
  2.7690956e-05
  1.5837630e-05
 -2.5101039e-05
 -1.3227123e-05
  3.0041721e-05
  8.7925891e-06
 -7.9857618e-06
 -2.9006571e-05
  1.1058538e-05
  2.7700873e-05
  5.3534008e-05
 -3.0742383e-05
  7.2243129e-06
 -1.4458253e-05
 -7.8385847e-06
  5.8697574e-06
 -4.5472539e-06
 -1.2173624e-04
 -2.1538874e-05
 -2.5564841e-05
 -1.5638609e-05
  3.0896561e-05
 -5.1671385e-08
 -1.6595397e-05
 -5.8862479e-06
 -3.7107078e-05
 -5.0589472e-01
  6.5675698e-02
  1.0278960e+00
 -1.6394012e-01
 -1.6519183e-01
 -5.0058812e-01
  3.5463774e-01
  2.1176545e-01
 -5.0894982e-01
 -9.8777157e-01
  1.6501421e-01
  5.1651931e-01
  1.9120085e-05
  8.0026910e-03
 -2.6742560e-05
 -8.5862482e-01
 -5.8482122e-01
 -1.9249465e+00
  1.2516248e+00
 -8.3152596e-03
 -6.1102104e-01
 -1.5636219e-02
  1.7260017e-01
 -6.6441759e-02
 -2.3545821e-01
  3.0778630e+00
  1.8494403e-01
  1.5397761e+00
  1.9383284e+00
 -3.2026109e-01
 -7.4979262e-03
  6.2504613e-01
 -1.2305826e+00
  8.9878523e-01
 -2.4587431e+00
 -4.0749186e-01
 -1.8961687e-01
  1.0950401e+00
 -1.0003330e+00
 -5.0401449e-01
 -5.4709207e-02
 -6.3378537e-01
 -1.3348888e-01
 -6.8478519e-01
 -1.0434438e+00
  1.9790464e-04
 -1.5542422e-01
 -1.2803093e-01
 -4.0792464e-05
  2.0794500e-02
 -3.5442360e-02
  2.9202167e-06
  1.3134147e-01
  1.1645426e-04
 -5.4114239e-06
  9.0838883e-05
 -4.5754052e-05
  1.9383933e-03
  5.3423094e-03
 -1.1174148e-01
  1.4823655e-04
  4.4037623e-04
 -7.5402975e-01
  2.3389824e-05
  2.5384059e-05
 -1.4719429e-02
 -5.7021440e-05
 -7.1854668e-04
 -8.7359978e-05
 -1.4652977e-03
 -6.8065892e-06
  3.5106968e-05
  1.3448432e-04
 -1.2917440e-04
 -1.1538477e-04
 -1.6834003e-05
 -1.9419382e-04
  2.4149282e-05
 -1.5542121e-04
  1.1482533e-01
 -1.9096369e-04
 -3.1031372e-02
 -6.5215795e-06
  1.1062406e-04
  1.2766290e-05
 -3.0780477e-02
  5.9639246e-05
  8.8500540e-04
 -5.3421722e-04
 -8.5023406e-05
 -2.2439963e-04
  1.1956191e-03
  9.6921274e-04
  5.5593391e-05
 -3.6797173e-05
 -5.6314686e-05
  1.0080453e-03
 -1.8588336e-05
  1.9806180e-06
  3.9358627e-05
 -1.5081879e-04
 -4.7446345e-05
  7.8402249e-05
 -6.8960059e-04
 -1.9577075e-05
  8.6178588e-06
  3.0816100e-05
  4.5476547e-05
  1.7717484e-05
 -6.4153674e-06
  1.2189563e-05
 -5.7342739e-05
 -5.7031968e-05
 -7.0327433e-06
 -3.1770032e-05
  1.7815692e-05
  8.8298102e-06
  5.6290291e-06
 -3.4649500e-05
  9.7027923e-06
  1.2155499e-05
  2.0869122e-05
  3.4418634e-05
 -6.8914509e-05
 -6.6572411e-06
  2.7667789e-05
 -9.9285189e-06
 -4.7455516e-05
 -3.6267287e-05
  3.2990170e-05
 -1.1140614e-05
 -1.8429550e-05
 -3.4630877e-05
 -2.1642358e-05
  7.3715187e-06
 -3.8965904e-06
  1.4500736e-05
  1.8062457e-05
  3.1440100e-05
  4.8737611e-06
 -1.8587794e-05
 -2.7710654e-05
 -1.1564938e-05
  2.5835981e-05
  6.4292794e-06
  4.0695465e-07
  9.5683627e-06
  7.7938603e-05
  1.0018190e-04
 -8.6576274e-06
  1.6534053e-05
 -1.4518177e-05
 -4.3470041e-05
  2.6437624e-06
  1.5965334e-06
 -9.3555150e-07
 -1.2237698e-04
 -7.3451597e-06
 -5.1728875e-06
 -3.4519539e-06
  9.8935780e-05
 -5.4231677e-05
  6.6203385e-05
  3.3125498e-06
 -7.1923989e-07
  1.2250950e-05
 -2.0735839e-05
 -1.2187655e-04
  1.1691331e-05
 -1.6956234e-05
 -6.0084036e-05
 -3.3188135e-05
 -2.3331188e-05
 -1.5236462e-05
  1.0179481e-05
  3.0462399e-05
 -4.3945667e-05
 -2.4601832e-05
  1.3569908e-05
  7.0528920e-05
 -2.4271034e-05
  7.0764625e-05
 -1.2486059e-05
  1.5585258e-05
 -7.3784955e-05
  1.8432522e-04
 -9.4528397e-05
 -3.3175402e-05
  7.2596431e-06
 -7.8936137e-05
 -4.8076968e-06
  1.2782149e-05
 -6.5816668e-05
 -6.8361733e-05
  1.0950938e-06
  1.7221326e-05
 -2.5234369e-05
  3.1375230e-06
  2.6790874e-05
 -1.4693718e-05
 -5.1895486e-06
  1.3738898e-05
  6.1998493e-05
  3.1180880e-05
 -2.6578997e-05
  6.2563886e-05
 -1.6394759e-05
 -3.1239390e-05
  3.9379385e-05
  1.1396633e-05
  1.5688014e-04
 -5.6360441e-06
 -1.8033703e-05
 -2.0114454e-05
 -2.3359678e-06
 -2.2244489e-05
 -1.4085279e-05
  3.3175467e-05
 -7.1910530e-05
 -1.0974544e-05
  5.2818337e-05
 -9.6984128e-05
  7.2513089e-05
  3.5369707e-05
  2.7918639e-05
  1.2601748e-05
  4.8209154e-06
 -1.1866989e-05
  6.4977248e-06
  1.9884585e-06
 -3.3335797e-05
  1.9560439e-06
  4.7710026e-05
  8.6904052e-05
  2.0183721e-05
 -1.2021985e-05
  3.4559971e-06
 -1.5735397e-05
 -1.3271576e-05
 -1.5080281e-05
  5.6164990e-05
 -3.9608825e-05
  9.7995849e-07
 -5.8581190e-07
 -1.3287566e-05
  1.1200143e-05
  7.8238611e-07
 -3.6218694e-06
  4.8073238e-05
  2.2936298e-05
 -2.0474827e-06
 -2.6612010e-05
  8.0991158e-06
  3.2897015e-06
  1.8708019e-05
  5.8486057e-06
  8.4263211e-06
 -2.0179938e-05
 -4.0084061e-07
  5.3337037e-05
  7.5832228e-05
 -2.8208407e-05
 -6.7826654e-06
 -2.3698012e-05
  1.3904462e-05
  1.3293393e-05
 -1.4587467e-05
 -4.5443480e-06
 -1.3584241e-08
  3.4649009e-05
  5.5848572e-02
 -8.9559564e-03
 -2.8657191e+00
 -3.4801659e-01
  6.7854416e-01
  3.4362772e-01
 -1.1339996e+00
 -1.2577931e+00
  1.9539378e+00
  1.3988227e-01
 -3.6029652e-01
 -1.6421636e+00
  1.2730824e+00
  5.8994781e-02
  7.0320177e-01
  7.0158833e-01
 -5.3487056e-01
  1.0067041e+00
 -1.1482625e-01
  2.6842987e-04
  6.3635194e-01
 -9.4187060e-05
  4.6418428e-01
  5.1799417e-02
  1.9320154e-01
 -7.9069205e-02
  3.4057653e-01
  3.4573963e-01
 -6.9439554e-01
 -6.9798464e-01
  6.8245932e-02
 -9.3683398e-01
 -5.3403443e-01
  8.7926471e-01
 -5.1024520e-01
 -7.2391111e-01
 -8.9292020e-02
  5.2948188e-02
  6.0763901e-01
 -9.3076937e-02
 -6.8746620e-01
  4.0594870e-01
 -1.1452044e+00
  7.7767193e-01
  3.1601098e-01
 -2.2776254e-01
  1.4910084e-01
  9.2793560e-01
 -2.5124010e-04
  8.1435061e-01
  9.3770259e-06
 -1.2665429e-05
 -3.4908038e-02
 -2.1424244e-01
  2.4610713e-06
 -7.4854902e-06
 -7.8308105e-05
  1.0844664e-02
  3.1107414e-04
 -1.0273995e-01
  1.1982752e-05
 -2.1244617e-01
 -2.0698096e-01
  3.7531830e-05
  1.5561387e-05
 -8.8862369e-05
  3.2276120e-07
  5.7926110e-05
  4.5567513e-06
 -4.2185959e-04
 -5.1619721e-05
  4.1950130e-05
 -2.8979206e-05
 -9.7794480e-05
  1.1394572e-04
  3.1580574e-05
 -5.2558068e-02
 -1.7698956e-05
  6.1844985e-06
  2.3991634e-01
  4.8686245e-05
 -5.3521705e-01
  1.5769582e-04
 -6.0051985e-05
  1.2947408e-05
 -5.2371472e-01
 -9.1645843e-06
  1.1538923e-04
  4.2955608e-06
 -1.1063325e-05
  2.9553760e-02
  1.3818449e-04
  6.4966368e-04
  6.6386797e-06
  2.3754319e-05
  8.6433407e-05
  1.2555072e-04
 -3.3047032e-01
 -6.9077607e-05
 -6.7044025e-06
 -2.1996261e-06
 -4.6907036e-05
  1.2434133e-05
 -6.1281951e-04
 -6.5027175e-06
 -4.4077093e-05
 -1.8440219e-06
 -4.2920365e-06
  4.9661485e-05
 -6.0623923e-05
  8.2519073e-05
 -2.8868770e-04
 -3.7047710e-02
  8.5413747e-02
 -2.3882789e-05
 -9.4536261e-04
  9.2727229e-02
 -2.0177522e-05
 -4.3872682e-05
  2.5104315e-04
  2.1818571e-04
  3.3333041e-03
 -1.9053219e-06
  8.2698101e-03
  6.2502237e-05
 -1.5197114e-04
  2.7726278e-06
  1.5039058e-05
 -5.6115547e-05
 -8.1484119e-05
  1.8536083e-04
  1.7172093e-05
  6.3372514e-05
 -1.0970640e-01
  7.1447641e-05
  1.0463127e-01
 -4.0589512e-05
  8.2110500e-06
 -3.6327347e-05
  1.7068967e-01
  3.7133914e-06
 -1.0799086e-02
  8.2356436e-03
  2.9674051e-05
  6.3836202e-04
 -5.5462923e-03
 -1.0692680e-03
  7.1357092e-05
  6.3369921e-06
  2.0978462e-03
 -1.6537443e-04
  3.7459591e-05
  6.6814951e-05
  1.1898948e-05
 -9.1362508e-06
  4.4998756e-05
  3.7550872e-05
  7.4482700e-03
 -1.9234851e-05
  3.3547676e-06
 -5.1688894e-06
 -1.4538311e-05
  1.3973702e-01
  4.4095117e-04
 -1.4924735e+00
  6.3914075e-02
 -6.8635809e-01
  8.3791256e-01
  1.0727667e-01
 -4.2691082e-01
  3.1283036e-01
  7.5240743e-01
 -2.5064260e-04
 -1.8882176e-01
 -1.8735403e-02
 -2.7448818e-01
 -2.8416398e-01
  4.0479419e-01
 -1.3505378e-01
 -1.2714069e-01
  8.1155710e-02
  1.0743850e-02
  1.3675448e-02
 -2.1125181e-01
 -1.0478629e+00
 -3.7832666e-02
  9.1265963e-04
  1.2700353e+00
 -5.1302475e-01
 -1.4122473e+00
  2.5561988e-01
  1.1774293e-01
  6.9166628e-05
 -8.8696092e-01
 -5.6974633e-05
  5.0508183e-01
  3.0837345e-01
 -2.1095212e-01
  1.1832036e+00
 -3.6622071e-01
  4.0710043e-02
 -4.8058140e-01
 -7.5084187e-02
 -1.3344083e+00
 -1.2249253e+00
 -1.7087502e+00
 -3.6555674e-04
 -5.7582766e-01
  7.3840424e-02
  3.5195269e-05
 -1.4041741e-01
 -2.8013527e-01
 -1.0439599e-05
  2.1730302e-04
 -6.5908656e-03
 -4.4700919e-05
 -1.2279332e-05
  2.4728433e-05
  1.2221160e-06
  2.8901330e-05
 -6.6686982e-05
 -4.1298194e-05
  4.9228051e-06
 -5.9610164e-05
  6.7796922e-05
  4.7990859e-05
  1.8803637e-05
 -6.7654878e-06
 -2.6059413e-05
 -4.7809168e-05
 -4.6313322e-05
 -2.5723883e-05
 -2.7533777e-05
  3.2696404e-05
  1.8713157e-05
 -1.0532316e-05
 -8.8187742e-05
 -1.4203767e-05
  1.0145166e-04
 -2.2673934e-05
 -6.3924017e-07
 -3.5116205e-05
 -3.0565985e-05
 -3.7606704e-05
  1.2307512e-05
  5.1868563e-05
 -1.5383943e-05
 -3.6715530e-05
 -4.7557358e-05
 -5.3333406e-06
 -7.0424103e-05
 -1.4843484e-05
 -2.2863092e-06
  4.2725445e-05
 -6.3499625e-05
 -2.2286375e-05
  3.5404402e-05
 -6.4391250e-05
  1.2095172e-05
  1.1207962e-05
 -2.3795965e-05
  5.8207781e-05
  3.8911185e-05
  2.0485932e-05
 -3.2946111e-06
 -2.3276939e-06
 -3.5349589e-05
  5.2573773e-06
 -3.3406991e-06
  1.0039083e-04
  9.8504344e-05
  1.4531473e-04
 -8.2562125e-05
 -8.8696800e-02
  2.1561931e-04
 -2.0979814e-02
  3.0522871e-01
  2.3060590e-02
 -1.3924620e-05
  1.5154552e-04
 -4.5510274e-06
 -1.2765399e-03
 -1.1317081e-04
 -3.2423716e-04
 -5.9752889e-05
 -7.2685572e-05
 -5.0864605e-06
  4.9924199e-04
  5.1095376e-06
 -1.2754503e-04
 -6.0035063e-08
 -3.9137001e-05
 -4.8230812e-02
  3.4497571e-05
  3.0971027e-05
  5.1696730e-01
 -1.3787975e-04
  7.0698017e-01
 -3.1179548e-05
  1.8415965e-05
 -3.7690017e-05
 -3.7315789e-01
  2.4389043e-04
  1.1541186e-03
 -1.5265842e-01
  3.4997582e-05
 -1.8528168e-05
  1.9932754e-04
  6.1795887e-05
 -3.5052724e-06
 -9.2261797e-01
  7.4689357e-05
  1.0733428e-05
 -2.4214290e-01
 -7.0234400e-06
  3.5525511e-05
 -1.8004032e-05
 -4.3936110e-05
  4.8298560e-05
 -1.3113567e-03
 -1.5808774e-04
  1.2081568e-05
 -4.2066797e-05
  4.1414260e-05
  5.6910807e-01
  1.0701157e-04
 -5.8066535e-01
 -1.2357321e-01
  8.2681760e-02
  5.3181584e-06
 -5.9645176e-01
 -5.6006980e-01
  8.0068475e-03
 -5.6546753e-05
 -5.0587523e-01
  1.1611043e-04
 -1.0268641e-05
 -3.4963179e-01
 -2.3823632e-05
 -1.3475528e-05
 -2.6476473e-01
 -1.7464657e-01
  8.6153355e-05
 -3.9629403e-01
 -4.6955582e-05
  2.3367870e+00
 -4.3192583e-01
  8.7415978e-02
  4.0137389e-01
 -2.1987870e-01
  5.2404692e-05
 -2.1299651e+00
  2.8351434e-02
 -6.6547859e-01
  4.2444217e-01
 -1.5765189e-01
 -9.4721606e-03
 -7.1481101e-02
  5.2996486e-01
 -2.6446532e-02
  2.5135422e-01
 -1.3433747e-01
 -3.1978386e-03
  1.0074203e+00
  7.4727851e-01
  8.4464890e-01
 -3.7466365e-01
  5.2574199e-01
  2.1174839e-01
  1.0001184e-05
  3.9382285e-05
 -2.5396919e-05
 -1.6206932e-04
  7.0952512e-02
 -4.7074504e-05
 -4.7447847e-05
  4.0991183e-02
  9.3134193e-05
 -1.5308889e-05
  3.5787907e-06
  4.5654383e-06
 -4.1197422e-05
  9.8082655e-06
 -2.3976165e-06
 -7.7249588e-06
  2.7191795e-06
  6.5848639e-05
 -1.8283696e-05
  1.2970010e-05
 -4.1158361e-05
 -2.1938140e-05
  5.4445652e-05
  1.1493877e-05
 -2.6283995e-05
 -1.3672862e-06
 -7.5909338e-05
  1.7850527e-05
  6.7904650e-05
  1.0653677e-05
  4.8398426e-05
  9.7698412e-06
 -8.2038304e-07
  2.4378138e-05
  1.7996672e-06
 -2.8465625e-05
  8.1999115e-06
  5.8491050e-06
  9.8799001e-06
  9.4126572e-06
 -1.4802790e-05
  7.5176249e-05
  5.3891039e-05
 -3.7458574e-06
  2.5158840e-06
 -1.8228287e-05
  1.5817959e-05
 -1.7059949e-05
  1.4011845e-05
 -4.5578495e-06
  5.3023163e-05
  7.3331512e-06
  1.8720835e-05
 -5.5292453e-06
 -3.3797194e-05
 -6.4170513e-07
 -8.8019515e-06
  2.7607715e-05
  2.0660338e-05
 -3.4546563e-05
  6.7690589e-06
 -1.0996171e-05
  3.6604673e-05
 -7.1736908e-04
 -6.6931643e-05
  1.2783729e-04
 -4.3844306e-03
 -1.3821568e-01
  1.4093067e-01
 -3.8109371e-05
  1.4307672e-02
  1.6642828e-02
 -1.0985553e-06
  7.6621382e-07
  2.6220834e-04
 -1.6791577e-05
  2.2012493e-02
  9.3466566e-05
  3.7315778e-02
  2.3892998e-04
 -8.0105729e-06
  1.4519031e-05
 -1.4992504e-06
  7.0807250e-06
  3.4255139e-05
  1.7720717e-04
  1.3596833e-03
  1.8228972e-04
 -3.2417321e-01
  5.0951168e-04
  9.3761859e-03
 -2.1777682e-06
 -1.2433496e-05
 -1.4356855e-05
  5.1791149e-01
  3.3416832e-06
 -2.5360272e-03
  2.2336411e-05
  2.5293361e-05
 -1.8357125e-05
 -3.7712812e-02
  1.2591268e-05
  4.1023814e-05
  1.3442229e-02
  1.0078644e-04
 -5.4123625e-02
 -1.4319672e-05
  1.8733912e-05
  5.7404042e-05
  5.0926825e-04
  8.4625691e-04
 -1.5041486e-05
  4.8735039e-03
  3.0445826e-06
 -4.8677295e-05
 -4.8820042e-05
  3.0370396e-05
  1.3518124e-06
 -2.2025009e-05
  5.7839361e-06
 -2.4308996e-05
 -2.6250094e-05
 -4.9129485e-06
 -3.9740476e-06
  1.2850660e-05
 -3.0265530e-05
 -3.7745474e-05
 -5.1513809e-05
  7.4625933e-07
 -4.8144857e-06
 -4.3113623e-06
  3.0142944e-06
  3.8949006e-06
 -1.2617687e-05
  2.8518484e-06
 -4.9866339e-05
  1.0440288e-05
  2.0064341e-05
 -5.4146389e-05
 -2.4843495e-05
  1.1784805e-06
  3.0018104e-05
  4.4107539e-05
  1.4630157e-05
 -1.0611444e-04
 -3.0849227e-05
  2.0950365e-05
  5.0255621e-05
 -4.8415654e-07
  4.0574156e-05
  4.9974651e-06
 -6.6235065e-05
 -4.4639455e-05
  2.8688881e-05
  1.7244727e-05
 -8.1188453e-05
 -1.1490790e-04
 -1.0386102e-05
  9.5385651e-05
 -5.0421899e-05
 -3.5695589e-06
 -1.5379987e-06
  2.0436830e-05
  4.1546809e-05
 -3.0857962e-05
  2.9490067e-05
 -3.2910677e-05
 -3.3803390e-06
 -2.2657106e-05
 -3.5197663e-05
 -3.1572947e-06
  3.1839691e-02
 -1.2688862e-05
 -1.9988754e-01
 -1.8121319e-01
  3.4906068e-01
  5.7105608e-02
 -1.2360099e-01
 -1.7592993e-02
 -5.6220803e-02
  1.8360552e-01
 -6.9045067e-01
 -5.9248102e-01
 -1.6126085e-02
  1.5259023e-01
 -1.4846487e-01
  1.3053554e-01
 -4.7753069e-01
 -2.4203922e-01
  1.2852994e-01
 -4.2398438e-01
 -3.4072942e-01
 -1.4277046e-03
 -2.0782751e-01
 -1.7095950e-02
  4.5709323e-05
 -4.6084549e-02
  1.4920023e-02
  9.1274090e-02
 -7.0014906e-01
  2.5485081e-04
 -1.2958950e-02
 -7.6271677e-01
 -2.4389099e-02
 -2.0126007e-01
  8.7678438e-01
  6.6718948e-01
  4.9103963e-01
 -5.6950879e-01
 -4.4381055e-01
 -2.8824687e-02
  2.4330801e-01
 -2.6511783e-02
 -5.4090041e-01
  1.6147806e-01
  1.1353594e-02
 -4.5371735e-03
  5.8593482e-01
 -8.4907621e-02
 -8.6473919e-02
  8.3818108e-01
 -7.7739349e-03
  6.6815001e-06
 -2.3430752e-04
  2.4281469e-05
 -2.8243831e-01
 -9.8913936e-03
 -1.8781172e+00
  3.2644314e-01
  2.3795870e-01
  6.0738277e-01
  2.6173052e-01
 -1.6499482e+00
  1.7807568e+00
  1.4371839e+00
 -2.1165267e-01
 -2.5636002e-01
 -4.3396461e-03
  7.0929372e-01
 -4.4061601e-02
  1.6127441e+00
  2.4241954e-01
 -3.7669387e-01
 -2.6775184e-01
 -2.0834424e-02
 -1.9153848e-01
 -4.9702540e-01
  1.8745801e-01
  3.0480635e-01
 -3.2115993e-01
  1.1904414e+00
  1.2239446e-01
  8.3348268e-01
  3.0033091e-01
  9.0444553e-01
 -1.8888643e-01
 -4.8288706e-01
  1.4513226e-01
 -2.0200679e-01
 -2.1019731e+00
  3.2657459e-01
  3.5991237e-01
  6.0861755e-02
 -4.8588878e-01
 -4.7249377e-01
  5.0628418e-01
  2.3098834e-02
 -8.0125815e-01
 -4.1698515e-01
  8.1150308e-02
 -9.2669122e-02
  5.8874106e-01
 -9.9443930e-01
 -1.7970546e-01
 -4.4105020e-01
  9.1427770e-03
  1.0857359e-05
 -7.5236772e-04
 -8.2119783e-05
 -5.6241461e-06
  4.8316477e-05
 -6.3611042e-06
  9.5078292e-05
  7.5269774e-05
 -4.7170688e-06
  4.5134343e-06
  5.1883191e-05
 -2.1024112e-05
  7.4173431e-06
 -2.3194058e-05
  4.5655182e-05
 -6.2182835e-06
  2.9476932e-06
 -1.3128226e-05
  8.1805883e-06
  2.5511716e-05
 -2.0740801e-05
 -2.4187024e-05
 -1.9053845e-05
  4.0056017e-05
  5.5483033e-06
 -3.0807973e-05
 -1.5561878e-05
  4.0291558e-05
  3.2840773e-05
 -1.9389641e-05
  1.9078416e-05
  1.8678777e-05
 -8.6465559e-05
 -1.0360860e-05
 -6.2500521e-06
  9.7724233e-06
  1.0998458e-05
 -3.6232093e-05
  5.9938204e-05
 -4.6441928e-05
 -3.4104454e-05
 -2.0235004e-05
 -3.5458030e-05
  6.0939965e-06
 -8.4951616e-06
  2.9215262e-05
  1.3640773e-05
  3.7710524e-06
 -4.0210056e-05
  6.0351049e-06
  3.3104984e-06
  7.8400572e-06
  1.2809642e-07
  2.5381836e-05
  3.5655852e-05
  2.1238578e-05
  8.5687725e-06
  1.2170492e-06
 -5.8498686e-06
  9.9091603e-06
  7.9016754e-06
  3.9239731e-06
  3.2029046e-05
  6.4714186e-05
 -8.8142015e-06
 -4.1727935e-06
  9.1481561e-06
  1.5268201e-05
 -9.9534236e-06
  4.4766992e-05
 -5.2420673e-05
  1.9300667e-05
  2.3204031e-05
  1.2344019e-05
  2.8651904e-05
  1.9874092e-07
 -3.0442941e-05
 -3.0018728e-05
  1.5430302e-05
 -3.6956790e-05
 -3.1841530e-05
 -2.0174746e-06
 -1.9736721e-05
 -7.1408067e-05
 -1.1720396e-05
  4.5267658e-05
 -2.8763292e-05
 -3.8970858e-05
 -6.7790120e-06
 -5.5356377e-06
 -4.4830660e-05
  1.9138797e-06
  3.9414390e-06
  5.0052681e-06
  4.3204142e-05
  1.5295745e-05
 -4.3858986e-06
 -2.1809271e-06
 -1.7172059e-05
  3.3436174e-07
  1.8373343e-05
  3.7482935e-06
  1.0150738e-05
  3.3614164e-05
 -4.3992127e-06
 -5.4926581e-06
  7.7714549e-06
 -4.5063716e-06
  2.0653430e-05
 -5.1659725e-05
 -6.3880463e-05
 -3.7824466e-06
  3.2044172e-02
  1.5756801e-01
  6.8394706e-02
 -4.7960566e-04
  5.1635367e-01
 -3.5534310e-01
 -8.6011693e-02
  1.8212846e-01
 -2.4945155e-06
 -1.1361890e-03
 -1.4290905e-05
  1.8804203e-05
 -8.3613166e-05
 -4.3203877e-06
  1.3637653e-01
 -5.3292960e-01
 -1.9574074e-01
  3.7861055e-01
 -6.2076412e-02
 -8.8257737e-02
  5.3227883e-02
 -6.3187653e-01
 -5.6766309e-02
  2.9922524e-01
  3.1983511e+00
 -3.8623735e-01
 -2.2981761e+00
  8.4589325e-02
 -8.6714178e-01
 -9.1397142e-06
  5.3010559e-01
  4.2639781e-02
  7.1577901e-01
  6.4329863e-01
 -4.9647656e-01
  8.4027255e-01
 -1.1980444e+00
 -2.5172457e-01
  5.8879566e-01
 -6.7199928e-01
 -5.8294867e-05
 -2.6417294e-01
 -3.5194859e-01
 -1.5602399e-01
 -6.8737136e-05
  4.1657275e-01
  3.8104758e-05
 -2.1949876e-02
  1.6249619e-02
 -1.0949554e-02
  3.6234993e-05
  1.1287935e-01
  1.0095894e-05
 -4.4997014e-05
  6.1605344e-05
 -4.9555347e-05
  5.1698476e-05
  2.0635207e-07
 -4.3687494e-05
  1.8343879e-04
 -2.3787536e-05
  2.1118891e-05
  6.4390842e-05
 -8.3778314e-06
  8.9258474e-06
  1.5882839e-05
 -2.0227953e-06
  3.5324356e-05
  2.2267788e-05
 -2.7374774e-05
  4.8165221e-05
 -7.3719973e-05
  7.9087440e-06
 -3.5708748e-05
 -7.5061856e-05
 -4.6021589e-05
  1.3145269e-05
  1.4399754e-05
 -1.0786276e-04
 -7.5976686e-06
 -7.2179087e-06
  9.4094457e-06
  1.0934087e-06
 -5.8133457e-05
 -1.1573061e-05
 -2.1659518e-05
 -1.3719004e-05
 -2.0355894e-05
 -2.3912002e-05
  4.3820917e-05
  8.1495341e-07
 -3.4657696e-05
  6.5374363e-05
  1.8350400e-05
  3.2607706e-05
  4.4534783e-05
  4.1021403e-06
 -5.4634413e-05
  3.2209773e-05
  4.1798528e-05
  3.2356188e-06
 -5.0405077e-05
 -8.2361170e-05
  2.6217890e-06
 -1.5428433e-05
 -1.4415310e-05
  5.9739314e-06
 -8.3016275e-06
  4.2697411e-05
  2.8435206e-01
 -2.3638612e-01
  6.0118181e-01
 -6.3146508e-05
 -3.4548100e-02
 -2.9827732e-01
 -4.8975414e-04
  9.3840586e-05
  1.0447124e-05
 -3.2803521e-02
  5.4230153e-05
 -1.1266988e-04
 -3.9107281e-06
 -7.2568255e-06
 -2.6432922e-04
 -1.5855260e-04
  1.8181441e-05
 -7.3153285e-05
 -2.7273947e-02
  1.8477891e-05
 -1.2147935e-03
  6.6963214e-05
  2.1724232e-05
  7.1679257e-02
  7.5684206e-06
 -9.7424215e-01
  5.1778392e-05
 -9.0062233e-05
  3.0796284e-07
 -3.8094729e-01
  2.9349159e-05
  3.0244099e-05
 -3.1299900e-05
 -1.4803523e-02
 -7.7235767e-05
  1.6396935e-03
  1.9076567e-02
 -6.0363040e-05
  5.0915784e-01
 -6.6638124e-05
 -4.0231560e-05
 -1.1479271e-04
 -3.3698368e-05
  1.1146061e-05
 -1.2671259e-04
 -3.2932023e-04
 -2.0826676e-05
 -4.6767713e-05
  3.5579982e-05
  2.8064351e-05
 -2.3154917e-05
 -7.7989622e-05
  2.0600187e-06
 -1.0862765e-05
 -1.5103376e-05
  4.5359091e-05
  2.0115362e-05
 -9.6717731e-06
 -5.8069108e-06
 -9.3038449e-05
 -1.0857548e-08
 -3.2071261e-05
  1.6406530e-06
  3.7827951e-05
 -3.0724757e-05
  1.2418357e-05
 -9.7307257e-06
 -2.2615783e-05
 -3.7099453e-06
  3.3824199e-05
  1.0271629e-05
 -2.4472895e-06
  4.8226839e-06
  1.9352894e-05
 -3.7227412e-05
 -8.7977487e-06
 -6.8017862e-06
  3.5179219e-05
 -5.1263105e-06
  3.9575218e-05
 -3.5184396e-06
 -1.9413763e-05
  3.4377817e-06
  2.0623333e-05
  1.6648959e-05
  1.4430099e-05
  5.5739161e-05
  1.1960519e-06
 -3.9913743e-05
  5.8388734e-05
 -3.2250352e-06
  1.2644394e-05
  2.1268559e-05
  2.7680549e-05
  1.1379250e-05
 -2.7363345e-05
  4.9816626e-06
 -8.6893442e-06
  1.1164433e-05
 -1.3679726e-05
  1.3451232e-05
  2.2266609e-05
 -1.8558176e-05
  1.7554643e-05
 -3.2323449e-05
 -8.5205438e-06
  3.5747478e-05
  2.3050156e-05
 -7.4414747e-05
  4.3550113e-05
  2.2268147e-04
 -2.0542102e-02
  1.1682709e-01
  1.8305283e-05
 -7.1334442e-05
  2.0291760e-05
  2.8417671e-05
 -1.1465696e-04
 -1.5878586e-05
  1.0750029e-04
  7.7348013e-05
 -3.8976697e-05
 -1.1483674e-04
 -3.4440732e-06
 -1.3075175e-05
 -2.4257792e-04
 -7.5103948e-05
 -1.9161316e-05
 -6.3337524e-05
  4.3975047e-05
 -3.0398818e-05
  3.1132171e-02
 -7.2119874e-05
 -5.8152384e-01
 -2.0967245e-06
 -9.9772524e-06
  1.6021826e-05
 -4.7581665e-02
  7.9899561e-05
  2.4195609e-08
 -7.7550016e-02
 -2.2703275e-06
 -2.8076983e-04
  1.6113647e-05
 -5.9914182e-06
  1.0536104e-04
 -4.5709712e-06
 -3.9129671e-05
  4.8892587e-05
 -1.8619976e-06
 -1.0898348e-04
  7.1732989e-05
 -7.6218885e-06
  2.3513243e-05
  2.9945895e-05
 -4.7608788e-05
 -1.1957532e-05
 -5.2957425e-06
  2.1956033e-05
 -2.8844705e-05
 -4.3527567e-01
 -8.7639831e-02
 -6.7140973e-01
 -4.3160859e-02
 -7.3050362e-01
  2.1352255e+00
 -8.2713920e-01
  2.5728834e+00
  1.6043262e+00
 -1.2429267e-04
 -6.9612215e-05
  3.3124116e-01
 -3.1948206e-05
  1.1209195e+00
  6.9290996e-05
  3.7565175e-01
  5.5620241e-01
 -4.1633636e-01
  1.6714095e-03
  2.0604324e-01
  1.1144171e-01
  2.7478945e-03
 -1.1618545e+00
  8.7130374e-01
  6.3506055e-01
 -6.8620518e-02
  1.9449666e-04
  5.3665522e-02
 -1.8188387e+00
 -2.1174587e-01
 -6.2206145e-06
  1.2673346e+00
  5.8707118e-01
  9.2056966e-01
 -1.8457501e+00
  2.6419243e-01
  1.0952178e+00
 -6.4035636e-01
  1.9057883e-02
  2.0960800e-02
 -6.2520218e-01
  8.8571077e-03
 -1.9409007e-01
 -1.1325969e-01
  8.9258128e-01
 -1.4476250e-02
  1.8658423e-01
  3.7829518e-01
 -1.9362033e-04
  2.2885600e-01
  2.2565948e-05
  2.1648626e-05
  4.2277539e-01
  7.5343145e-05
  2.0328802e-07
 -6.1623286e-05
 -2.6914638e-06
 -4.1854770e-07
  1.3983005e-04
 -8.0000573e-05
 -6.3924708e-06
 -3.7931888e-05
  4.7704209e-05
 -1.7236589e-06
 -1.1883977e-04
  3.6517881e-06
  1.1408537e-05
  2.6814009e-06
 -9.8950577e-06
  2.0393775e-06
  7.1774934e-06
 -3.8759031e-06
  5.0869089e-06
  9.7973325e-06
  4.4412009e-05
  4.1428280e-05
  1.5150124e-05
  2.6861362e-05
  1.2219444e-04
 -6.4998283e-05
 -1.6423566e-05
  3.2846561e-05
 -1.7595654e-06
 -3.3851638e-06
  2.7662081e-05
 -1.4603976e-05
  4.4031345e-05
  1.5207848e-05
  1.4277284e-05
  2.4468746e-04
 -1.0099239e-05
 -1.0202295e-05
 -7.8551102e-06
 -6.1452789e-05
 -1.2693918e-05
 -1.1368290e-05
  4.1711860e-06
 -2.6374646e-05
  3.0895662e-06
 -7.8663952e-06
  4.4681242e-06
  3.9404160e-05
  2.8003613e-05
 -1.9656281e-06
  8.0874306e-06
  1.7583968e-04
 -6.0959803e-05
 -6.9591057e-05
 -1.6411676e-04
 -1.1639379e-04
 -1.9979088e-02
  2.8225459e-04
 -4.4642621e-01
 -1.3692737e-05
  5.0310522e-01
  6.4130187e-01
  2.2661116e-03
  4.4091485e-06
  4.1040079e-05
  4.3040548e-02
  8.7048311e-06
 -1.0902889e-05
 -9.7934890e-06
 -9.5519781e-06
  5.4812455e-03
  1.4959739e-01
  7.8407392e-02
  7.2206753e-06
 -1.0418940e-05
  2.3737146e-06
  3.7053407e-05
  3.6661149e-04
  2.7997944e-06
  1.3027343e-02
 -6.6831708e-02
 -2.0284590e-01
 -7.4704252e-02
  7.4865143e-06
 -9.1893398e-06
  8.2658678e-01
 -1.5995490e-06
 -7.8854755e-02
  2.1581914e+00
  3.8316563e-02
 -2.8213733e-01
 -5.8903044e-07
 -5.7687674e-05
 -1.8549879e-05
 -1.0827789e+00
 -3.9797331e-05
 -7.4523236e-06
  4.7964202e-03
  3.3205308e-03
 -1.2032351e-05
  6.0876428e-05
  1.2684974e-04
  2.5942931e-05
 -1.7295428e-05
  3.5001108e-06
 -2.9840934e-05
  1.3269848e-04
 -8.2586603e-06
  6.8338006e-05
  2.1570627e-06
 -8.4668682e-06
 -8.0101308e-06
  6.3158062e-05
 -3.9190945e-06
 -5.4074051e-05
 -5.3866552e-07
 -9.5928417e-06
 -1.5268643e-05
  6.5849075e-05
  6.5039440e-06
 -7.9658912e-06
 -2.9249104e-06
  4.2855085e-05
  1.6097290e-05
  2.2116908e-05
  1.1112662e-05
 -8.8558290e-06
  4.1385068e-05
 -9.1302418e-06
  2.8754224e-05
  5.6317640e-06
 -5.2604235e-05
  1.6774311e-06
  3.2346684e-06
 -8.4938711e-06
  2.5628684e-05
 -2.7818785e-05
 -3.2630927e-05
  2.7294542e-05
  5.6733629e-06
 -1.3832679e-05
  1.6141839e-05
  1.7134980e-05
  2.0937499e-05
  4.0705949e-05
 -7.1777657e-05
 -2.8338734e-05
 -7.3110054e-06
  2.9926767e-05
 -1.0387413e-05
  7.8119643e-05
  6.1647843e-05
  3.0019241e-06
 -9.7852344e-06
 -9.0475887e-06
 -7.3464762e-06
  1.3859170e-05
  6.2249824e-06
 -1.0381743e-05
 -3.4829436e-06
  3.2960259e-05
  1.4867019e-05
 -1.7397684e-05
 -6.4956839e-05
 -4.6834941e-08
 -1.9969857e-06
  1.0230010e-05
  3.1058069e-05
 -4.1220832e-05
 -1.3261852e-05
 -4.9212626e-06
 -3.7712973e-05
 -1.1709233e-06
  4.0865307e-06
  3.4281420e-05
 -3.5124285e-05
  4.0075764e-05
  7.1356066e-05
  2.6927199e-05
  2.2137776e-05
 -3.3199711e-05
  3.4009157e-05
  2.2407297e-05
  4.1776526e-05
  1.9048985e-05
  1.3325868e-05
 -3.7842556e-06
  1.6781415e-06
  8.3464010e-06
 -4.5826499e-05
 -2.2111086e-05
  6.9768692e-05
  3.1421012e-05
 -1.1087793e-05
 -2.0016432e-05
 -8.7983490e-06
 -7.8812656e-05
 -3.3008313e-05
 -1.2153568e-05
  1.3638604e-04
  1.3728433e-05
  3.6055804e-05
 -1.0420695e-05
 -9.3144772e-06
  4.2545907e-05
 -7.3176052e-05
  2.9307606e-05
 -1.2868481e-04
  6.5069449e-05
  2.1968667e-06
  1.8554429e-05
 -3.7605838e-05
 -1.2740180e-05
  8.5793063e-06
  5.8329701e-05
  4.1862277e-05
  2.4821835e-05
 -4.9867149e-06
  2.2682711e-06
  1.6137668e-05
 -4.8778975e-06
  8.4388748e-06
  1.7032680e-05
  3.1680008e-06
 -2.8087279e-05
  2.1523536e-05
 -4.6631198e-05
 -4.4896547e-05
  9.3454028e-06
 -1.7376864e-05
  4.1193562e-05
 -4.6054411e-06
  4.3150226e-06
 -2.9096778e-05
 -7.8765643e-06
 -1.5064837e-05
 -1.5508798e-05
  8.7254324e-05
  1.8629955e-05
  1.2194287e-06
 -3.8475922e-05
  3.9191591e-06
 -1.9493726e-05
 -5.4277913e-05
 -2.6992932e-06
 -1.6074779e-05
 -4.5142973e-05
 -1.3332074e-06
  5.8685041e-06
  1.4420069e-05
  1.3887719e-05
  7.9104475e-06
  3.7400689e-05
 -4.8240195e-06
  2.9017487e-05
 -7.5173120e-05
 -8.7757962e-06
 -3.8796381e-05
  6.0756272e-05
 -6.5803101e-06
 -4.3291102e-06
 -3.5928955e-05
  4.1130647e-06
 -1.8142907e-06
 -1.5424750e-05
  1.6495753e-05
 -2.4884952e-05
 -4.4142194e-05
  1.4151539e-05
 -2.6865716e-06
 -7.5053038e-05
  5.7728943e-05
 -8.3852647e-06
  1.0394544e-06
 -4.4583430e-06
  4.9711225e-06
 -6.3125735e-05
 -3.6805584e-05
  9.4327452e-06
 -2.7915892e-05
  1.2775806e-05
  9.4950201e-06
  7.6241054e-07
  1.2379720e-05
  5.3909489e-06
  4.1608793e-05
 -2.5152258e-06
  3.2197786e-06
  8.0688205e-06
  3.9398019e-05
 -7.4335630e-06
 -1.0407587e-05
  1.1153736e-05
 -8.2016988e-05
 -2.1084939e-05
 -3.7917143e-05
  1.4749683e-06
 -1.6109778e-05
  1.0860786e-05
 -2.7740054e-05
  3.2509328e-05
 -6.4146429e-06
  4.8793958e-05
  3.8333701e-06
  3.2334772e-06
  1.3404079e-05
  6.3191328e-06
 -3.4359171e-05
  5.8600390e-06
 -3.7403152e-05
 -4.0919554e-06
 -9.9308954e-06
  3.6713709e-06
 -6.4080782e-06
 -1.2220652e-05
  1.1262160e-05
 -3.6506604e-05
  2.7137703e-06
  1.4460399e-05
  3.8779352e-05
 -1.2923118e-04
 -6.3526786e-05
 -1.2685570e-05
  8.8264051e-07
 -4.5347151e-06
 -7.5482521e-06
 -3.2067128e-05
  6.3447364e-06
 -1.1055708e-05
  5.0553845e-06
  7.9532456e-06
 -2.6383852e-06
 -2.1299309e-05
 -1.0303154e-05
  1.6762278e-05
  9.4618765e-05
 -6.6262701e-06
 -1.7316412e-05
 -7.3864474e-05
  1.4011543e-05
  1.5272166e-05
 -4.2075586e-05
 -9.6829826e-06
  2.9491595e-05
 -3.2875039e-05
  6.5102763e-06
 -3.4887291e-06
 -1.3051990e-05
  2.3364708e-05
  3.7599042e-05
 -6.0207631e-06
 -8.3831646e-06
  2.0773264e-06
 -5.9060807e-05
  1.8698167e-05
 -4.6338079e-07
 -9.1353413e-06
 -2.9718024e-06
  3.7290076e-05
 -2.4261986e-05
  2.2931852e-06
 -9.4574243e-06
 -7.0590573e-07
  4.6885179e-05
  2.0191383e-05
  1.3382622e-05
 -2.1620266e-05
  1.9417650e-06
 -1.1025737e-05
 -2.8725565e-06
 -6.5919347e-05
 -1.4900538e-05
  3.4397385e-06
  1.1242582e-05
  4.8716021e-05
  1.6866268e-05
  2.1764956e-06
 -1.8425746e-06
  2.2118139e+00
  1.5202190e+00
  1.0902696e+00
 -5.6077111e-01
 -7.9224092e-01
 -7.3314410e-01
  7.1115375e-01
  1.3661731e+00
 -1.1533299e-01
 -9.1434561e-02
  1.9952761e+00
 -2.1156952e-01
 -1.3764145e+00
  2.8630254e-01
 -1.5289981e+00
 -1.0991805e+00
  1.2144085e-03
  9.0882635e-01
 -1.4807992e+00
  2.9050341e-01
  7.0069164e-02
 -1.5192246e+00
  2.4095218e+00
  2.3265845e-01
 -6.5137643e-01
 -5.5609673e-01
  3.6002341e-01
  1.2527770e-02
 -2.5213280e-01
  1.9300416e+00
 -5.2780080e-01
  1.3098611e+00
 -1.0418235e+00
 -6.1840363e-02
 -7.5899786e-01
  9.1621435e-01
  7.4899989e-01
  6.0099065e-01
  1.1955842e+00
  4.4626594e-01
  7.4366385e-01
  3.1308360e-02
  8.9296103e-01
 -1.0514896e+00
 -2.5669709e-01
  3.6545891e-01
 -6.1518383e-01
 -1.3928785e+00
  4.7104335e-01
 -1.2692837e+00
 -2.7475392e-02
 -7.1697325e-01
 -2.0977707e-01
  4.3878701e-01
 -8.3928399e-02
  4.5711120e-05
  9.9598986e-01
 -2.0938988e-01
  1.3211297e-05
 -2.2987279e-01
  1.1823332e+00
  9.1892984e-03
 -8.4700549e-01
 -1.0643248e-05
 -4.0817083e-04
  1.0086510e-01
  2.3893350e-07
 -9.0301114e-01
 -6.9185502e-05
 -3.1688542e-05
  3.2982051e-01
  2.1929076e-01
  1.1564853e-06
 -2.7802374e-04
 -4.2046714e-01
 -3.7094796e-01
 -2.6560426e-01
 -2.5000653e-01
 -1.4779249e-05
  7.7832840e-02
 -8.3603865e-01
  2.7557058e+00
  1.9683281e+00
 -4.6280817e-05
  3.9379898e-05
 -1.1310822e+00
 -5.2026755e-01
  9.6748823e-01
  1.6814829e-01
 -8.7005305e-05
 -1.6163591e+00
  9.1446935e-05
 -9.8470950e-01
 -3.9087418e-01
  6.2975401e-01
 -8.8482815e-01
 -3.1807689e-05
  4.3259525e-01
 -1.4381067e-04
 -7.8668170e-05
 -1.9486734e-01
 -1.8785719e-02
  9.1762658e-06
 -1.7031205e+00
  7.2657144e-06
  1.2692073e-05
  5.0400506e-04
 -6.7124574e-06
  3.3872475e-06
 -3.4360302e-05
 -3.4145705e-06
 -1.1017834e-05
  3.6608802e-05
  1.4982536e-05
  1.1959396e-05
  1.4295579e-05
  1.2990356e-04
 -1.4158398e-05
  6.5726003e-05
 -4.1310441e-06
 -2.7422273e-06
  1.3697783e-05
  4.1762203e-05
 -4.2091815e-05
  2.1925285e-05
  4.4033527e-06
  5.0978429e-05
  3.2822758e-05
  9.2508853e-06
 -4.1032676e-05
  3.1404625e-06
  3.9937750e-06
  1.0520036e-05
  4.5078395e-05
 -8.1975650e-06
 -4.7384885e-05
 -2.6903008e-05
  1.5321024e-05
 -1.1453940e-05
  6.9787435e-05
 -4.4539834e-06
 -2.7584035e-06
  2.4346468e-06
 -2.6071853e-05
  2.6407459e-05
  4.4036769e-06
  1.4808334e-05
  2.2553161e-06
  2.3299695e-05
 -2.0940834e-05
  1.6109976e-07
  1.3124475e-05
 -8.3604527e-06
  1.8417957e-05
  2.9352401e-05
 -5.5314151e-05
  1.9193529e-05
  1.6261247e-06
  2.0850803e-06
  4.0094974e-06
 -1.9602998e-05
  2.8391414e-06
  6.5364955e-05
 -2.6027558e-06
  3.2441360e-06
  6.9214793e-06
  4.5920239e-04
 -7.1467504e-05
 -2.8299004e-05
  3.7392005e-02
 -8.5827623e-06
  5.6287013e-06
 -1.3048613e-05
 -6.8588656e-06
 -6.5636532e-06
 -1.0799775e-05
 -2.6806760e-05
 -6.7880217e-05
  4.4002900e-05
 -2.5350255e-05
  1.7590724e-05
  4.9099947e-07
 -4.3024593e-06
  7.4307095e-06
 -1.3661593e-06
  6.1326650e-06
  4.9208702e-05
  2.0875789e-01
  4.6213063e-06
 -4.6418807e-03
 -7.2856776e-05
 -6.1056512e-06
 -3.7320344e-05
 -2.5701668e-04
  1.4456013e-05
 -7.5594871e-06
 -8.8209872e-06
  3.7627036e-05
  3.6017036e-07
  3.3000731e-04
  2.4253599e-05
 -1.2373099e-04
 -1.4846562e-05
 -2.4869256e-05
  1.5874137e-04
  9.5704590e-06
  2.4259331e-05
 -2.9696128e-05
  1.6534001e-05
 -2.1221464e-05
  2.5345716e-05
 -1.0121938e-04
 -1.0854319e-04
 -7.3342126e-06
  9.7881830e-06
  9.1784750e-07
 -8.3301938e-01
 -9.6037549e-01
  8.8932621e-01
 -1.1640382e+00
  1.3401395e+00
 -1.1879910e-05
 -1.6549121e+00
 -2.9910767e+00
  4.0015829e-01
  3.6006796e-01
  1.6330326e-02
  1.7724548e-01
  1.8339185e-02
 -2.4038215e+00
  5.6693243e-06
  2.0638731e-01
 -2.0289004e-01
  1.6891801e-01
 -1.6844603e-01
  1.3650489e-05
  5.1633805e-01
 -1.0899390e-03
  2.3658772e+00
  3.0665964e-01
 -1.1438077e-05
 -3.9522105e-01
  5.9192209e-04
 -7.6229048e-01
  4.4997734e-01
  1.3841629e+00
 -3.0374209e-05
  5.7226056e-01
  4.7132887e-02
 -9.1111636e-01
 -2.6703507e-01
 -1.7673352e-05
 -3.0335087e-01
  6.4968371e-01
  1.1006619e+00
  1.7172622e-05
 -6.9515333e-02
 -2.0202454e-02
  4.4614797e-05
  3.1546739e-01
 -6.6053756e-02
  1.2562618e-05
  9.4008692e-06
  3.3482631e-06
  1.6212307e-05
 -1.3371404e-01
  6.0323487e-06
  4.5795598e-05
 -7.7656447e-03
 -2.3755383e-05
 -9.6991763e-02
 -4.3018154e-04
 -1.6734091e+00
  4.0537816e-01
 -1.7970859e-01
  8.6390192e-04
  2.4373719e-01
  3.9269090e-01
  2.6333815e-01
  9.6087080e-01
 -6.0474679e-02
  5.0667796e-02
  4.6696380e-02
 -5.7637680e-01
 -2.7334370e-02
  8.4125155e-01
 -5.1977432e-01
  1.2893693e-03
  2.4694736e-01
 -2.7065596e-01
 -7.1712662e-03
  7.2464563e-02
  5.1713020e-01
  2.9156566e-01
  3.5585982e-01
 -2.3729699e-02
 -5.2409643e-01
 -5.8888990e-01
 -1.8198657e-03
 -2.9535300e-01
  1.6886444e-01
  3.8563931e-01
  3.2500830e-01
  9.5550877e-01
  1.1869496e-01
  7.6390249e-01
 -3.1383261e-01
 -2.5614606e-02
 -6.8236709e-02
  4.6867289e-02
  4.0063635e-01
  2.7968249e-01
 -5.5698413e-01
 -8.1641310e-01
  1.9180903e-02
 -5.5306864e-01
  6.3641548e-01
  1.9068065e-01
 -4.7355879e-02
 -7.4554645e-02
  1.1129416e-05
  6.4636988e-05
  6.3792370e-02
 -8.0535817e-04
 -1.5409851e+00
 -5.6027144e-05
 -6.5291773e-05
  2.3859581e-01
  7.0417888e-02
 -5.5456478e-02
 -1.9890969e+00
  2.1552344e-01
 -4.2258811e-01
  1.0285121e-05
  1.2251351e-04
 -8.4123722e-06
  5.3788509e-02
 -3.7501958e-01
  2.1186654e-01
  7.3233305e-06
  8.2150422e-04
  3.1220865e-01
  4.2483207e-05
 -7.8407029e-04
 -4.8520809e-01
 -9.3756951e-03
  1.2373604e+00
 -1.5867075e-02
 -2.0275567e-01
  3.0652881e-01
 -3.6927198e-05
 -1.4240073e+00
 -1.9155722e-04
 -2.6495871e-05
 -2.0429016e-04
 -1.0502427e+00
 -5.6962270e-01
 -1.9766244e-01
  1.8294929e+00
 -3.6064295e-05
  2.0386941e+00
  1.1673046e-02
 -7.9455924e-01
 -1.5201318e-01
  5.5616291e-04
 -2.3489185e-02
  5.8926712e-04
 -6.8049997e-02
 -1.9497922e-01
  6.7102179e-02
 -1.6427235e-04
 -1.4675751e-01
  4.2563308e-05
 -8.2464430e-05
  1.6685772e-07
 -1.1348006e-05
  1.4236341e-05
 -2.4946512e-05
  6.4223464e-06
 -3.3669527e-05
 -1.2269240e-05
  3.3864362e-05
  5.7997481e-06
  1.4357331e-05
  2.3074947e-06
 -4.9260038e-06
  1.2012594e-05
 -1.9140231e-05
  2.1968895e-05
 -1.2988286e-05
  1.5457765e-05
  1.7189318e-06
  1.7134233e-05
  4.2108579e-05
  7.2918544e-07
 -6.7961400e-06
 -1.2806786e-06
  1.6000007e-04
 -3.3891614e-05
  3.4654979e-05
  2.0773297e-05
 -2.1153701e-05
 -2.8316174e-06
 -4.2258835e-06
 -5.0909275e-06
 -4.8429633e-06
  3.4774741e-05
  7.4972554e-06
  1.3897919e-06
 -2.4498408e-05
 -7.1962522e-06
  1.6589403e-04
 -3.7639951e-05
  7.5013188e-05
 -7.4424071e-07
  8.4445855e-06
  2.0536208e-05
  2.3012135e-05
  2.3068990e-06
 -5.5268905e-05
 -8.6125401e-05
  4.9588352e-06
  3.1747707e-06
 -5.8742757e-05
 -3.8907046e-08
 -3.0316847e-05
 -1.0375249e-04
 -3.3841625e-06
 -5.5279652e-05
  2.4733563e-05
 -5.7901092e-05
  3.4999255e-05
 -5.8214937e-06
  1.0711668e-05
 -9.6614414e-05
 -2.7296140e+00
 -2.0443602e-03
 -8.2493252e-01
  2.2713837e-01
 -4.5115696e-05
  4.6042091e-01
  8.6448008e-06
  1.7332194e+00
 -5.3337216e-03
  4.1205054e-05
 -7.2799776e-05
 -2.3939414e-05
 -9.3649232e-01
 -2.3633622e-01
  5.0915265e-03
  4.2983457e-01
 -7.3397139e-05
 -3.1435460e-01
  4.1099539e-01
 -7.0113536e-05
  6.7501864e-03
  7.2409171e-06
 -1.3531501e+00
  1.4780524e+00
 -1.3945102e-04
  1.3248288e-04
  2.7134678e-01
 -3.6661953e-05
 -1.2377205e+00
 -1.5334139e-05
  2.2078000e-02
  2.9958248e-01
 -7.6965793e-05
  1.2706485e+00
 -6.6488133e-06
 -4.7139940e-05
 -3.8914681e-05
 -1.7340608e-05
 -1.7043354e-05
 -7.4192250e-01
  1.1458733e+00
  2.1901291e-05
 -3.5685753e-03
 -3.1752067e+00
  1.4951733e+00
  2.5623134e-01
 -4.6586058e-05
 -1.1309739e-05
 -2.7407909e-06
  4.1077732e-05
 -1.2755508e+00
 -2.4062300e-01
 -2.3666935e-01
  2.0589614e+00
  4.3085631e-05
 -3.9043045e-01
  3.5089721e-05
 -5.5501831e-01
 -3.1472796e-01
  6.0527120e-03
 -5.3346598e-06
  1.4151225e-05
  1.3307881e+00
 -2.4538860e-01
  3.0417538e-01
  1.3534920e+00
 -1.5218628e-06
 -2.0946659e-01
  9.5909357e-01
  3.1024614e-05
  3.2195953e-01
 -8.6197060e-06
  1.7387015e+00
  2.3394799e+00
 -4.1247782e-05
  3.7567854e-05
  5.6727314e-01
  9.8502494e-07
 -2.8025359e-01
 -3.9836668e-05
 -1.8751298e-01
  4.6840337e-01
  4.1485982e-05
  2.7450472e-01
 -1.3347872e-05
  1.5569663e-05
 -2.3961065e-06
 -1.5156504e-05
 -2.5167287e-07
 -1.8281152e+00
 -2.9054320e-01
  6.2047540e-05
 -1.4756119e-01
  1.0059561e+00
  1.4136914e+00
 -3.6155677e-01
 -1.2386408e-05
  3.1489100e+00
 -9.2573136e-01
 -3.9460495e-02
  3.1720737e-01
  1.4991748e+00
 -6.7973167e-01
 -1.3646443e+00
 -1.5385608e-02
  2.0450597e+00
  7.7572840e-01
  1.2791067e-01
 -8.7846076e-01
 -1.3132206e+00
 -9.3925178e-02
  1.2810603e+00
  1.0112101e+00
  3.7232472e-05
 -5.6290418e-01
 -1.5901889e+00
 -1.1196054e+00
  4.8362806e-02
  9.1945130e-01
  1.8753977e-01
  2.9075915e-01
  3.5229856e-01
 -1.0401633e-01
 -1.2406998e+00
 -7.4768746e-01
  8.8010108e-01
  2.8559794e+00
 -2.3466589e-01
  8.1534073e-02
 -5.8036719e-02
  1.6482198e+00
  9.2573303e-01
 -2.1912506e+00
 -1.2003845e+00
 -7.3045903e-01
 -1.2522702e+00
  7.9020333e-01
  3.9847565e-01
 -3.1234044e-01
 -1.8694605e+00
  2.0119500e+00
  1.0233647e-01
  1.1995047e+00
 -1.3882822e+00
  3.8568500e-01
 -3.3913928e-01
  1.4717259e+00
 -2.0297445e-04
  7.8487754e-01
 -6.5351421e-01
  1.1807804e+00
 -2.7550815e-02
  1.5183483e+00
 -1.3060233e-01
  1.4234921e+00
  4.2650875e-02
  5.5242592e-01
 -9.7928143e-01
  2.1688268e-01
  2.5666437e-01
  8.9111042e-01
 -2.0627866e+00
 -3.4847383e+00
 -5.7935256e-01
 -6.9302106e-01
  1.0175356e-01
 -5.4773170e-01
  1.3574955e+00
 -5.3535247e-01
  6.3134357e-02
 -4.8672539e-01
 -4.7324100e-01
 -4.0554091e-01
  7.8273946e-01
  2.3442706e-01
  1.5193082e+00
 -1.5164567e+00
  5.0654031e-02
  1.4964049e+00
 -8.4111571e-01
 -1.6349715e-01
 -1.0310076e+00
  4.4652849e-01
  8.1942528e-01
  8.3663982e-01
 -2.6517787e+00
  4.2433599e-01
  3.9327331e+00
  1.3468852e+00
  6.3103497e-01
 -1.3329197e-01
 -2.0056856e+00
 -5.1644194e-01
  1.0814818e+00
  1.5030341e+00
  1.0921930e+00
 -3.8455454e-01
  7.7631134e-01
 -2.4841554e-01
  4.5932186e-01
  5.4287416e-01
 -1.0741938e+00
  2.6137018e-01
  6.2666637e-01
 -1.9015437e-01
 -8.4145421e-01
  1.5186106e+00
  2.4761349e-01
 -9.8949182e-01
  3.0421591e-01
  5.6313759e-01
  1.7972380e+00
 -8.7368056e-02
 -1.4337076e+00
 -6.5657377e-01
 -2.7655917e-01
 -6.5625328e-01
  3.9614987e+00
 -3.2449967e-01
 -2.8684628e+00
  9.4976735e-01
  9.2597383e-01
 -1.8152851e+00
 -1.6291177e+00
  9.0754706e-01
  2.1744139e-01
 -9.5143989e-02
  7.4951835e-02
 -7.8939877e-02
  7.2087449e-01
 -4.0971341e+00
 -3.8460946e-01
  1.5046102e+00
 -3.1638388e-02
 -2.1154485e+00
 -6.2208062e-01
 -3.2827607e-01
  3.0402541e-01
 -8.7810940e-01
  7.2422284e-01
  5.6045324e-01
 -2.0857093e+00
  4.3363395e-01
  2.4256434e+00
  3.0503693e+00
  7.0659554e-01
  1.2536885e+00
  2.2853026e+00
 -8.7122542e-01
 -6.8753684e-01
  6.7207789e-01
 -1.3937151e+00
 -1.6618527e-01
  1.8667269e-03
 -9.5135504e-01
  1.3651427e+00
  1.8764207e-02
  7.1900821e-01
  2.5350027e+00
  1.2795553e+00
  2.7775307e+00
 -1.0335367e+00
 -1.4757633e+00
  1.6396904e-01
  2.0344672e+00
 -4.4934571e-01
 -2.7590859e-01
 -5.8640981e-01
 -1.0991335e+00
  6.8463296e-01
  3.3778185e-01
 -6.1932588e-01
 -1.6497363e+00
  1.6196171e+00
  9.0929914e-01
 -2.4930992e+00
 -2.6544017e-01
  2.0904510e-01
 -2.7663749e-01
 -6.9111109e-02
  7.4880654e-01
  4.4532949e-01
 -1.9431565e+00
  1.6856375e+00
  4.3965113e-01
 -4.0273774e-01
  8.9919662e-01
  1.2814007e+00
 -8.7764704e-01
  1.5720311e+00
  1.5257541e+00
  2.9598348e-02
 -1.2644488e+00
 -2.2399027e+00
 -2.9134734e+00
  3.7264407e+00
  8.0561620e-01
 -1.3734310e+00
 -3.6766455e-01
 -3.3157077e-01
  1.2712871e+00
  2.5274050e+00
  1.3647739e+00
 -6.5892822e-01
 -1.0336628e+00
 -1.4913108e+00
  3.9746444e+00
  2.3901489e+00
  7.9772353e-01
  5.9371561e-01
 -2.0290563e-01
 -2.9778793e+00
  1.7946593e+00
 -5.9944856e-01
 -2.5252309e-02
 -2.9677668e+00
 -1.1341139e+00
  2.4674714e-02
  1.2191890e+00
 -1.1616496e+00
  9.8579437e-01
 -1.9479580e+00
 -2.2850986e+00
 -8.1032765e-01
  1.5923463e+00
 -2.2053874e+00
 -4.9740410e-01
  3.3593831e+00
  2.1446743e+00
  5.9477705e-01
  3.2201898e-01
 -1.3731004e+00
  7.1780132e-03
  7.1780132e-03
  7.1780132e-03
  7.1780132e-03
  7.1780132e-03
  7.1780132e-03
  7.1780132e-03
  7.1780132e-03
  7.1780132e-03
  1.1229538e-02
  1.1229538e-02
  1.1229538e-02
  1.1229538e-02
  1.1229538e-02
  1.1229538e-02
  1.1229538e-02
  1.1229538e-02
  1.1229538e-02
  6.6791815e-03
  6.6791815e-03
  6.6791815e-03
  6.6791815e-03
  6.6791815e-03
  6.6791815e-03
  6.6791815e-03
  6.6791815e-03
  6.6791815e-03
  7.6475660e-03
  7.6475660e-03
  7.6475660e-03
  7.6475660e-03
  7.6475660e-03
  7.6475660e-03
  7.6475660e-03
  7.6475660e-03
  7.6475660e-03
  5.1768012e-03
  5.1768012e-03
  5.1768012e-03
  5.1768012e-03
  5.1768012e-03
  5.1768012e-03
  5.1768012e-03
  5.1768012e-03
  5.1768012e-03
  1.6870151e-03
  1.6870151e-03
  1.6870151e-03
  1.6870151e-03
  1.6870151e-03
  1.6870151e-03
  1.6870151e-03
  1.6870151e-03
  1.6870151e-03
