nep3 3 Cs Pb Br 
cutoff 5 4 17 9
n_max 8 4
basis_size 10 8
l_max 4 2 0
ANN 50 0
  9.3877918e-01
 -3.3982769e-01
 -1.3965997e+00
  1.2391502e-01
 -7.2129786e-01
 -1.5737953e+00
  2.8247115e-01
  8.8204879e-01
  1.2108490e+00
 -4.5211306e-01
  2.7822405e-02
  3.9199767e-01
  5.3789496e-02
 -5.4395407e-01
 -2.4616363e+00
 -6.1403495e-01
 -9.5267707e-01
 -1.0433330e-01
 -6.4723149e-02
 -4.4051003e-01
 -6.1235363e-03
 -7.1270429e-02
  2.3323238e-01
 -3.4855977e-02
 -2.7289042e-02
 -1.3137686e-01
  5.1833624e-01
 -1.3873376e-01
 -1.2460302e-03
  1.6472724e-03
  5.3032074e-02
 -3.8740361e-01
 -5.7281509e-02
  2.9079996e-03
 -3.0695982e-02
  2.3149543e-03
  3.0238148e-02
 -5.3716982e-03
  1.7574491e-02
  6.9251994e-04
 -1.5092213e-03
 -1.6827919e-03
 -3.6772482e-02
  1.6305771e-03
 -2.0601102e-03
  2.0405699e-03
 -3.1895714e-03
  1.6920688e-04
 -3.0682171e-03
  8.8442061e-03
  5.3066388e-03
  7.6026586e-03
  6.1901766e-03
  1.9996581e-03
  4.7948647e-02
 -1.2582387e-03
  5.4671322e-03
 -1.9729836e-03
 -4.0960684e-03
  1.5548699e-03
  7.3881126e-03
 -6.6794902e-03
 -1.8056293e-03
 -3.7570659e-03
 -9.1402596e-03
  3.4690925e-01
  1.6861329e-02
  1.9303774e-03
  5.3526616e-01
 -1.2403323e-03
 -7.5829618e-02
  2.0011760e-02
 -1.5328242e-02
 -1.0003821e+00
  2.8714569e-02
  1.0330984e-02
  4.9408153e-02
 -6.9058396e-02
 -3.3048729e-03
 -5.0998900e-02
 -7.9596512e-02
 -2.6700532e-02
 -6.0873823e-03
 -3.5003137e-02
  5.4825336e-04
 -7.4529611e-03
  1.7308761e-05
 -3.7893644e-03
 -3.4262561e-03
  8.8302769e-02
  3.9646262e-03
 -1.8556867e-02
 -4.4036899e-03
 -1.4910113e-02
  3.5797877e-03
  9.7936194e-05
 -2.0737655e-04
 -2.9749982e-03
 -1.5216005e-03
  6.4801658e-05
 -4.1693076e-03
 -1.8157805e-03
 -6.4254738e-05
 -7.5442600e-03
 -2.2664932e-03
 -4.4903607e-04
  1.2925224e-03
  3.1181204e-03
 -4.0743933e-03
 -5.0003186e-04
  4.9051684e-03
 -9.4100172e-03
  7.8046145e-03
  2.1052575e-03
  4.5351787e-03
  5.4464266e-03
 -1.0959863e-03
  7.4982499e-03
 -8.1395656e-03
 -1.0313288e-02
  1.7570164e-03
  3.2762233e-03
 -1.0288382e-03
 -4.5843502e-03
  9.8002842e-03
  8.3889768e-02
  8.4344167e-03
 -8.7247360e-03
  2.4784333e-03
  2.1251577e-01
 -2.9611294e-03
 -1.3638793e-02
  6.2986102e-04
  3.6055956e-03
 -2.0993853e-03
  7.6444130e-03
 -5.7221893e-03
  4.2644367e-03
  1.8760129e-03
  5.7675615e-03
 -8.0090482e-05
 -3.5871228e-03
 -1.3248265e-02
 -3.5911649e-03
  6.6580423e-03
  1.5250472e-03
  1.4159532e-03
  4.1099160e-04
  1.1018531e-02
 -1.4990781e-02
  1.9226861e-03
 -1.4706742e-03
  5.1187421e-03
 -1.6760894e-03
 -4.2159548e-03
 -5.4276125e-03
 -3.5260150e-03
  1.1452122e-03
 -1.3147097e-04
 -1.1480774e-04
 -6.9120890e-03
 -8.5632730e-04
  1.1277011e-03
  2.9203829e-03
  5.9794630e-03
 -1.5145685e-03
 -2.7557190e-03
 -8.3158538e-03
 -7.6800929e-03
  5.2323900e-03
 -1.1585613e-02
 -2.5737828e-03
 -2.2810649e-02
 -3.7967886e-03
  8.0780499e-03
  2.0011384e-03
  1.3109134e-03
  8.9362096e-03
  1.0281665e-02
 -9.8606339e-03
  6.8545630e-03
  1.2449111e-04
 -6.2170373e-03
  1.1627786e-03
 -2.6433347e-03
 -7.3205424e-04
  7.4212337e-03
  1.3951950e-02
  2.7392851e-04
  2.4207355e-03
 -9.9157430e-03
  2.4676509e-03
  7.6584157e-04
 -3.2071264e-03
 -3.0391403e-03
  3.3199065e-03
 -3.1946306e-03
 -3.3364845e-03
 -2.3673470e-03
  9.9572772e-04
 -3.5160040e-03
  2.0253027e-03
 -6.7306119e-03
  1.2618955e-04
 -5.6351582e-03
  1.2114962e+00
 -8.8848406e-03
  2.2238577e-03
  5.5668205e-03
 -1.4844607e-03
 -2.2291089e-05
  3.7647625e-03
 -7.7729556e-04
  5.0321519e-03
 -4.4030841e-03
  3.1695396e-04
 -7.7922211e-04
  1.1240792e-02
  4.8167915e-03
 -3.2035185e-03
  4.8515508e-03
  7.6832534e-03
  5.2091200e-03
  2.1600660e-03
 -3.7464846e-02
 -9.2093833e-04
  5.3512794e-03
 -1.9185266e-03
  2.1622903e-03
  9.7025256e-04
  6.1533586e-03
  6.9883238e-03
 -3.7566572e-04
 -4.5300345e-03
  6.0704560e-03
 -3.4919302e-03
 -1.5707854e-03
 -2.5462271e-03
  1.9369295e-03
 -1.4355939e-03
  5.3183092e-03
 -1.1481195e-02
  4.3372167e-03
 -3.3924106e-04
  2.3746658e-03
 -6.7866743e-03
  3.9742549e-04
 -1.1272399e-03
 -5.3549740e-03
  8.7127341e-03
 -2.6634587e-03
 -4.7829608e-03
  8.4510418e-03
 -8.1928140e-03
  3.4257218e-03
  1.5366512e-03
 -3.5397585e-03
 -7.5118081e-04
 -3.3087484e-03
 -4.2866934e-03
  1.0578007e-03
 -6.0934690e-03
 -7.2905619e-04
 -4.3754373e-03
  3.4332494e-03
  7.4034589e-03
  3.8835732e-03
  5.8834972e-03
  5.8516013e-03
 -9.9318111e-03
  5.9921583e-03
  3.1346828e-03
 -1.3415274e-01
  4.2437282e-03
  1.2496640e-01
 -6.2810602e-03
  2.0480281e-02
  1.7154990e-02
 -8.1570514e-02
 -7.0516780e-02
 -1.4823407e-01
  1.4136592e-02
  8.8568282e-05
 -5.5969204e-04
  4.3489452e-02
  5.9035260e-02
  1.7933579e-03
  1.7558069e-03
  1.1525456e-02
 -3.6542034e-03
 -3.4999393e-03
  4.6909831e-02
  8.4304018e-03
 -1.3799540e-03
 -4.7465872e-02
  9.8838122e-04
  2.9225559e-03
  3.6365382e-02
 -1.6357861e-02
 -4.0761147e-02
  4.4830879e-03
 -2.1513868e-03
 -1.1645586e-02
  3.8723794e-03
  3.8803932e-03
  2.8625153e-02
  2.1355655e-03
 -1.2588664e-03
  4.0011485e-03
 -4.5998800e-01
 -1.2762459e-02
  4.6908450e-03
 -1.3006574e-02
  2.3594322e-03
  8.4974356e-03
  4.8439573e-03
  6.4571726e-04
  4.4646682e-03
 -9.6908174e-03
  3.6828434e-03
 -9.8029384e-05
  1.8358559e-04
  2.1956773e-03
  3.9155865e-03
  4.1549639e-03
 -4.2458293e-03
  8.3322991e-03
  1.5147328e-03
  8.3876820e-03
 -2.6191247e-03
  1.3098984e-03
 -6.4417571e-03
  4.4317502e-03
 -1.3791909e-03
  6.0638417e-03
 -4.1489834e-03
  2.1023038e-03
  3.3204455e-03
 -1.3618055e-02
 -4.5086211e-03
 -1.1936166e-01
 -2.6901639e-03
 -5.4161400e-02
 -2.2879533e-01
  2.0792473e-03
  2.6983239e-03
 -3.0722842e-02
 -3.6225447e-03
 -7.4082948e-02
  2.0437678e-02
  9.8053934e-03
  1.9439625e-02
  4.6008537e-03
 -2.8435763e-03
  1.3911024e-02
  7.1879774e-02
  2.9613525e-02
 -1.6241221e-02
  5.3961030e-03
  7.8666452e-03
  1.0780949e-03
  2.6655162e-02
 -6.3267713e-03
 -1.3599428e-03
 -2.1000195e-03
  1.3451665e-02
  2.0625712e-03
  2.1846453e-03
 -1.1405536e-02
  2.4399182e-03
 -7.1327202e-03
  3.4909775e-03
  3.7937965e-03
 -5.8943955e-03
 -2.0022602e-01
  1.6137764e-03
  1.4364782e-01
 -8.7535545e-02
  1.2018617e-02
 -2.6305728e-02
 -7.8984732e-03
 -5.9055765e-03
 -2.0244597e-01
  1.1223733e-02
 -1.0132327e-01
  3.7063569e-01
  1.4331920e-02
  8.5611425e-02
  8.8214628e-02
  3.0230433e-02
  2.6843692e-03
  2.7415201e-03
  3.0440416e-03
  9.9918917e-02
  4.4801552e-03
 -2.8251001e-01
 -3.7815709e-02
 -2.1327948e-03
  1.1788239e-04
  6.8427868e-02
 -1.1310067e-01
  3.8376497e-03
  2.2260847e-03
 -3.2904970e-03
 -2.1435555e-02
 -3.5086327e-04
  7.5766727e-02
 -3.4224573e-03
 -8.5111409e-03
 -8.4726870e-01
  1.2488124e-01
 -1.3497206e+00
  1.6086881e-01
  7.5462008e-01
  5.7248741e-01
 -1.8939297e+00
  7.6545447e-02
 -1.8030774e-02
  4.1351360e-01
  8.3684817e-02
 -1.5761817e-01
  4.8638687e-02
 -5.6716260e-03
  3.0493736e-01
  2.2053891e-01
 -4.0069297e-03
  1.1205173e-01
 -1.3518708e-02
  8.3507791e-02
 -2.4791515e-01
  1.1661358e-01
  1.0139220e-03
 -8.9330422e-03
 -2.7323153e-04
  4.5825392e-01
  8.6411918e-03
 -3.4899202e-03
 -5.0733201e-03
  1.8729438e-01
 -2.7730060e-03
 -1.4425261e-02
 -4.9266750e-03
 -4.0187454e-01
  9.0703458e-01
  1.9786593e-02
  1.2867577e+00
 -6.5242600e-01
 -2.8843904e-01
 -3.7728664e-01
  5.6590517e-03
 -8.1743538e-02
 -1.0224163e-02
 -1.9010123e-03
  1.0950671e+00
  4.7664350e-04
  6.9168168e-03
 -9.4424792e-02
 -1.1241919e-01
  7.5080180e-01
  8.6474055e-03
 -7.4819364e-03
  6.6311168e-04
 -1.8958386e-02
  4.6317559e-01
  5.1319492e-01
  6.5416917e-03
  5.6716026e-04
 -2.5843287e-01
  1.6145390e-03
  1.2542899e-02
 -4.8772022e-03
  6.4327652e-03
  5.4017208e-03
 -1.0937535e-03
 -2.8535163e-03
 -1.5492551e-06
 -2.3182344e-02
  2.0702709e-03
  1.6589665e-03
  4.3326183e-03
 -1.3252008e-03
 -2.8391879e-03
  2.8210292e-03
 -4.3473644e-03
  9.5685024e-04
  8.2107028e-03
 -2.8550222e-03
 -1.5904557e-02
  1.2672736e-02
 -3.2325718e-03
  4.5939377e-03
  8.8178413e-04
 -5.3540693e-04
 -1.0868580e-03
 -9.2177680e-03
 -5.5829477e-03
 -1.3402204e-02
  6.9773896e-03
 -4.9360213e-04
  3.5223053e-03
  5.7911157e-04
 -5.4646889e-04
 -1.6590963e-03
  3.3295131e-03
  1.1334510e-02
 -2.4102547e-04
  6.2872493e-03
 -8.8864965e-03
 -2.5704205e-03
 -4.4385865e-03
  3.0715737e-04
  4.3097237e-04
 -9.4785027e-02
  2.6149910e-03
 -4.0741049e-02
  8.0188259e-02
  1.5356681e-02
 -1.9592778e-03
  6.1080910e-02
 -2.1739321e-02
 -1.0401675e-03
  1.0613661e-01
 -6.6936249e-03
 -2.2779737e-02
 -3.3973448e-02
 -1.8907467e-02
 -9.5593641e-03
 -7.1245949e-03
 -1.8866544e-03
  5.0083799e-03
 -1.7642738e-02
 -1.0574333e-01
  5.8306595e-03
 -1.6258297e-02
 -7.0763864e-03
 -1.0895029e-03
  1.2749905e-02
  1.4479924e-02
  5.5837887e-04
  1.3580476e-02
  1.5682714e-02
 -1.1086903e-02
  6.3511343e-03
 -6.2550767e-05
 -6.0110465e-03
  1.4264478e-02
  4.6867067e-03
  9.9998312e-03
  1.2052831e-03
 -5.8647785e-03
 -1.6588543e-03
  1.6426044e-03
  9.6374762e-04
 -1.1635025e-02
 -4.5329530e-04
 -6.3486677e-03
  3.7490898e-03
 -4.8177617e-04
 -3.6363620e-03
 -9.0214629e-03
  1.0830555e-03
 -2.5037157e-03
  5.6355102e-03
  3.4306631e-03
  2.2251527e-03
 -2.9387283e-03
  3.7890428e-03
 -8.8473363e-03
  6.9922989e-04
 -4.7436422e-03
  2.7283276e-03
 -4.9912212e-03
  4.1862694e-03
  4.4673299e-03
  8.9917931e-04
 -2.9797384e-03
 -3.7507187e-03
 -1.9614454e-03
 -1.0654360e-02
  5.2395056e-04
  9.9183675e-03
 -4.9966201e-03
  3.0689198e-03
 -8.5171536e-03
  1.6173370e-02
 -5.8748508e-03
 -5.2751572e-04
 -3.5896534e-03
  1.7021084e-06
  1.0349425e-03
 -3.6380433e-03
  1.0819512e-02
  8.9805545e-03
  4.6627070e-03
  2.1413821e-03
  1.0906836e-03
  1.2749223e-03
  3.8426863e-03
  5.1062834e-03
 -8.5640466e-03
 -6.0904371e-03
  8.5603696e-04
  2.1586758e-03
  7.5132372e-03
 -3.4480279e-03
 -5.2101854e-03
  4.0324233e-03
  1.1529958e-02
  7.8464523e-03
 -1.2499960e-03
 -4.2881968e-04
  2.3084881e-03
  4.8443049e-01
  3.0995202e-03
  1.0270423e-02
 -1.4406476e-02
  2.7171897e-03
  2.4296360e-03
  1.1954662e-02
 -8.1914216e-03
 -7.8649390e-03
  1.4242395e-02
 -3.2103737e-04
 -1.2541702e-04
 -1.9875749e-03
  1.3525287e-02
 -1.1874662e-02
 -7.5066579e-04
 -9.8814499e-03
  3.5005412e-04
 -1.7605847e-02
  1.5806451e-02
 -4.4277487e-03
  3.2366375e-03
  4.0678601e-03
 -5.0701022e-02
 -2.0506664e-03
  9.5433677e-03
  4.9185567e-03
  6.0875551e-04
  3.5329298e-03
  1.3614470e-03
 -1.0012619e-03
 -2.2308648e-02
  3.4076602e-03
  1.9737384e-03
 -4.4699144e-03
  7.3008560e-02
  9.3065374e-02
 -4.8419770e-02
 -4.4796565e-03
  2.7043761e-03
 -4.9180336e-02
 -8.8577421e-05
 -2.0275174e-01
  2.8672375e-02
  2.0290451e-02
 -4.8007470e-02
  1.7158769e-02
  1.0688457e-02
  1.5700584e-02
  1.6267749e-02
  3.5088684e-02
  7.8504970e-03
  4.9212710e-03
  3.2192208e-02
  9.5750093e-03
 -2.0533917e-06
 -7.4108705e-02
  3.9206825e-02
 -1.0596178e-02
  3.2128561e-02
 -1.3380038e-02
  4.2376556e-03
  6.5605734e-03
 -1.2333510e-02
 -2.9501405e-02
  1.9973831e-02
  7.4520502e-03
  1.5161974e-02
 -3.5443266e-03
  5.8094598e-04
 -1.9849453e-02
  6.3137535e-04
 -2.0862077e-03
 -5.8560167e-05
  1.8321455e-02
 -2.3363428e-03
 -2.8480215e-03
 -1.7798647e-03
  1.3902106e-03
 -6.3838181e-04
  1.8215065e-03
 -4.5470628e-03
  6.5472245e-04
  3.4764486e-03
  3.0151249e-03
 -1.3242000e-02
  4.7198278e-03
 -4.2847516e-03
  7.0074429e-03
 -8.4023010e-03
 -6.0752919e-04
  1.7211888e-02
 -3.8374986e-03
  3.9887390e-04
  7.1218493e-03
 -7.3040319e-03
 -7.0023118e-03
  6.3032527e-03
  2.5498234e-03
  6.4639249e-03
  2.1823084e-02
 -3.7714476e-03
  1.8915622e-03
 -6.4664092e-03
 -7.6730181e-03
  9.2661276e-02
  4.0327683e-03
  1.0815403e-01
  1.8068863e-02
 -3.9538243e-03
 -6.3238526e-04
 -2.8352547e-02
  2.2232234e-04
  4.2381078e-02
 -4.7535468e-03
 -2.4164910e-03
 -4.1671107e-03
 -7.9150684e-04
  2.1078819e-03
  2.4351222e-02
  7.2439609e-04
 -1.9542195e-03
  4.4609602e-03
  1.0518656e-02
  1.1343003e-04
 -4.4896980e-03
 -7.7505605e-03
  4.5066164e-04
 -1.7343578e-03
 -1.6097070e-03
 -1.6786722e-03
  4.2433273e-03
  5.1487808e-04
 -6.3086278e-03
 -3.2899985e-03
  4.4856579e-03
  6.3419221e-03
 -1.2459408e-02
 -1.4741994e-02
  8.2903411e-03
  5.0949072e-03
 -2.9005776e-03
 -2.9598854e-03
  4.5765489e-03
  2.1489298e-03
 -1.0197304e-02
  4.5700055e-03
  3.2877200e-03
 -1.1067056e-03
 -4.0696459e-03
  3.3064368e-03
  3.7614000e-04
 -3.0867159e-03
  8.3172489e-03
  2.6055453e-03
 -1.3646793e-02
 -3.9393939e-03
  2.2586763e-02
  1.3050682e-02
 -3.0853045e-03
  1.1870044e-02
  5.0863624e-03
 -3.1755911e-03
 -1.7465525e-03
  6.0515795e-03
  6.3898000e-03
 -3.5005542e-03
  3.9704987e-03
 -3.2978129e-02
  8.9927576e-03
  5.4525435e-03
 -1.8807946e-03
 -2.7334329e-04
 -1.1720052e-03
 -2.9196125e-03
  3.3971281e-03
  2.3763482e-03
  5.7077222e-04
 -1.6940581e-03
  7.0280731e-03
  8.9485710e-03
  2.9354966e-03
  2.8631540e-03
 -1.3254525e-03
 -2.5135127e-03
  4.3181563e-04
  1.2810138e-05
  1.1368816e-03
 -2.6366320e-03
  7.1891639e-03
  4.9756747e-03
 -5.8668903e-03
 -6.2732208e-03
 -5.0501530e-03
  1.1170841e-02
  4.9859835e-03
  1.1418853e-03
  3.9981748e-04
  5.9565511e-03
 -4.0177684e-03
 -1.2067534e-02
  1.3449008e-03
 -5.6151487e-03
  1.7180567e-03
  1.7142634e-01
  4.1250364e-04
  1.9135268e-03
 -4.5660179e-02
  4.4499179e-03
 -2.1685040e+00
 -6.0019959e-02
  7.1489766e-02
 -1.0094758e-01
  2.2188757e-02
 -1.2649983e-01
 -2.9819036e-01
  2.9915934e-02
  2.5096855e-03
 -4.3861067e-04
 -5.3812806e-02
  2.9741758e-03
  4.5780387e-02
 -3.4385722e-04
  8.4183291e-03
 -1.3554716e-02
 -9.2195117e-01
 -5.9969164e-02
 -7.3465477e-03
 -3.6467998e-03
 -1.8437268e-02
 -2.0955607e-01
  1.8223077e-03
 -1.3100907e-02
  9.0789972e-03
 -2.3045165e-02
 -3.9185188e-03
 -9.9295494e-04
 -6.2031415e-03
 -5.8163758e-03
 -5.1346715e-03
 -1.3579403e-03
 -2.8721241e-03
 -1.0302079e-02
 -9.3858251e-03
 -1.9617153e-03
  7.3148846e-03
 -1.1984946e-03
  3.2860856e-03
  3.8221083e-04
  1.3522358e-03
  7.1796011e-03
  3.4251378e-04
  1.7694981e-03
 -6.8617268e-03
 -2.3230258e-02
  1.1792548e-03
  7.7573424e-03
  1.4264790e-03
  8.3621340e-03
  6.3184863e-03
  4.6323766e-03
 -7.6202997e-03
  9.0451317e-04
 -9.1083879e-03
 -7.8826901e-03
  1.1041402e-03
  2.1211579e-03
 -1.5415665e-02
  7.3129474e-04
 -1.7251516e-02
 -1.6204324e-03
 -1.8112995e-03
 -3.6487732e-02
 -3.0548981e-01
  2.0718716e-01
  4.6910930e-01
  2.4264956e-01
 -6.1064684e-01
  7.5090271e-01
 -1.2214944e+00
 -9.6830004e-01
  1.4089756e-01
  8.6483337e-02
  8.7366201e-02
  5.8961290e-01
  5.7728744e-01
  1.2558915e-02
 -2.0401305e-01
 -2.0611154e-02
  1.0223596e-01
 -1.8197538e-01
  1.7421294e-02
 -1.3158499e-01
  2.4091557e-02
 -1.0972836e-01
  1.5028334e-01
  1.9926937e-02
 -6.3871732e-04
  3.9629331e-03
  2.2702951e-02
  2.6726362e-03
  5.1395893e-03
 -1.4563477e-01
  1.0998795e-02
  9.9903671e-04
 -1.7677270e-03
 -1.2370804e-04
 -7.8134239e-03
  3.7846747e-03
  1.8631145e-01
  5.4584388e-03
 -2.4124065e-03
 -2.1579093e-03
  1.0357957e-03
 -2.4318201e-03
 -1.9393606e-03
 -6.0074953e-03
 -5.0510988e-03
  1.7334772e-02
  1.2144526e-03
 -9.6117472e-03
 -2.9973732e-03
 -4.6719993e-03
  7.5023728e-03
  1.6179080e-03
 -7.8425845e-03
  9.0807881e-03
  3.7502486e-04
  1.1593250e-03
  5.9335207e-04
 -2.7452805e-03
 -6.0136558e-04
  1.1738461e-02
  1.9581221e-02
  2.0335687e-03
  1.1155674e-02
 -1.5070072e-03
 -3.9260518e-03
 -6.4126467e-03
  4.9927067e-03
  1.0916384e+00
 -1.1053723e-03
 -1.7990875e+00
 -5.4467689e-02
  6.1081797e-01
 -2.9620008e+00
 -3.6765820e-01
  1.2714225e-01
  6.0225647e-02
  1.4501217e-01
 -5.8580291e-01
  2.6134038e-01
  1.0454822e+00
 -8.6409576e-02
  3.2973117e-01
 -8.2403041e-02
  4.2680073e-01
 -3.6663574e-01
 -1.1158673e-02
  3.5201830e-01
  6.4904213e-01
 -2.4193844e-01
 -1.0046189e-01
  2.1315408e-01
  1.6674516e-01
 -5.7751690e-03
 -6.2432659e-01
 -1.1838117e-01
  6.5897978e-03
 -5.5388021e-03
 -7.1090579e-02
 -2.5154011e-02
  3.4841252e-03
  7.7079539e-03
 -8.1042005e-03
  2.9102922e-03
 -1.5077228e-02
  6.0495492e-03
 -2.4017293e-03
  4.1703347e-04
  5.2890130e-03
 -3.7478709e-03
  5.0075562e-03
 -2.1240689e-04
  6.4021307e-03
  8.8167498e-03
 -1.5477556e-02
  1.1557693e-03
 -1.7083518e-03
 -2.3114351e-03
 -6.2129362e-03
  4.6141483e-03
 -7.3408149e-03
 -1.8237054e-02
  3.3152136e-03
 -8.4091909e-02
 -2.1366391e-03
 -7.4289637e-03
 -8.7385941e-03
 -3.7582873e-03
  1.1233869e-04
 -2.9120552e-03
 -2.8594648e-03
  3.2158550e-03
  8.7347291e-03
  1.8664956e-04
 -6.2878896e-03
  3.4416965e-03
  8.7653542e-01
 -3.0609784e-01
 -1.0713360e-01
  2.6674339e-01
 -1.0156667e-02
 -5.4264486e-01
 -1.2614160e+00
  8.3191447e-02
  2.0550217e-01
 -3.8353208e-02
  2.9866859e-01
  6.2928784e-01
  2.2104616e-01
 -7.8791074e-02
 -1.1184500e-02
 -1.2917592e-01
 -3.3183941e-01
 -1.4927474e-01
  7.8133270e-03
 -1.1200039e-04
 -8.2824472e-03
 -1.1572933e-01
  9.8162189e-02
 -6.2580225e-03
 -7.3502334e-03
 -2.8758055e-02
  6.2826402e-02
  8.1571579e-02
 -5.7406379e-03
 -1.4730748e+00
 -2.5924128e-03
 -5.3230293e-02
 -2.3374094e-02
 -3.4367484e-03
 -7.9554413e-03
 -1.5845643e-03
  7.0080804e-03
  1.5595603e+00
  8.1416937e-03
 -8.4242575e-02
 -7.2364166e-02
 -5.2947351e-03
 -1.2038686e-02
  1.7819697e-02
 -2.0736568e-03
  2.2764746e-03
 -7.3964167e-03
 -1.6576891e-03
  4.5845029e-03
  2.6656147e-03
  1.8493581e-04
  3.8830604e-02
 -2.8232140e-03
  1.5254417e-03
 -7.6926767e-04
  1.0513599e-02
 -3.7129985e-03
 -1.3143990e-02
  6.8170587e-03
  9.5167262e-03
  5.1058433e-03
 -3.4061084e-03
 -1.7129570e-04
 -1.0023536e-03
 -3.4773056e-03
  4.6389429e-03
 -1.3215378e-03
 -6.6756629e-03
 -3.3148131e-03
 -4.6950299e-05
  2.7573179e-03
 -2.7135713e-04
 -5.5708443e-03
  5.0010998e-03
  6.3770274e-03
  1.5445232e-02
  3.1915910e-03
 -4.4749407e-03
 -1.0695262e-03
 -3.8158332e-03
 -5.4538762e-04
 -5.1421160e-03
  5.6629977e-04
 -4.5329187e-04
 -3.9078423e-04
  4.5239232e-03
 -7.0383195e-03
 -3.5655079e-03
  4.8031122e-04
 -6.8458787e-04
 -3.5011517e-03
 -1.5188005e-02
 -1.1110537e-02
  7.9631554e-03
 -4.2860042e-03
 -6.8614525e-03
  3.1957845e-04
 -3.6972028e-03
  1.4312021e-03
  1.7935900e-02
 -5.4342858e-04
  1.4646909e-01
 -2.3380371e-02
 -7.4681565e-03
  2.0907656e-03
 -8.8061541e-03
  5.1255752e-03
  7.1468530e-06
 -3.1618681e-02
 -4.1040699e-03
 -3.7749072e-03
  2.5270274e-03
  2.5319015e-03
 -4.0894218e-02
 -5.1625893e-03
  9.3920399e-03
  2.3748232e-02
 -1.3743850e-02
  4.0440154e-03
  1.8778101e-03
 -2.7844789e-03
 -5.3312280e-03
 -9.1151372e-03
  6.8601756e-04
  1.0663873e-02
 -6.0922988e-03
  6.3661183e-03
  4.4353778e-04
  5.2110717e-04
 -2.6447875e-02
  4.1866386e-03
  3.9883726e-03
 -3.1463136e-03
  1.2184513e-02
  3.6323089e-03
  1.8028736e-02
 -1.8187915e-03
 -1.9151864e-03
 -1.8989138e-02
  2.1207031e-02
  6.2193768e-04
  2.2467901e-03
  3.7413575e-03
 -1.5284384e-03
  5.4184061e-02
  5.4246583e-04
 -4.0180385e-03
 -4.7516130e-02
 -1.7108934e-02
 -7.5596226e-03
 -4.1460013e-03
  7.8652352e-03
 -2.7829083e-06
 -3.6738967e-03
  1.9005826e-03
 -3.5208925e-03
 -5.5768285e-03
 -4.5543886e-03
  3.0753441e-04
 -4.6700197e-03
 -2.2530719e-03
 -1.1434281e-02
  2.7534429e-03
  1.9005055e-03
 -2.2163128e-02
 -1.6830974e-03
  3.7766753e-03
  8.0600284e-02
 -1.1601854e-03
  1.6734675e-03
  1.0646832e-01
 -2.4971317e-01
 -2.5684866e-01
  2.2598483e-01
 -4.0547822e-02
  1.7867329e-02
  1.4134382e-01
  5.9931995e-03
  1.7571253e-01
 -9.4576180e-02
  3.7494805e-02
 -1.5500087e-01
 -1.1756250e-01
 -1.9392593e-01
 -2.3863478e-01
 -2.8767226e-02
  1.7442502e-04
 -1.6238396e-03
 -8.0373129e-03
 -9.4562605e-02
 -1.3908696e-02
 -6.7514539e-02
  7.5112455e-02
 -4.9294975e-02
 -1.7677940e-02
 -1.1152381e-01
  5.4913007e-02
  3.0009453e-03
 -2.0260713e-03
 -4.9709352e-03
  4.5443475e-02
 -5.0750408e-02
 -8.7276705e-02
  4.3164995e-03
  3.9111223e-02
  1.3342983e-04
 -5.6932140e-03
 -1.0425064e-02
  1.6985334e-03
  5.3968700e-03
 -1.5088735e-02
 -6.5409450e-04
 -7.3705672e-04
  8.9314114e-04
 -7.6378998e-04
  5.3099031e-04
  4.5668967e-03
  6.9748471e-03
  2.1484941e-03
  4.8173284e-03
 -5.5912416e-05
 -3.1428142e-03
 -1.2624564e-03
 -4.9151108e-03
 -1.0360964e-02
  3.3991821e-03
  4.7041583e-03
  3.5999843e-03
 -5.9018740e-03
 -1.6011415e-03
 -2.8069648e-03
  9.2388620e-04
  3.0772779e-03
 -5.5571757e-03
  3.1266720e-03
 -8.2386239e-03
 -3.9234790e-03
 -7.8992418e-04
  8.7142037e-03
 -4.1459063e-03
  1.3539698e-03
  1.1132648e-03
 -8.1269052e-03
  5.7203500e-03
 -3.8502861e-03
  1.6346141e-03
 -1.9586845e-03
  5.1349821e-04
 -1.3076806e-02
 -1.4069800e-03
 -1.9957069e-03
  1.3347481e-03
 -2.0312802e-03
  9.2726620e-04
  2.0095606e-03
 -2.2328063e-03
 -6.4726239e-03
  3.9020469e-03
 -4.1478076e-03
  6.3160267e-03
 -3.7611199e-03
  1.7265928e-03
 -5.0771749e-05
  1.9819133e-03
  1.3524303e-03
  3.3855229e-03
 -2.7232366e-03
 -5.5445940e-03
 -1.2176465e-03
  5.2540130e-03
  3.6376528e-04
  8.1110494e-03
  8.4947151e-01
 -9.2682672e-01
  2.8167281e-01
 -5.7540524e-01
  1.9370173e-01
 -7.3659569e-01
 -5.5061799e-01
  9.9456793e-01
 -2.5052989e-02
  2.2059271e-02
 -2.0113619e-01
 -3.1388196e-01
 -7.5641610e-02
  9.5869172e-01
  5.3396560e-02
  3.9954114e-01
  7.3654354e-01
 -1.0193410e-02
  5.1372238e-03
  6.8256110e-02
  2.3958307e-02
 -1.1926834e-01
 -6.5555251e-01
 -3.3894030e-03
  6.7441771e-03
  9.9270297e-03
 -8.4633303e-01
 -1.6322786e-01
  6.4131077e-03
  4.0467726e-03
  9.4553130e-04
  3.9938036e-03
  4.4909306e-03
 -8.9847296e-03
 -1.7010459e-03
  1.0867822e-03
 -3.9764498e-03
 -4.1358799e-01
  2.3734851e-03
  1.3637599e-03
 -2.2212332e-03
 -2.5792969e-02
  1.2583018e-03
 -7.4187713e-03
 -5.1726587e-04
  3.7838583e-04
 -1.0572202e-02
  2.1819128e-03
 -1.1029487e-02
 -4.4243056e-03
  7.2008627e-04
 -1.3571181e-03
 -1.8556204e-03
  3.4056222e-03
  2.4998917e-03
  1.7716011e-02
  9.1710291e-04
 -6.7990688e-03
 -1.0077711e-02
  1.4633505e-03
 -3.3058303e-03
 -1.0091804e-03
  2.4016385e-03
 -1.4610146e-04
 -4.3598730e-03
 -2.1874998e-04
  3.8285316e-03
 -9.8250955e-03
 -7.9082418e-03
 -8.4725674e-03
  3.6382987e-03
  3.8017752e-03
  6.2440464e-04
 -5.3059566e-04
  5.7008574e-03
 -6.0352031e-05
  1.6360778e-03
  3.5111508e-03
 -1.7285709e-03
 -1.4682201e-04
 -4.8420443e-03
 -4.3196827e-03
  1.7620414e-04
  3.0022676e-03
  8.7928288e-03
 -1.4525481e-02
 -5.5390992e-05
 -7.4477475e-03
  1.2912476e-02
  1.1717841e-03
  7.9917320e-04
  3.0230784e-03
 -2.2234367e-03
 -6.1383382e-03
 -7.8545641e-03
 -1.1968094e-02
  5.4171993e-03
 -2.3092451e-03
  5.2921008e-04
  7.2831195e-03
  2.8122668e-03
 -1.9436976e-03
  2.1064175e-02
  4.9083796e-03
  2.6993426e-03
 -6.2815645e-03
  3.9564481e-04
 -1.4882566e-03
 -1.0730872e-02
  4.5500528e-03
 -2.6123063e-04
 -1.6000558e-03
 -2.4196424e-03
 -1.8075539e-03
 -2.0116002e-03
  5.6007234e-03
  1.0817685e-03
 -3.7094633e-04
 -1.5414943e-04
  3.9396053e-03
  2.4261158e-03
 -5.3053908e-04
 -2.5723767e-03
  2.2146103e-03
  7.5791390e-03
 -5.7074608e-04
  5.2594668e-03
  4.5531145e-03
 -3.4169906e-03
  5.7531958e-03
  1.4564625e-03
 -3.8452016e-04
 -7.1822680e-03
  5.1743090e-03
 -4.8734024e-03
 -5.1943278e-03
 -3.3429877e-03
  4.1523785e-04
  2.8278483e-03
  1.1386627e-03
 -1.6606915e-03
 -1.1223389e-02
 -3.8770922e-03
  1.7351217e-03
  1.2075808e-03
  5.6341668e-03
  7.3318281e-03
  7.8839231e-03
 -2.4931072e-03
  6.7249890e-03
  5.9595639e-03
 -5.3222254e-03
 -7.2900695e-03
  1.4518996e-03
 -2.0565368e-02
  2.3998911e-03
 -6.5113781e-03
 -9.5488904e-03
 -1.0858605e-02
  6.1568003e-03
  1.4086352e-02
 -5.6650036e-04
 -6.9110910e-03
 -1.2566124e-02
 -7.2454936e-03
 -3.2709343e-03
 -7.1160281e-03
 -2.9137700e-03
  3.6935369e-04
 -5.9509226e-03
  2.7304199e-03
 -2.3430492e-01
  8.8131529e-01
 -9.1073848e-03
  1.1231525e+00
 -2.1515056e-02
 -1.8469306e+00
 -2.1321110e-01
 -3.6471763e-01
  3.1133249e-01
  1.0113778e-01
  9.1763639e-01
  9.5275372e-02
  3.0371964e-01
  1.2678616e-01
 -1.0684518e-01
  1.0660334e-01
  1.6176717e-02
 -4.4300919e-03
  1.9066213e-01
 -3.7672058e-01
 -1.1980037e-01
 -3.7156931e-01
  7.6037748e-03
  2.8454285e-02
  6.6921487e-02
 -3.5198899e-03
  1.8444749e-03
 -3.0120399e-03
  1.0030275e-02
 -9.5662251e-02
  7.4804449e-03
  2.9440490e-03
  1.7312989e-02
  1.6148690e-02
  2.0186394e-03
 -4.4983298e-02
 -3.8147403e-03
 -4.3156063e-03
  2.0506082e-02
  1.5389686e-02
 -1.9644958e-03
  1.0059221e-02
 -2.7515827e-02
  8.0193151e-03
 -5.2279215e-03
 -1.1264736e-02
 -1.7608074e-03
 -1.5557061e-02
  1.2764740e-03
 -6.8300576e-03
 -3.1893868e-03
  9.6928105e-03
 -3.4049007e-03
  5.0606728e-03
 -1.0195629e-02
  6.7753415e-03
 -1.7813840e-03
 -1.1032779e-02
  2.8885142e-03
  2.4646707e-03
  8.0660665e-03
 -1.2396099e-02
  2.3324629e-03
 -2.6291711e-03
 -1.6659567e-02
 -4.4358587e-03
  4.8625451e-03
 -2.7690968e-04
  7.6942360e-03
  4.1351686e-03
 -9.9213369e-02
  9.6325595e-03
 -1.1150641e-03
 -8.9190360e-03
 -1.8900610e-04
 -5.8440305e-03
  3.9207619e-03
 -3.0777189e-01
 -3.9301085e-01
  2.7185197e-03
  2.0244252e-02
  4.8463315e-02
  8.0590826e-03
 -1.4233728e-03
  1.0673514e-02
  3.5434959e-03
 -3.3204446e-03
 -1.1439371e-03
  1.5623422e-02
 -4.9456288e-03
 -1.1765122e-03
  9.1838110e-03
  6.2433234e-03
 -3.1968867e-03
  1.0461796e-02
 -1.2746756e-03
 -6.7431713e-03
  1.4248805e-03
  7.1256086e-03
  3.3670601e-02
 -8.4291864e-04
  5.0737768e-01
 -1.8110871e-02
 -1.5659229e-01
  3.1207564e-01
 -4.3258160e-02
 -1.3834255e+00
 -1.6460445e-02
  3.7657693e-01
  3.1573936e-02
 -3.8009584e-03
 -1.3116455e-01
 -2.8030220e-01
  1.3059988e-03
 -1.7256047e-01
 -2.5307285e-03
 -4.9488019e-02
  4.1338825e-04
 -7.4514367e-02
 -3.5132286e-03
 -1.6623065e-02
 -5.1205270e-02
 -1.3346270e-01
 -3.5231351e-04
 -1.5177317e-02
 -3.7112269e-03
 -1.8635695e-01
 -5.1389629e-01
 -2.8479336e-02
 -8.2644206e-03
 -1.3077995e-03
  1.3447648e-03
 -2.3393324e-03
 -3.9333817e-02
 -4.8102508e-03
  2.9649848e-02
  4.4222775e-01
  1.1347377e-01
 -6.8092905e-04
  4.0258840e-02
 -3.3605790e-01
 -2.1077941e-01
 -9.2813335e-03
 -1.3588251e-01
  1.5843406e-01
 -2.9288915e-03
 -3.9454445e-02
  2.9763849e-03
  4.0474281e-02
  1.0290612e-01
  6.9052503e-02
 -3.7961222e-02
  5.6548603e-04
  3.5172827e-03
  4.2050760e-02
  4.5599267e-03
  5.2793954e-02
 -2.1236813e-02
  5.6380727e-03
  7.4953064e-02
  9.8248094e-04
 -6.7283154e-02
 -4.3835910e-03
 -1.1756292e-02
 -2.0585153e-03
 -1.1636997e-02
  9.2877919e-04
  1.5645869e-02
  6.5605706e-03
 -4.1391391e-02
  3.5044386e-03
  1.5852633e-01
 -3.5220288e-02
  4.0261984e-02
 -4.7912858e-02
 -5.4560125e-01
 -2.1213307e-03
 -1.7590743e-01
  3.7213221e-02
 -2.9431418e-02
 -9.3950182e-03
  5.1469933e-02
  1.3254298e-01
 -3.4149550e-04
  1.2798810e-01
  3.2091834e-02
  2.9123630e-03
  8.9328218e-04
 -1.8315976e-03
  6.2724869e-03
  5.1677879e-02
 -7.3133029e-02
  1.5233126e-02
  1.5487554e-02
  7.6445956e-03
 -3.6762558e-02
  7.3426561e-03
  1.4925429e-03
 -1.8530071e-04
 -1.3957120e-02
  4.8661917e-03
  5.4926634e-02
 -4.7283471e-03
  1.5101450e-03
  9.7599067e-02
  2.6632467e-01
  7.5411582e-01
 -1.9988045e-05
  2.8270793e-01
  3.8717913e-03
  3.9975997e-03
 -4.2313379e-03
 -6.5611340e-03
 -3.5693202e-02
 -6.1939657e-01
 -4.8462167e-02
 -1.3565566e-01
 -8.9424634e-03
 -1.6599057e-02
 -9.2484765e-02
  1.2177959e-02
 -1.2736727e-03
 -6.8975231e-03
 -1.1775167e-01
 -7.0790356e-01
  1.0894898e-01
  1.0295377e-02
 -1.7672097e-02
 -7.6467559e-02
  1.7921217e-01
  1.0170172e-02
 -1.8504281e-02
 -3.8710204e-03
  3.3685237e-03
  5.0710107e-05
 -4.8568393e-03
  4.1912477e-03
 -1.1131142e+00
  3.1552603e-04
 -9.5792001e-01
 -4.4074061e-04
  1.8853680e-03
  1.5715521e-03
 -4.0772157e-03
 -5.9731524e-03
  4.2445147e-03
  2.4799013e-03
 -1.9458806e-03
 -5.1465910e-04
  1.1519842e-01
  6.5128636e-01
  1.0347738e-02
 -3.6855843e-03
  2.2608275e-04
 -8.8221123e-03
  8.7719422e-04
 -9.0395585e-03
 -2.9777454e-03
  2.1336905e-03
  7.6052221e-03
  1.6782429e-02
 -4.5731303e-01
  2.7959482e-03
 -1.9226562e+00
 -9.0386812e-03
 -3.7511453e-02
  7.2539179e-03
 -8.0392826e-01
  1.5616849e-01
  1.5798949e-03
 -1.7279687e-03
 -1.2506475e-03
  1.4144515e-03
 -3.5156261e-03
  5.0056601e-01
 -5.8232564e-01
  4.7573844e-01
 -4.9712388e-03
 -4.2076865e-03
 -1.2716461e-03
  9.8150265e-01
  4.1459026e-03
 -1.0753731e-04
 -1.5958585e+00
  2.3649135e-01
  7.3942035e-03
 -8.5024184e-01
 -4.2101368e-01
  1.3808949e-01
 -1.5948257e-01
 -9.5203027e-02
 -1.1206531e-03
 -2.1643279e-02
  6.3557796e-02
 -2.5297523e-02
  2.8177878e-01
  1.4238390e-02
  1.8884513e-01
  2.9419059e-01
 -3.6391893e-01
 -3.2458311e-01
  4.2274920e-03
 -1.6957435e-01
 -5.7711573e-03
  3.0207725e-02
 -3.2767896e-02
  2.5678590e-01
  1.3600208e-03
 -9.5838465e-02
 -7.0002176e-02
  4.7520306e-03
  2.4492037e-01
  3.7220507e-03
  1.6492957e+00
 -5.6982455e-03
  9.5108145e-01
 -8.0828361e-02
 -4.1193965e-01
  1.1949667e-01
  4.9859561e-02
  8.3191298e-02
 -1.0128161e-01
 -4.0777826e-01
  9.2475228e-03
  4.6885195e-03
  3.5316110e-01
 -1.3214638e-02
 -1.8256253e-03
 -5.7508238e-03
 -4.1219941e-03
  4.9192286e-01
 -8.1404962e-02
  1.2042019e-01
 -3.8232633e-01
  3.2841891e-01
  2.9060417e-01
 -3.6386812e-01
 -5.2869248e-01
  5.4270434e-03
  1.3992862e-02
  8.3754060e-04
  2.3471653e-02
 -5.5821626e-03
 -2.1819482e-02
 -2.9399008e-01
  1.2132186e-03
  6.9549978e-02
 -6.1915920e-04
  1.0155379e-02
 -2.0188685e-03
  2.2477652e-03
 -4.8492332e-03
 -5.7460666e-03
 -1.2707980e-03
  5.3568296e-03
 -4.6918285e-04
 -7.6361792e-04
  7.2051538e-04
  8.0799470e-03
  1.5405001e-02
 -1.2776530e-02
  1.5425864e-02
 -1.2012996e-01
  2.8080654e-03
  1.5601014e-02
 -3.8801949e-03
 -1.1154406e-03
  3.3154758e-04
  3.1819642e-03
 -2.9671839e-03
 -1.7059187e+00
 -2.5951672e-02
  4.1157827e-03
  1.7876038e-05
 -1.3710102e-03
  9.0033449e-03
 -8.9138874e-04
  3.3693668e-02
 -1.1781074e-02
  5.2640894e-03
 -8.0647677e-02
 -2.2038170e-03
  3.6706835e-01
 -7.9717608e-03
 -4.6411306e-03
 -3.3457093e-02
  1.0395648e-03
  6.2865368e-03
  1.8850464e+00
 -3.0095819e-02
 -2.7645444e-03
 -7.5538047e-02
 -1.2322781e-03
 -3.5190750e-03
 -5.1803555e-02
  4.9823660e-02
  1.1014342e-03
 -1.9359047e+00
 -1.5200600e-01
 -6.3790321e-02
  3.9814830e-01
 -3.2381359e-03
 -6.4023538e-03
 -2.2926915e-04
 -3.6143726e-03
 -5.9614158e-03
  9.2003502e-02
  4.7101738e-04
  4.1754194e-02
 -4.2489752e-02
  5.6692702e-04
  3.0272910e-03
 -6.7953365e-03
  3.2993865e-03
  1.6777124e-04
  1.0798520e+00
 -2.9114360e-01
 -9.0447217e-03
  1.8000001e-01
  1.0387124e-02
  8.2828887e-03
 -6.9716205e-03
  2.5932321e-03
 -4.5479322e-03
 -8.1512350e-01
  3.1914865e-03
  4.4183997e-03
  1.9115023e-03
  1.0088712e-03
  1.0479583e-02
 -3.6308568e-02
 -2.5984065e-03
 -1.0549525e-03
 -3.5991773e-01
 -3.9577940e-01
 -3.0923267e-03
  1.6044736e-02
 -1.8079344e-03
  3.7363740e-03
 -9.9122105e-03
  3.3604386e-03
 -3.7688543e-03
  4.8921318e-03
  2.6422578e-01
 -6.2526292e-03
  1.6960751e-01
 -1.3273344e-03
 -2.7572662e-03
  7.1268231e-03
 -1.7169635e-03
  8.0763438e-04
  4.2729471e-03
  5.3916862e-03
  5.9393519e-03
  2.8448913e-03
  7.3614633e-03
  1.3431395e-02
  2.2248807e-03
  4.4952445e-03
  4.3168050e-04
  1.0050693e-02
  1.0708135e-03
 -6.0632732e-03
  5.5449205e-03
 -9.1612209e-03
  2.5806851e-03
  3.2005154e-03
  5.6944406e-03
  2.7844645e-03
 -1.4110479e-03
  2.5520965e-01
  3.2788403e-03
  8.8884281e-03
 -1.8182917e-03
  1.5829973e-02
 -1.9634077e-03
  5.1214760e-03
 -1.0427246e-03
  2.2837780e-02
 -2.4553330e-04
 -6.0506458e-03
 -1.3179975e-03
  4.9992711e-03
 -3.2097129e-03
 -6.4720045e-04
  3.1797569e-03
  2.0877281e-03
 -3.7001103e-02
  4.1329911e-01
 -2.8895359e-03
  2.0500697e-02
  3.8500631e-04
 -4.1465834e-03
  3.8580545e-03
 -1.0323064e-02
  1.3269571e-02
  6.8750814e-02
  1.2639266e-03
  1.1163427e-03
  9.9614821e-04
  6.9706813e-03
 -1.5330114e-03
 -3.5419676e-03
  4.2451667e-03
 -1.3221787e-02
 -1.8960469e-03
  9.1574140e-02
 -3.3112441e-03
  1.3306253e-01
  8.1343781e-03
 -3.8784072e-03
  1.7235869e-03
 -3.6632111e-03
 -5.3350078e-03
 -1.7778283e-01
  2.0072933e-01
  6.1351299e-01
 -1.2778258e-02
 -5.4992656e-03
 -6.0196659e-03
  8.8618938e-03
 -2.2015644e-02
 -1.2004048e-03
  3.2710791e-01
 -8.3202031e-03
 -2.4762357e-02
  2.5384927e-02
  1.6606436e-03
  1.9830590e-02
 -4.4410839e-03
 -1.0130552e-03
  4.6356265e-03
 -3.1233807e-03
  6.9767123e-01
 -4.0924098e-02
 -6.3193915e-04
 -1.0808693e-02
 -5.3449735e-02
  4.0565157e-01
 -1.5005796e-01
  1.2207855e-03
 -1.0875905e+00
  1.6501333e+00
 -2.0825764e-02
 -3.7474841e-01
  6.3406038e-03
 -1.7665951e-03
 -3.8174214e-03
  2.2412939e-03
  1.3526464e-03
  1.4182732e-03
  3.5003456e-04
  1.2185106e-02
 -3.1523444e-03
  4.6879826e-03
 -2.8526373e-02
  1.2301179e-01
 -6.6844016e-02
  2.8261129e-04
 -7.9900466e-02
  7.8292280e-01
 -6.3113511e-02
 -5.5635232e-01
 -1.0135024e-02
 -3.9718938e-03
  1.9076143e-01
  5.8101565e-03
  7.6512084e-03
 -7.0045531e-01
  9.4262891e-02
 -4.7131248e-02
  2.9032829e-01
  7.1535413e-03
 -2.0876932e-03
 -1.8370985e-03
 -4.2653859e-02
 -3.6169272e-03
 -1.8899341e-03
  5.5831879e-01
 -6.5858131e-03
 -5.8785880e-01
  1.5012511e-02
 -7.3623303e-03
  1.8015447e-01
  3.4198062e-03
 -1.0995623e-02
 -2.6541715e-03
 -3.3956340e-01
 -4.5182404e-01
  2.6378691e-01
  5.8402529e-04
 -2.3565127e-03
  5.8271073e-02
 -1.3754913e-01
 -3.5604157e-03
  5.2738535e-01
  6.5896624e-01
  6.2253982e-02
 -5.0401837e-01
  1.3916136e-04
 -5.0948572e-04
 -7.6728943e-03
  8.5975777e-04
  1.0916324e-03
 -5.6834631e-02
  1.0092135e-02
 -2.4932131e-01
 -1.5398912e-02
  1.6735118e-03
  6.1136396e-03
  3.7398195e-01
 -3.1885579e-02
  3.9586384e-04
  1.1589251e+00
  2.7868855e-01
 -5.2071345e-01
 -3.1613849e-02
 -6.9153118e-03
 -1.3792525e-02
 -1.1425817e-03
 -3.0098548e-03
  1.1523647e-02
  1.0446236e+00
  3.4246996e-01
 -1.8171526e-02
 -1.4496657e-01
 -4.1253315e-03
  1.1733777e-03
  1.8675859e-01
 -9.8340353e-03
 -6.0339021e-03
  2.3250420e-02
  6.9444247e-02
 -3.1475838e-02
  3.4973384e-03
  7.8461338e-03
  2.5683674e-03
 -6.0174633e-03
 -6.9324216e-03
 -4.7916360e-03
 -3.8572278e-02
  2.5416096e-03
 -1.2681399e-01
 -1.1547477e-02
  3.5029256e-03
  5.5945393e-02
  3.3137067e-03
 -5.1758913e-03
  1.2235405e-02
 -6.2798294e-03
  8.7644598e-03
 -4.9958355e-03
 -3.0987950e-03
 -1.7141828e-02
 -1.5807109e-02
 -6.3056382e-04
 -6.2449686e-03
  3.2887158e-03
  9.4766496e-05
 -1.0279792e-02
 -3.6271822e-02
 -8.3764298e-03
 -7.2748894e-03
 -9.8437758e-04
  1.1299690e-04
 -1.1296327e-03
 -1.1369786e-02
 -2.5244277e-02
  6.9052756e-02
 -4.8913047e-01
 -3.8518826e-03
 -3.4611209e-03
 -1.4476827e-02
 -2.3741140e-03
 -8.4004290e-03
  4.4605960e-03
 -3.0875606e-03
 -4.7486816e-03
 -1.4378743e-03
 -1.9494841e-02
  6.9191435e-04
 -1.0627338e-03
 -2.0244898e-02
  7.8958925e-04
  1.3928257e-02
 -4.1415483e-02
  3.5677418e-01
 -2.9068852e-02
  9.8019689e-03
  2.9288125e-03
 -4.7481884e-03
  1.3740169e-03
 -1.0348762e-03
  4.2930618e-03
 -1.8121731e-02
 -5.0822180e-03
 -3.9534980e-01
 -1.7464890e-01
  5.8166552e-03
  8.1153656e-04
 -5.4100421e-03
  2.7616881e-04
 -9.6410206e-03
  1.6641609e-02
 -1.5947223e-02
  1.1490375e-02
  2.1729486e-02
 -1.0332063e-02
 -7.2947987e-03
  2.9249699e-03
 -9.1526110e-04
  8.5159224e-03
 -9.5205176e-01
  8.3019845e-02
 -8.2976317e-01
 -3.3211540e-02
 -3.2504626e-02
  8.2867756e-04
  9.3027251e-04
 -1.1867720e-02
 -2.6518153e-03
  5.2430815e-01
 -2.1424618e-01
 -1.7011137e-01
 -6.4236820e-02
 -9.9157188e-03
 -2.2325469e-02
 -2.8349248e-01
 -5.4036700e-03
 -4.6675513e-04
 -1.7230950e-02
  5.3943783e-01
 -1.3080841e-03
  7.3470928e-02
  2.6796497e-03
  7.7609159e-02
  3.1954846e-01
  6.2386882e-02
  5.7756808e-03
  2.9603623e-02
  2.3378865e-01
 -1.3011892e-02
 -1.5423383e-01
 -4.8035230e-03
 -6.1158082e-03
 -1.0388774e-02
  1.3216779e-03
 -5.5489624e-03
  2.1927233e-05
  3.6590602e-03
 -8.2653016e-03
  1.6886581e-03
  1.0566632e-03
  6.3471988e-02
  2.7142942e-01
  4.4001028e-02
 -3.6240788e-03
 -6.0699391e-04
  1.2259283e-03
 -9.0485380e-04
 -4.4958875e-01
  5.4059196e-03
 -1.2550693e-02
  3.9645314e-01
 -2.3805164e-04
 -1.5384539e-03
  4.0609196e-02
  5.9959390e-03
 -3.6154599e-03
  2.8555575e-01
 -7.9541383e-03
  6.6141874e-02
  2.8198570e-02
  8.3017640e-02
  9.9876011e-04
 -1.9153969e-03
  1.6822653e-02
  1.8339365e-03
 -1.0558545e-01
  9.7417729e-03
  8.9583732e-03
  5.5225849e-01
  1.4979252e-02
  2.5003669e-03
  5.0357246e-01
 -6.5407529e-03
 -6.3469321e-02
 -1.1763713e-02
  5.5169491e-03
  1.0641998e-02
  1.6444254e-01
  7.9920553e-03
 -2.5609981e-03
  2.0707708e-03
  7.1665041e-02
  4.5553868e-04
  1.6113844e-02
  3.3844081e-03
  2.5022700e-02
 -5.0268000e-01
  4.8350776e-04
  2.5258162e-03
 -6.7602843e-04
  1.7264141e-03
 -2.1084387e-02
 -2.7155036e-01
 -2.6888123e-03
 -8.1192609e-03
  6.1280072e-01
 -4.5114923e-03
  3.5760957e-03
  4.5698997e-01
  1.9843832e-01
  8.5852668e-03
  1.3703610e-01
 -1.4457001e-03
 -7.8889513e-03
  1.1822487e-01
  1.7926160e-02
 -4.0846476e-03
 -6.5126933e-02
  5.8131111e-01
  3.5490510e-01
 -1.5409832e-01
 -6.6109742e-03
  2.3077872e-02
 -1.8851822e-03
  2.2185294e-02
  1.0922262e-03
  1.6595902e-01
 -4.6213161e-02
 -1.8270093e-01
 -2.7315199e-01
 -1.4573368e-03
 -7.9880422e-01
  1.8984580e+00
 -8.8206959e-01
 -6.3827564e-03
  5.7597870e-01
  1.0967135e+00
  2.3632712e+00
 -8.6747676e-01
 -2.3298890e-03
  2.7977391e-03
  5.5521862e-03
 -8.0631739e-03
  2.2311609e-03
  3.8357624e-01
 -1.0151912e-03
  1.5763758e-02
 -6.5456582e-03
 -3.4697342e-03
 -6.6153115e-01
  3.0620638e-01
 -8.9374417e-01
 -8.1716885e-04
  2.8840283e-01
  1.0511558e+00
  6.3647931e-03
 -9.8350686e-01
  3.5400572e-03
 -1.5070819e-02
  5.0345373e-01
 -7.0946906e-03
  2.7550098e-03
  9.7250700e-01
 -1.9758286e-01
  9.8315793e-01
 -9.6726686e-02
 -7.3513030e-03
 -5.1523739e-01
  1.2072768e+00
 -8.0657595e-01
  3.8724027e-03
 -8.7302484e-02
  8.9656448e-01
 -6.6325678e-03
 -3.0116844e-01
 -4.4077495e-03
 -2.0520804e-02
 -3.6284152e-01
 -3.0709228e-03
 -3.0765689e-03
 -9.2872572e-01
 -1.0516410e-01
  1.5374009e-01
  3.1068084e-01
 -2.3654858e-03
 -3.3796811e-01
 -1.3333811e+00
 -6.9357795e-01
  2.3396695e-03
  1.0989403e+00
  4.8392636e-01
  1.2699575e+00
 -9.6495992e-01
  6.3688061e-03
 -2.7267456e-01
 -4.2386198e-01
 -1.9798798e-03
 -5.6425147e-03
 -6.7868555e-01
  1.0745223e+00
 -2.7873603e-01
 -5.5760741e-01
  1.2804394e-02
 -2.1811029e-01
  2.2280677e-01
 -6.1289704e-01
  7.0306920e-03
  1.9023077e-01
  2.7718922e-01
  1.2771552e+00
 -1.4127032e-01
 -4.7119637e-04
 -2.5284258e-01
 -3.4055686e-01
 -1.5684833e-01
 -5.3213444e-06
  2.5834370e-01
  1.9588324e-01
  8.9243376e-01
 -2.9830251e-02
  5.3621689e-03
 -1.8610209e-01
 -5.9784555e-01
 -4.3569112e-01
 -2.4062498e-04
  1.1199256e+00
  4.7466561e-02
  9.3348312e-01
 -3.0524749e-01
  2.8341743e-03
 -8.9386366e-02
 -3.4164351e-01
 -1.8871766e-02
 -4.8736478e-03
  2.8629822e-01
 -6.2032521e-01
 -1.8014095e-03
 -2.5061831e-01
  1.3122571e-04
 -2.4876464e-03
 -5.3566489e-03
 -5.7958928e-03
  3.5316977e-03
  4.7607748e-03
 -4.0133775e-05
 -5.0048660e-03
  2.9018766e-04
  1.4869667e-03
 -1.5023795e-01
 -5.9007399e-02
 -4.3163211e-03
  9.9297706e-03
  3.5541266e-02
 -6.4190602e-01
 -3.4610156e-03
 -7.5696714e-02
  3.6150590e-03
 -2.0921092e-02
 -1.5823326e+00
 -1.0882793e-03
 -1.5976986e-02
  1.4249529e-01
 -5.9698690e-02
  4.8870053e-02
 -5.8965076e-02
  1.2470428e-02
 -1.5950622e-02
 -1.6245544e-02
 -2.8995043e-03
 -1.8891166e-03
 -6.0454858e-03
 -2.8493538e-01
  3.7741590e-02
 -8.7643927e-03
 -5.9134727e-03
 -2.2202025e-03
 -6.7103796e-02
  5.4851989e-04
 -1.2248301e-02
  2.7444652e-01
 -2.6973701e-01
 -1.1590844e-02
 -3.7759414e-03
 -2.0249875e-02
 -7.3780497e-03
 -3.3560815e-01
  6.9340732e-04
  7.1618324e-03
  2.0942494e-01
 -8.7298211e-03
 -4.8544151e-03
 -3.0975825e-01
  1.2409916e-02
  4.0918356e-04
 -3.5916374e-03
 -6.4985189e-03
  5.1956754e-03
  2.5501716e-01
 -5.1536405e-01
  5.2473610e-03
  6.4651847e-02
  4.4603655e-03
 -7.6492699e-03
 -7.6991397e-01
 -1.9382473e-02
  1.5027154e-03
  9.7508734e-01
  1.9882948e-03
 -2.5723446e-02
 -4.1384903e-01
  1.9873200e-02
 -1.2134803e-02
 -4.7136673e-01
 -7.2158659e-03
 -3.8700285e-03
  4.2540061e-01
 -1.1801038e+00
  2.3946252e-01
  7.3839081e-03
  9.7389740e-05
 -1.3259503e-03
  6.2444246e-01
 -4.1159699e-04
 -2.8687506e-03
 -5.6656646e-03
  1.0589521e-01
 -3.4747925e-03
 -2.6236379e-03
  1.2076088e-03
  1.7281713e-02
 -2.2820359e-02
  4.4509326e-03
  2.4949179e-03
  5.0385344e-01
  4.7960076e-02
  9.3457170e-02
  1.1882634e+00
  2.8556343e-03
  1.2694857e-03
 -7.9666525e-03
 -1.1446816e-02
 -6.6032233e-03
 -2.5498227e-03
 -9.8784454e-03
 -9.7970851e-03
  7.8374967e-03
 -5.7742670e-03
  5.0965324e-03
 -5.3303237e-03
  2.9602814e-02
 -5.8790052e-04
 -6.7398604e-03
  1.0847107e-02
  2.4226273e-03
  7.9712588e-01
 -1.5141816e-03
  3.5079033e-03
 -2.4003668e-03
  3.1007507e-03
 -4.8883948e-03
 -9.0931255e-01
  4.1319649e-03
 -3.7612531e-01
  3.3173808e-03
  2.4297568e-03
  7.2266813e-03
 -1.1162916e-03
  4.0326931e-02
  3.8560806e-03
  4.8106269e-04
  3.2341732e-03
  5.6366331e-04
  6.0490108e-01
 -9.0519199e-03
  1.1784190e-03
 -1.0675859e-02
 -2.5335653e-03
 -1.3767676e-02
  5.7927985e-02
  4.0299026e-03
  2.2121035e-01
  1.6079083e-01
  1.6402727e-03
 -4.0153367e-03
  2.0826315e-03
  1.2223690e-02
 -2.6091211e-03
 -1.2321683e+00
 -7.3333220e-03
 -7.0352880e-03
  3.1680197e-01
 -2.3424415e-02
  1.2129928e-02
 -9.3609598e-03
  1.9238291e-03
  3.2062321e-03
  1.6174171e-02
  6.4781398e-02
  5.4521346e-04
  4.1092131e-01
 -1.4443095e-03
  8.1831701e-03
 -9.0773618e-03
 -4.4264505e-03
 -3.7303283e-03
 -8.3089709e-02
 -2.0257588e-03
  2.6762931e-02
  2.3002651e-01
  6.3554258e-03
  3.4304489e-03
 -2.3540407e-03
 -3.0449899e-03
  5.6250142e-03
 -2.9518813e-01
  9.1096703e-03
  9.6428610e-04
  4.6483371e-01
  5.5668731e-03
  6.5611904e-03
 -1.8320741e-02
  2.6027285e-02
  1.5329705e-03
 -6.6540115e-02
 -5.0105099e-02
 -9.8091271e-03
  1.5194820e-01
  2.7733780e-03
  6.8034264e-03
 -3.6517030e-01
 -1.3425659e-03
 -2.0419499e-03
  2.9318541e-01
 -2.7902329e-01
  3.8075408e-01
  3.2351140e-03
 -1.6659107e-03
  1.2404702e-03
  1.8049864e-02
 -1.7143413e-03
  3.3549180e-03
  2.7458582e-03
 -2.7268992e-03
  1.8382976e-03
  2.1861233e-03
 -1.7136687e-03
 -1.4335975e-02
  2.5492248e-03
 -2.7110483e-02
 -5.0193947e-03
  3.6118831e-03
 -3.6989082e-02
  4.1128155e-02
  7.7771717e-01
 -2.2789007e-03
 -3.7413603e-03
 -1.4187892e-02
 -4.0648011e-03
  4.5519592e-03
 -6.0741419e-01
 -6.7744941e-02
  1.4465089e-01
 -4.6538045e-03
 -6.1911107e-03
 -1.0183833e-02
 -7.8266673e-03
 -5.5623788e-04
 -3.3667407e-03
 -2.2362904e-03
  2.2229590e-03
  2.1038927e-02
  8.9392495e-01
  1.0338393e-03
 -1.6365864e-03
 -9.0895638e-02
  1.4641160e-03
 -1.8293042e-02
  7.3103473e-02
 -3.8893614e-02
  2.1432213e-01
 -1.4505179e+00
  1.4832895e-04
 -1.7881183e-02
 -2.9202905e-01
  1.3471633e-04
 -1.9687308e-02
  1.4533482e-01
 -8.2885817e-02
 -4.2525533e-01
  3.1166938e-01
  1.3822239e-03
  9.4411280e-03
  1.8171687e-01
 -1.6903159e-03
 -2.5414429e-03
 -7.6586468e-04
  2.6781362e-02
  1.5898728e-01
  1.5297461e-01
  6.3165734e-03
 -1.4712268e-02
 -2.3167230e-01
  1.3405883e-03
  1.1040131e-04
  2.2066499e-01
 -9.8602697e-03
  1.8635650e-01
  6.1289323e-03
 -2.8116624e-03
 -2.7515559e-02
 -4.5004670e-02
 -3.2185204e-03
  1.0298160e-03
 -8.7334603e-01
 -1.4396209e-01
  3.8586399e-01
  4.1754225e-01
 -2.8004590e-04
  1.0466445e-02
  2.1822400e-01
 -2.6195343e-03
  1.3567462e-03
 -1.0319793e-01
 -1.0433739e-01
  4.5508568e-04
  5.7395232e-01
  1.1736037e-03
 -9.1438442e-03
  7.6572400e-01
 -7.6438147e-03
  1.2766405e-03
 -9.2021417e-04
  8.7073022e-01
 -7.1047860e-01
 -8.5707754e-04
 -1.4530622e-03
  3.1989494e-03
 -2.7183245e-04
 -3.6167866e-03
  3.1699317e-03
  5.1349951e-03
 -2.9737811e-04
 -4.6679258e-01
  4.5605348e-03
  4.2024354e-04
  1.2799011e-03
  4.4663036e-01
 -1.3783025e-03
  1.2271265e-03
  5.6447056e-03
  7.2364926e-02
 -5.2580374e-01
  4.1165511e-04
 -1.0751714e-03
 -1.0199813e-02
  7.1455538e-01
  6.5650884e-04
 -1.3200007e-03
  1.5026281e-02
  4.0506348e-02
 -6.0318977e-01
 -8.7373629e-03
 -1.2973747e-03
  5.1843044e-03
 -9.7080285e-04
 -6.1259987e-03
  2.1890101e-03
 -7.6956307e-03
 -3.0404785e-01
 -4.0656785e-03
  2.4200618e-02
  8.9468504e-04
 -2.1508047e-02
  1.3927215e+00
 -8.1969693e-04
 -5.3558988e-04
 -4.4628999e-01
  1.5657507e-01
 -1.1691578e-01
 -3.3308715e-03
  2.2687479e-03
  1.8611716e-02
 -2.0621521e-02
 -5.4654661e-03
  4.1396497e-03
 -2.0893519e-03
  1.3870389e-02
 -2.9373220e-01
  1.1853740e-02
 -8.0720773e-03
 -6.6453447e-03
  2.0467375e-01
  3.2045837e-03
 -3.0940007e-03
 -3.7125844e-04
 -1.3206518e-01
  3.1532648e-01
 -3.4414202e-01
 -3.1977382e-03
 -4.9977126e-03
  8.2326859e-01
  1.2564622e-03
 -2.0773183e-03
  2.2833241e-02
  1.0159925e-01
  7.3457405e-02
  8.4411226e-02
  1.7453574e-03
  2.3637023e-03
  4.4457498e-03
  2.6510812e-03
 -4.6496848e-03
 -1.3044669e-03
  8.7298704e-03
 -5.3369129e-01
  1.7146027e-02
 -8.2800500e-03
  3.2838804e-03
  8.0896150e-03
  5.5618999e-03
  9.9705886e-03
  7.9409406e-03
  1.1758327e-02
 -9.9859722e-03
 -8.2386948e-02
  8.5197557e-03
  5.3276410e-03
  3.9131846e-04
 -1.1047250e-02
  1.0204492e-03
 -1.5646666e-02
  1.6281767e-02
 -1.3346670e+00
  3.4966223e-02
  1.8635284e-02
 -2.3006238e-03
 -1.6812274e-02
 -1.1197786e-03
  6.2749041e-03
  1.2872349e-03
  4.5556676e-02
 -4.2038009e-01
 -6.6679693e-04
  2.7222587e-03
 -4.3114997e-05
  1.9637679e-03
  1.1636510e-02
  7.8430558e-03
  1.5741335e-03
  5.4900637e-03
 -4.0578732e-01
  2.6728434e-03
 -1.3972900e-03
 -6.0035149e-03
  6.9233226e-03
 -5.2917880e-05
 -5.9888996e-03
  9.6406870e-02
  3.2015149e-02
 -1.1575117e+00
  2.9141624e-02
  2.1751968e-02
  1.8448159e-03
 -5.5067008e-03
  1.5087711e-02
 -3.2059639e-04
  3.9008444e-03
 -3.0511303e-03
 -2.0625025e-01
 -6.1759003e-04
 -2.1928989e-03
  6.3701281e-03
 -1.1530071e-03
  6.5194513e-03
 -2.0874580e-03
 -9.8024178e-03
  8.8809403e-03
 -8.9470840e-01
  1.1618423e-01
  6.2685285e-04
  1.5801823e-02
 -2.3089971e-03
 -1.2146269e-03
 -4.8259166e-03
 -5.2387202e-03
 -7.7962875e-04
 -1.2580496e-01
 -1.2365134e-02
 -4.0756757e-03
  2.1867172e-03
 -9.9394005e-03
 -6.6995914e-03
 -6.6660959e-03
  1.1275259e+00
 -2.3821424e-01
 -7.0526516e-01
  1.0290346e-02
 -1.9386453e-03
  1.8990149e-03
 -2.0308839e-03
  9.1342833e-03
 -4.1640676e-03
  9.2705041e-03
  3.0928734e-03
 -3.0249989e-02
  3.8971598e-03
 -2.0731706e-05
  1.8418240e-03
  1.4371893e-02
 -3.1475781e-03
 -1.8482008e-03
  6.9361001e-01
 -2.1372975e-01
  1.1226490e+00
  2.4444924e-04
 -2.3705792e-03
 -2.6404397e-03
  9.3404856e-04
  4.9907500e-03
  6.2176958e-04
  2.0244469e-01
  7.3505621e-03
 -1.5931888e+00
 -3.7119118e-03
  2.0654798e-03
 -1.5362861e-03
 -6.9723250e-03
 -1.3372683e-02
 -5.2385284e-03
  6.1736560e-01
 -1.1851753e-01
  6.1532883e-03
  9.7224936e-03
 -4.7953008e-03
 -8.4536122e-03
  3.8479618e-03
  1.2177849e-02
  1.0218327e-02
  1.4311832e+00
 -1.7774636e-02
 -1.0194749e+00
 -1.2089943e-02
 -9.5368130e-04
 -5.1356233e-03
 -4.7874008e-04
 -5.2399719e-03
  2.2433170e-03
  8.4754300e-01
 -6.4226978e-02
 -8.3252448e-01
 -1.8778595e-03
  2.6564132e-03
  1.9763692e-03
  5.8145211e-03
  3.6097351e-03
  4.5072562e-03
  1.9131701e-01
 -6.0158628e-03
 -3.8758684e-02
 -3.6661614e-02
 -3.5636011e-03
 -1.4544379e-03
  1.1953942e-02
 -9.8541854e-03
  7.5523537e-03
  2.0929837e-01
  9.9338312e-04
 -1.4048921e+00
 -1.0254029e-03
  7.4601597e-03
 -5.0463271e-03
  5.0211791e-03
 -7.0045679e-03
 -5.4901200e-03
 -5.6336439e-01
 -4.7609082e-01
 -2.4152628e-01
  4.6593538e-03
 -1.4293159e-02
  5.7558771e-03
 -4.3090060e-03
  2.5315108e-03
  3.6782096e-04
 -6.3945842e-03
  8.9645945e-04
  9.4483187e-03
  2.0902096e-03
  2.9393660e-02
 -6.9038558e-04
 -1.9609514e-03
  5.7734177e-04
  4.0063285e-03
 -9.3354172e-01
 -5.1453495e-01
 -5.7583117e-01
 -1.5863664e-02
 -9.7469222e-03
  2.4231193e-03
 -3.8317381e-04
  3.8137236e-03
 -1.7514791e-04
 -4.4165868e-03
  5.6770318e-03
  4.5661598e-01
  7.4938638e-05
  5.6841709e-03
 -1.7168844e-04
 -6.9144806e-03
  6.1780550e-03
  3.9380365e-03
 -2.9286343e-01
 -6.1605018e-01
 -8.1789404e-01
 -5.3459384e-02
  4.7385157e-03
 -2.8639296e-03
  1.0743388e-04
 -1.1759587e-02
 -3.4505851e-03
 -4.9407241e-01
 -3.2509008e-04
  4.0578532e-01
  5.9252358e-03
  3.5096987e-03
  1.7997769e-03
 -8.6670220e-03
 -3.9888374e-03
  8.1146378e-03
 -9.7839767e-01
 -4.1661218e-01
 -3.3557385e-02
 -5.3889528e-02
  2.2666425e-02
  4.4078631e-03
 -5.8812452e-03
 -2.8200536e-03
  1.6947088e-03
  2.6662672e-01
 -3.7786227e-03
 -6.7862546e-01
  7.4624000e-03
 -1.6300458e-02
  3.3598411e-04
 -7.3054642e-03
  1.3066125e-01
 -1.6097653e-03
 -8.1174004e-01
 -3.2913384e-01
  9.5413613e-01
 -6.2001754e-02
 -1.7526876e-03
 -5.0529311e-03
 -6.7432667e-03
  6.3486147e-04
  4.1783578e-04
 -1.2354282e-02
 -2.4393196e-01
  2.9249077e+00
 -1.2283741e-02
  6.3121971e-03
  5.3581111e-03
 -7.1990662e-03
 -9.0383571e-03
 -6.0856957e-03
  6.9096801e-03
  9.3126553e-05
  2.1313418e-02
  5.2986457e-04
  1.9642881e-03
 -2.3701251e-03
 -5.4234457e-03
 -6.5611978e-04
 -5.1226385e-04
 -3.6164036e-04
 -1.5743141e-01
 -2.4224439e+00
 -7.7026570e-03
  4.9661230e-03
 -2.4925724e-03
 -1.8412195e-04
 -1.6637053e-04
  8.3277412e-03
 -9.8256925e-03
  7.9769711e-04
  8.1506416e-02
  1.2263050e-03
  1.1637085e-02
  3.5133217e-03
 -3.2117271e-03
  2.2590577e-03
  2.7422758e-03
  4.8136400e-04
 -1.1380307e-01
 -4.3453792e-01
 -2.6196998e-02
  4.8229941e-03
  8.2389452e-06
 -3.9646775e-04
 -7.0714334e-04
  5.4347101e-03
 -1.8615943e-01
  3.2310886e-04
 -2.8895566e-01
  1.3121067e-02
 -6.2623015e-03
  6.8741515e-03
 -6.2736128e-03
 -1.3725888e-03
 -3.9535640e-03
  1.7922403e-01
 -1.5226239e-01
  3.5718265e-01
 -2.3890467e-02
  4.3961396e-03
 -1.1087959e-02
 -2.4004022e-03
  2.1671792e-03
 -3.5808645e-03
 -5.2447313e-01
  8.5810181e-03
  7.6594800e-01
  3.4878705e-02
  2.7784747e-03
  1.0174669e-03
 -7.0598070e-03
  1.4213276e-03
 -3.5836354e-03
  2.0180153e-02
 -1.3826023e-01
  7.2513562e-01
 -9.5255598e-02
  1.0207736e-01
  1.0207736e-01
  1.0207736e-01
  1.0207736e-01
  1.0207736e-01
  1.0207736e-01
  1.0207736e-01
  1.0207736e-01
  1.0207736e-01
  1.8611343e+00
  1.8611343e+00
  1.8611343e+00
  1.8611343e+00
  1.8611343e+00
  6.1215615e-01
  6.1215615e-01
  6.1215615e-01
  6.1215615e-01
  6.1215615e-01
  4.3777844e-01
  4.3777844e-01
  4.3777844e-01
  4.3777844e-01
  4.3777844e-01
  9.6223883e-02
  9.6223883e-02
  9.6223883e-02
  9.6223883e-02
  9.6223883e-02
  1.6941488e+00
  1.6941488e+00
  1.6941488e+00
  1.6941488e+00
  1.6941488e+00
