nep3 1 C 
cutoff 4.5 4.5 48 48
n_max 8 8
basis_size 12 12
l_max 4 2 0
ANN 50 0
  3.8697086e-02
 -6.9362618e-02
  1.0592761e-03
 -9.3009964e-02
  8.6890254e-04
 -1.4293103e-02
  7.4905336e-02
 -5.4266248e-03
 -3.0810500e-03
  6.1948970e-02
 -9.8409820e-03
  2.2682864e-03
 -5.8473041e-04
 -4.8282720e-02
  5.6508407e-03
 -3.7954178e-02
 -9.1274604e-03
  1.7871039e-02
  1.2043784e-02
  3.0342615e-01
  5.6233175e-02
 -2.9501617e-03
 -3.7506956e-03
 -7.0190947e-03
  1.0144874e-03
 -6.9621135e-03
 -7.1917988e-02
  7.6936565e-02
 -3.0384723e-02
 -5.0142813e-03
  5.3047754e-02
  2.0346600e-03
  2.0725060e-02
  8.1239909e-02
 -2.3640871e-01
  8.8318186e-03
 -3.4362951e-03
  4.5422424e-02
  6.8185635e-02
  5.0931793e-02
 -8.8287778e-03
 -2.7657114e-04
  3.2363525e-03
  4.4955872e-02
 -5.1299572e-02
 -1.4923388e-02
 -3.1646192e-02
  2.5915619e-02
  5.5519067e-02
 -2.7214192e-02
  1.7342806e-02
  6.0211495e-02
  2.1283612e-02
  6.9406398e-02
  9.0080434e-03
  6.3737690e-02
 -5.9779473e-02
  6.6737153e-02
 -8.5051805e-01
 -1.6146779e-02
  1.6377747e+00
  6.8355119e-01
  2.3594646e-02
  8.4813431e-02
  1.5552412e-01
  1.5177113e-02
  1.7339097e-01
 -2.9331882e-02
  4.9530786e-02
  8.6816974e-02
 -5.0738030e-03
  9.2784151e-02
  2.8174168e-01
 -2.4515580e-02
  3.3135942e-01
 -7.7403891e-03
 -3.4204346e-01
 -1.7329952e-02
  7.8006983e-02
 -4.1905828e-02
  5.2518714e-03
 -4.8227933e-01
 -1.0340279e-01
 -6.9387239e-01
 -6.1113916e-02
 -7.1590638e-01
 -3.6271173e-01
 -4.1357160e-01
 -4.1100629e-02
 -2.3210665e-02
 -1.3692206e-01
 -5.3339001e-02
  1.6254919e-02
 -1.4932850e-01
  1.5625991e-01
  4.7220723e-03
 -1.2211249e-01
 -8.6758025e-02
  3.3499160e-01
 -4.2488772e-02
 -4.3996610e-02
 -6.2269706e-02
 -1.1177456e-02
 -4.4355810e-02
  2.6617590e-03
 -1.6041899e-01
 -1.4423503e-01
  6.7214139e-02
  2.2341618e-01
  3.0257782e-02
  4.1443978e-02
 -7.0130154e-02
  3.1549895e-01
  2.3345416e-02
  4.8966885e-01
 -2.6141790e-01
  7.0908461e-03
  4.6841051e-02
  2.3477911e-03
 -1.2023892e-01
  8.0186939e-03
  1.9108379e-02
  8.3363615e-02
  9.8508008e-02
 -4.3392545e-03
 -6.7359187e-02
  3.6142524e-02
 -6.5382212e-02
 -5.4116704e-02
  1.8000072e-02
 -1.2486605e-02
  1.5006421e-02
 -2.7474478e-01
 -5.1858544e-02
 -7.8798108e-02
  3.0283991e-02
 -3.5442298e-03
  3.0022563e-02
  2.4278307e-01
  1.2088059e-02
 -1.4932170e-02
  3.4077376e-02
 -2.4302842e-02
 -1.1313948e-01
  9.9161780e-03
  3.8159505e-02
 -2.4967438e-03
 -4.6320245e-01
  3.9664369e-02
 -2.4250649e-02
  6.4687133e-02
  5.8014989e-02
  4.5065051e-03
  4.1488741e-02
 -7.6143546e-03
 -5.0753551e-03
  8.4907979e-02
  4.0141422e-02
  5.5954931e-03
  2.9364569e-02
 -6.2895417e-02
 -2.3593746e-02
  6.6512084e-01
  1.4988261e+00
 -1.9159971e+00
 -2.2435719e-03
  1.3205792e+00
 -3.3850855e-01
  1.4298763e+00
  5.7024097e-01
 -2.5699610e-01
 -1.5068616e-01
  1.9518423e-01
  1.1693513e+00
  2.9263526e-01
  1.6619726e-01
 -1.3481353e-02
  1.2064438e-01
  2.7000556e+00
  1.1606227e-01
  3.2061625e-02
  1.0470189e-02
  2.1470182e-02
  3.5961667e-01
 -8.8463914e-01
  5.3801150e-03
 -1.4360081e-01
  1.1023921e+00
  5.4927621e-02
 -6.4752275e-01
  5.8917177e-01
  8.1236756e-01
 -3.2766986e-01
 -1.4586915e+00
 -1.0051271e+00
 -1.0253628e-01
 -1.2636409e+00
 -7.6544404e-01
  1.8598076e-02
 -9.6839100e-02
  2.5493031e-02
  1.4750718e-01
 -2.9733241e-01
 -6.7895189e-02
 -1.1833403e-02
 -7.0848763e-02
  4.1728474e-02
  9.1621364e-03
  1.5270728e-02
  9.9119842e-03
 -7.8950245e-03
 -7.8183424e-01
 -2.1882318e-03
 -2.2044411e-02
 -1.1255893e+00
  6.2099402e-03
  2.6047086e-02
 -4.1077328e-03
 -8.7501489e-02
 -2.7809193e-02
  4.6115066e-04
 -2.2457512e-03
  6.1621472e-02
  5.4337420e-02
 -2.2456052e-02
  5.6950405e-02
 -9.0405837e-02
 -2.4332616e-02
  1.1845869e-03
 -2.5583776e-02
  2.9801769e-02
 -2.0788219e-02
 -5.5963393e-02
 -1.0179933e-01
 -2.2365741e-02
 -2.5758887e-02
 -7.3037744e-02
 -3.7037437e-03
  1.5037899e-01
 -6.0496684e-02
 -1.4752638e-02
 -9.0388972e-03
 -2.0564985e-03
 -4.4273391e-02
  3.7711557e-02
 -3.0990560e-02
 -2.4910627e-02
  9.5867440e-02
  1.5129539e-02
 -1.5292000e-02
  5.2999016e-02
  1.0924175e-01
  2.4509609e-02
  9.5223179e-03
 -4.7724647e-03
 -1.2743875e-01
 -5.0910530e-03
 -1.6077543e-02
  7.1726618e-03
 -2.6904622e-02
  2.8500609e-02
 -3.3384416e-01
 -8.1251375e-05
 -8.0900200e-02
 -1.3419589e-01
 -1.2890264e-02
  1.1267967e-02
  2.7537420e-02
 -5.9456360e-03
  8.9547545e-02
 -4.6148115e-01
  4.9189708e-01
 -1.6451360e-01
  2.1642652e+00
 -4.8590398e-01
  9.7059989e-01
 -1.5741602e+00
 -3.7676930e-01
 -1.9479166e-01
 -6.2805754e-01
 -1.5624579e+00
  1.1723899e+00
  2.6912636e-01
  2.5785005e-01
  6.7150034e-03
  9.7367033e-02
  3.9698514e-01
 -9.2130385e-02
 -1.3070391e-01
  9.7595483e-01
  2.6557637e-02
 -1.2869153e+00
 -1.4227573e+00
  1.3210694e+00
  8.9852601e-02
 -1.0942831e-01
 -6.6426778e-03
 -3.6090732e-01
 -2.1203997e+00
  1.2260686e+00
  2.5729675e+00
  8.7892777e-01
 -3.2705188e-01
  2.0213168e+00
 -3.2622889e-01
  1.1078460e+00
  1.3812789e+00
 -1.5112933e+00
 -5.1527178e-01
  1.7329527e-01
 -5.9281313e-01
  2.5617096e-01
  6.4928150e-01
 -6.6822827e-01
  1.7992440e-01
 -1.0410023e-01
 -1.1330761e+00
  1.6407664e-01
 -5.6810811e-02
  2.9194880e+00
 -1.0010521e-01
 -2.1301684e-01
  2.4129926e-01
 -4.0589479e-01
 -6.6539657e-01
 -3.2802364e-01
  6.7644644e-01
 -4.7246352e-01
 -8.4238058e-01
  2.7020841e-03
 -5.4000026e-01
 -5.0450289e-01
  7.0243722e-01
 -2.4315274e-01
  4.3799002e-02
  2.0336214e-01
 -5.1680076e-01
  3.8021453e-02
  3.9741859e-01
 -2.1090838e-01
  1.2279399e-01
  8.2490876e-02
 -8.3194876e-01
  4.2176735e-02
 -1.8571702e-01
  1.3900024e-01
  2.7558114e-02
  1.0840389e+00
  5.5693680e-01
 -1.9265676e-01
  1.1122781e-02
  1.2082259e-01
 -1.8222082e-01
  8.1553537e-01
  5.1102835e-01
  1.0146030e-01
  5.8424473e-01
  4.6002874e-01
 -1.9807817e-02
  8.8739663e-01
 -2.2896007e-02
 -1.1170401e-01
 -2.5176522e-01
  5.6565052e-01
  6.9793993e-01
  1.3246178e-02
 -1.8080810e-01
 -1.3849966e-01
  1.8977247e-01
 -2.7885070e-02
 -1.5045953e-01
 -3.9451369e-03
 -3.8921241e-02
 -7.5490765e-02
  1.0632914e-01
  3.7333213e-02
  2.0390818e-01
 -2.4582724e-01
  1.7396939e-01
 -2.2366686e-01
 -3.4468405e-02
 -1.7671524e-01
  9.3015188e-01
  2.3152966e-02
  6.5558147e-01
  1.1842247e+00
 -2.8709869e-03
  1.8843748e-01
  2.7387448e-02
  1.8301356e-01
  1.6479689e-01
 -6.5803044e-02
  5.5713017e-02
  3.8145378e-02
 -1.8177883e-01
 -1.1263727e-01
 -6.4901620e-02
  2.0366367e-02
 -5.0597940e-02
  1.3439703e+00
 -7.8949016e-01
  4.4185907e-02
  8.5945874e-02
  1.7950846e-02
  3.6818791e-02
  2.6304390e-02
 -4.8538211e-01
  2.8382218e-02
 -8.2815665e-01
 -4.9103057e-01
  9.5160194e-03
 -6.9131386e-01
 -2.9581586e-01
 -1.0608793e+00
 -3.1572234e-02
 -1.8690775e-01
 -2.1560546e-02
 -3.6602756e-01
 -4.8537108e-01
 -5.5073831e-02
  6.1567056e-01
 -8.6241657e-01
 -7.9369240e-02
 -1.7025778e-02
  4.1829515e-02
 -3.1967971e-02
  4.3677017e-03
 -3.0477460e-02
 -1.8556006e-02
  6.0880929e-02
  1.3634935e-04
  1.0174981e-03
 -2.6472166e-01
 -1.3589290e-02
  3.5068810e-01
 -7.2137259e-02
 -3.2719204e-01
 -1.3771378e-03
 -3.9556287e-03
 -8.1278764e-02
  3.1665184e-02
 -1.4771149e-04
  3.1520287e-03
  3.6015563e-02
  1.6892629e-02
 -1.5798455e-02
  1.5872065e-06
  2.8333541e-02
 -3.5462875e-02
  3.7143465e-02
 -4.4997577e-02
  4.9985591e-01
  6.8613421e-03
  1.7901912e-02
  5.1590927e-02
 -1.1449004e-02
 -3.1737413e-02
 -2.1957252e-03
 -1.0654597e-02
 -9.8503083e-02
  7.6485120e-02
  6.0147554e-02
 -7.8359619e-03
  1.2840092e-01
 -3.8152111e-03
 -1.1722355e-01
  7.7231549e-02
 -4.6915960e-02
 -4.7066595e-02
  5.7798386e-02
  6.6687502e-02
  3.3636440e-02
  2.6375648e-02
 -2.7559644e-02
  1.3058350e-02
 -5.1342179e-03
 -6.8908371e-02
 -4.2685485e-03
 -8.5269548e-03
  4.8822850e-02
 -3.9732505e-02
 -1.1877532e-02
  2.8847408e-02
  6.3552018e-03
 -5.2208196e-02
 -3.7052967e-02
 -1.1482026e-01
  5.5951938e-02
  2.8525053e-02
  4.6313427e-02
 -4.4135600e-03
 -6.6901386e-02
  6.9602799e-01
  6.7190784e-01
  1.5157108e-01
 -2.2315035e-02
  5.1435800e-03
  6.7237251e-02
 -2.2946926e-02
 -9.5068133e-03
 -8.8796644e-03
 -1.6255617e-02
  1.0444806e-02
 -2.6423819e-02
  3.6435094e-02
  2.4433729e-01
 -5.9647556e-02
  3.3954429e-03
 -3.9513234e-02
  1.2294801e-01
  1.0538160e-02
 -5.5064328e-02
  1.5826857e-02
  3.4779581e-01
  1.6179323e-01
  9.4156107e-03
 -6.1453655e-02
  1.7313538e-01
  5.9970906e-03
  9.5284909e-02
  4.5664660e-03
 -9.9514537e-03
 -6.2992886e-02
 -7.8393415e-02
  1.3227995e-01
 -1.8925566e-02
  7.1335810e-01
  7.9390453e-03
 -1.7734759e-02
  5.9943229e-01
  1.9269921e-02
 -2.7757732e-02
  5.0853074e-02
  2.9828256e-02
  1.2174299e-03
  2.6723769e-02
 -5.2228216e-02
 -2.2922181e-02
 -7.6096128e-03
 -5.2925823e-03
  1.1564741e-01
  2.6102641e-01
  1.7772780e-01
 -1.1456581e-01
  3.7736617e-02
  4.0764786e-02
 -7.3212072e-02
 -3.2919973e-01
  1.5442548e-03
 -6.2794369e-03
  6.0645036e-02
 -8.3101531e-03
  1.9852983e-02
  1.6643103e-02
 -7.1321368e-02
  2.8179407e-02
 -1.4428584e-02
  6.9961548e-02
  3.5975702e-02
 -1.6292801e-01
 -3.6612800e-03
 -3.2580454e-02
 -2.9873866e-01
  3.8620777e-02
 -1.2069426e-01
  1.2643988e-01
 -8.7303072e-03
  9.3069047e-02
  4.2047049e-04
  4.6082329e-02
  8.8505968e-02
 -6.6272569e-01
 -7.8119725e-02
  6.7231050e-03
 -1.3721657e-02
 -1.0607467e-01
  2.1348761e-02
 -4.4250593e-01
  2.0897379e-02
 -2.9005295e-01
  1.0148346e-02
 -3.8297307e-02
  1.2466389e-02
  5.8661450e-02
 -4.3503311e-03
  4.9338285e-02
  1.9957229e-02
  1.2269635e+00
  2.8286649e-02
 -8.4690660e-02
 -1.3532748e-02
  6.0955351e-03
  4.2623423e-02
 -5.0279923e-02
  7.2039157e-01
 -2.0362316e-03
  2.0925003e-01
 -2.3149153e-02
 -2.5449069e+00
  1.0245330e-01
 -4.9448818e-01
  1.3748306e+00
 -1.5167822e-01
  6.1606064e-02
 -5.0408322e-01
 -2.6538238e-01
 -5.7755995e-01
  3.4877214e-01
 -1.4219951e-02
  3.8813785e-02
  4.8417884e-01
 -2.7396619e-01
  8.0145073e-01
  2.1661082e-01
  3.6930692e-01
  2.8401620e-03
 -2.1295629e+00
 -8.4588349e-01
  1.6409701e-01
  2.6655236e-01
  1.3306306e-01
 -3.3236986e-01
 -2.8770283e-01
 -6.7819759e-02
 -9.0079862e-01
  5.6491911e-02
  6.9558710e-02
  2.0257147e-01
  1.9361725e+00
  7.2560602e-01
 -3.1699900e-02
 -3.0532023e-01
  6.8508440e-01
  2.8492901e-01
 -8.6576599e-01
 -4.4148660e-01
 -7.7694368e-01
  4.1578808e-01
  8.5555875e-01
  6.8141520e-02
 -4.2119501e-03
  2.7194019e-02
 -1.5862462e-01
  4.7307268e-01
 -2.1263316e-01
 -7.4441366e-02
 -2.2978067e-01
 -3.8223320e-01
 -1.6629415e+00
  2.2708097e-01
  9.3249269e-02
  9.2164981e-01
  6.4766574e-01
  8.6079955e-02
  3.7728375e-01
  9.5297992e-01
  5.9656328e-01
 -1.2285259e-01
  1.4374577e-03
 -9.1613460e-01
 -5.0436157e-01
  1.8499072e-01
  1.9149716e-01
 -1.2819104e-01
  9.1813207e-02
  2.7776746e-02
 -1.5057787e-01
  6.1952883e-01
 -4.3093720e-01
  2.1152458e-01
 -3.2005557e-01
  6.3546318e-01
  8.0588794e-01
 -2.2492020e-01
  3.1746075e-02
  1.0369893e-01
 -1.8201850e-01
 -3.6676664e-02
 -9.3310207e-02
 -3.9441135e-02
 -1.6354975e-01
  1.7543687e-02
 -5.2860790e-01
  8.7685417e-03
 -6.6076793e-02
  1.9863524e-02
 -2.0571566e+00
 -9.8330915e-01
 -1.9809712e+00
 -8.8288352e-02
 -1.6332862e+00
 -3.1084976e-01
 -1.3348502e-01
 -9.0257540e-02
 -7.0643120e-02
 -1.8475367e-02
  1.3715694e-02
  6.8424827e-01
  1.2932596e-01
 -7.2175190e-03
 -1.5246477e-03
  3.0176500e-02
 -1.2330739e-01
 -1.8250564e-01
  1.1991564e-01
 -4.5332551e-01
 -4.0926975e-01
 -1.3207297e-01
  4.0138802e-01
 -1.7119107e-01
 -7.2838742e-01
  4.2215320e-01
 -1.4509194e-01
  3.0068505e-01
  3.6737728e-01
 -3.2782382e-01
  1.1288310e-01
  6.4651763e-01
  3.7371936e-01
 -1.1374560e-02
 -8.5394371e-01
  8.9638993e-02
 -5.2067769e-01
  1.1742074e-01
  1.6399915e-03
 -3.5824865e-01
 -4.1207802e-01
 -3.6449906e-01
 -3.8347748e-01
 -9.4070959e-01
 -4.5310837e-04
 -2.3341700e-01
 -9.1722530e-01
  8.6591655e-01
 -8.9389607e-02
 -1.2744181e-01
 -1.7266527e-02
 -1.6842294e+00
 -2.9101092e-01
  7.2663873e-01
 -1.9448227e-01
 -1.4827044e+00
  1.1380757e+00
  3.9670023e-01
  5.0307119e-01
  3.2743213e-01
 -8.6872774e-01
  3.2817268e-01
  7.5754009e-02
  3.9691767e-01
 -5.4214174e-01
  3.9603868e-01
 -4.4771372e-03
 -3.4006840e-01
 -1.9853845e-02
 -1.1107546e+00
  2.8972942e-02
  1.1214791e-02
  1.4672622e-01
 -3.1637412e-02
  2.0761862e-01
  5.0086759e-02
  1.2346686e-01
 -1.3567903e-02
  4.3145098e-02
  1.3708707e-02
  7.1063270e-03
 -2.9328078e-02
 -7.2467044e-02
 -1.7410921e-02
 -2.5369713e-02
  3.2340698e-02
 -1.7879013e-02
  1.0547366e-02
 -7.5891726e-02
 -8.8681176e-02
  6.6611126e-02
  1.4148541e-03
 -7.8989349e-02
  4.5469683e-02
 -1.5435088e-02
 -3.7253290e-02
 -7.2668870e-03
  4.5326114e-02
  1.0965613e-02
  4.5392964e-02
 -9.7494964e-03
 -4.2989813e-02
  1.2142511e-01
  5.4120300e-03
  1.4589937e-02
 -8.2580678e-02
 -6.2370300e-02
 -1.5527056e-01
  1.8992698e-02
 -1.7428430e-02
 -9.4193248e-03
 -1.9481726e-02
 -1.0416435e-01
  8.9292534e-02
  1.1122208e-02
  3.6352389e-02
 -9.9028543e-02
 -3.2792844e-02
 -4.3620449e-03
  1.4667008e-02
 -2.7678285e-03
  1.1717534e-02
 -9.2462022e-03
  8.7032979e-03
 -2.3960467e-02
 -1.2154076e-01
  6.8384497e-03
  2.8652363e-02
  2.8609272e-02
  5.6225710e-02
  2.1894366e-01
 -2.1098316e-02
  9.3092276e-03
  2.3092275e-02
 -1.9550048e-02
 -1.5177633e-01
  1.3346664e-02
  1.7422298e-04
  4.3050699e-02
 -2.0669376e-02
  2.8788535e-02
 -2.2955082e-02
  2.3827519e-02
  2.6273583e-03
  5.9068359e-02
 -1.3043393e-02
  6.1510783e-02
  1.5439410e-03
  2.2862582e-03
  2.3840740e-02
  3.2590788e-02
  2.5760248e-02
  1.2056852e-02
  1.2524263e-02
  8.1787162e-02
  7.4346888e-01
  1.3104233e-01
 -7.1823984e-02
 -2.5748136e-03
 -4.0987831e-02
  9.0351887e-02
  1.7573094e-02
  1.9580389e-03
 -1.2504801e-02
 -7.1894020e-02
  5.5299480e-02
 -6.7002289e-03
  3.0474011e-02
 -2.7884826e-02
 -2.3598821e-01
  7.0111305e-03
  6.5435441e-03
  2.3728499e-02
 -3.1670485e-02
  1.4382125e-02
 -1.0137973e-02
 -4.2040557e-02
 -1.3673142e-01
 -1.2739774e+00
 -1.2814771e+00
 -3.1764865e-01
  1.2969269e+00
  1.4562582e+00
 -7.0495808e-01
  1.7480665e+00
 -6.1570024e-01
  9.0758950e-01
  1.1955272e-01
 -6.2331897e-01
 -2.0100670e-02
 -6.9341576e-01
 -1.3194214e+00
  1.7673416e-01
 -8.3116549e-01
 -5.9674673e-02
  5.0508988e-01
  1.0335917e-01
  5.0183159e-01
  3.3629104e-01
 -3.8608376e-02
  2.4282318e-01
  9.6336550e-01
 -1.9670504e+00
  1.9613136e-01
 -3.6248021e-02
 -2.3450033e-01
  6.7477173e-01
  4.7721910e-01
 -1.8747258e-01
  1.5074285e+00
  1.1255845e+00
 -1.0490115e+00
 -5.9561187e-01
 -1.3133758e+00
 -3.3983123e-01
  3.8660240e-01
 -1.5634767e+00
 -1.3678727e+00
 -6.5308422e-01
  1.3547356e-01
  3.1089304e-02
  2.5529316e-01
  1.1848436e-01
  2.8573081e-02
 -6.0434788e-03
  3.2537729e-03
  1.1915553e-02
  5.6099629e-01
  3.3582263e-02
 -1.4135499e-02
 -5.5728573e-03
 -3.4099275e-01
 -1.2720008e-02
 -1.2935974e-02
  2.5102206e-02
 -1.7271426e-02
 -1.5511305e-02
 -2.3793040e-03
 -5.9413958e-02
 -1.8792465e+00
  6.4690351e-02
  2.1861862e-02
  6.6275902e-02
  1.5123894e+00
 -2.7265020e-02
 -1.0007572e-01
 -7.7104312e-04
 -1.0459931e-01
 -3.7705085e-01
  3.0332739e-02
 -1.2523782e-01
  1.1396445e-02
  3.3644609e-02
 -1.4622558e-02
  6.4368793e-03
  1.1089182e-02
 -1.2372785e-02
  9.7234011e-02
  1.3275644e-01
  1.9539513e-02
  2.3464834e-02
  1.3216596e-02
 -7.1784750e-02
 -1.5711732e-03
 -7.4682301e-03
  4.6260670e-02
 -9.3245991e-03
 -4.3477017e-02
  5.5312403e-02
  5.6001753e-02
  2.8948549e-02
  2.7610620e-02
 -9.4531201e-02
 -2.3527640e-01
 -4.5072511e-02
  5.9134617e-02
  1.9662399e-03
  7.4790895e-02
 -1.8788418e-03
  1.6100354e-02
  4.1322593e-02
  1.0938104e-03
 -3.5840604e-02
 -4.1731045e-02
 -2.1734022e-02
 -1.4833719e-01
  3.6821868e-02
 -3.1783782e-02
  6.7978367e-02
 -5.0559752e-03
  6.0794003e-02
  9.9079125e-03
 -2.9472958e-02
 -1.2189273e-02
 -1.6700175e-02
 -2.7631167e-02
 -1.3708603e-02
 -7.1296960e-02
  1.7684098e-02
  3.3304341e-02
 -3.5193481e-02
  2.4951711e-02
 -3.1354146e-03
 -6.2546227e-03
 -3.5591591e-02
  1.4206550e-01
  3.6744364e-02
 -5.2423045e-02
  1.1590291e-03
 -5.4599844e-02
  9.4375417e-02
 -9.3007736e-02
  2.6242938e-02
  5.7459284e-02
 -1.7399075e-03
  3.0123122e-02
  2.6380833e-02
 -4.5419432e-02
 -6.6754296e-02
  2.5482513e-02
  2.4745582e-01
  2.7431071e-02
 -9.1927554e-03
 -4.0269163e-02
  2.0842206e-02
 -5.5829197e-02
 -1.6832005e-02
 -2.5679925e-02
  1.6757743e-03
 -2.3488209e-01
  5.1096506e-02
  3.2300301e-02
 -3.0643214e-04
  7.6013789e-02
  1.0551592e-02
  5.6004956e-02
  8.4243808e-03
  1.8898237e-02
 -2.1975484e-02
  1.1374380e-01
 -4.2273369e-01
 -2.5226314e+00
 -1.7064327e-02
 -1.4565554e-02
 -1.1464375e+00
  7.2107226e-02
  1.2281060e-01
  6.1864132e-01
 -6.4603105e-02
  1.8090916e-01
  3.7321934e-01
  7.7462065e-01
 -3.7122923e-01
  5.1055562e-01
  3.0099867e-02
  5.1152524e-02
 -2.8618279e-01
  9.1705695e-02
  4.3836482e-02
 -2.0957667e-01
 -5.0301343e-02
 -4.4787556e-01
 -7.7110118e-01
  5.1882082e-01
 -6.1949790e-01
  3.6912808e-01
 -1.8986000e-01
 -3.7096670e-01
  1.7705816e-01
 -5.6592268e-01
 -8.5916078e-01
  4.4471633e-01
  3.0141000e-03
  5.5690086e-01
 -1.0088158e-01
  3.3804560e-01
  2.0956169e-01
 -1.6916977e-01
 -1.6501426e+00
 -2.1630349e+00
 -3.3159313e-01
  1.7475697e-01
 -8.4425515e-01
 -3.8898370e-01
  1.0650668e+00
  1.1415473e-01
 -6.4855635e-02
 -1.9632484e-01
 -1.4670736e-01
  1.8111213e+00
 -2.1726042e-01
 -4.6570408e-01
  9.3071843e-03
 -2.4062914e-01
  8.3420686e-02
  4.5949586e-02
 -4.5516551e-02
 -1.0182855e-01
 -2.7109301e-03
  6.0442276e-02
 -2.1018311e-02
 -5.0179821e-02
  4.9550049e-02
  1.4441403e-02
  2.2215752e-02
 -1.5640557e-02
 -1.5371194e-02
 -5.5424687e-02
  7.8949898e-02
  5.0534353e-02
 -1.1638007e-01
  2.4349827e-02
  2.7657408e-02
  3.3320993e-02
 -7.0612915e-03
  2.3273816e-03
 -4.9027866e-03
  1.8540949e-02
  1.9310699e-03
 -5.8414686e-02
  9.6652750e-04
  1.6875032e-02
 -1.5177564e-01
  2.9793747e-02
  1.0313206e-02
 -4.2655446e-02
  6.3260585e-02
  1.1213869e-01
  1.5100429e-02
  2.2253875e-02
  9.1660775e-02
 -3.9023003e-03
  3.8982797e-03
  2.0810662e-02
  3.0798262e-02
 -2.3281526e-02
  3.4712031e-03
  9.7196586e-02
 -1.6833223e-02
 -2.5741039e-02
 -1.7812727e-03
 -6.8453372e-02
  4.5739841e-03
  1.5023608e-02
  1.1600736e-01
  8.5028864e-02
  4.7571333e-03
 -1.1619885e-02
  1.4682165e-02
  4.7774207e-02
 -6.5979287e-02
  1.4246593e-02
  3.7159450e-02
 -9.2451006e-02
  1.9304601e-02
 -1.5136294e-01
  8.8241056e-02
  2.3150060e-02
 -2.3758318e-03
 -5.2889381e-02
 -1.5256006e-02
 -1.3398200e-02
 -6.0376998e-02
  1.4596363e-02
 -1.7845334e-02
  9.1925941e-02
 -2.4662679e-02
 -5.4187853e-02
 -9.6073020e-03
  4.5074574e-03
 -2.2866989e-02
 -5.4101823e-03
 -3.1522132e-02
  8.1093684e-03
 -2.0756878e-02
 -1.9050768e-02
  1.0718334e-01
  2.5529318e-02
 -3.5462159e-01
  8.8951454e-02
  3.6189035e-02
  6.2283114e-02
 -8.7848976e-02
 -1.6907930e-02
 -6.6275418e-01
 -6.1644996e-03
  1.5091855e-02
 -3.2225158e-02
 -1.0657588e-02
 -1.4622933e-02
  2.2396239e-02
  4.2002503e-02
  1.4975093e-02
  2.5001602e-02
  8.3981883e-03
 -2.1486687e-03
  1.8115103e-02
 -4.6241734e-02
  3.5142817e-02
  2.4127720e-01
  4.3927364e-02
 -1.8525649e-02
  3.7042173e-03
  2.5393058e-02
  2.5668530e-02
  3.3779148e-02
  4.1511323e-02
 -1.6117765e-02
 -5.4853778e-02
  1.0375431e-02
 -1.0812011e-02
  1.0356326e-03
 -2.6204368e-02
  5.0682608e-02
  5.0189134e-02
  2.2578822e-02
  3.7599750e-02
  2.6145747e-02
 -5.9900977e-02
  1.8698171e-01
 -4.7809366e-02
  3.9674558e-02
 -3.4405692e-03
 -6.0271127e-03
  1.2440482e-01
  1.6345784e-01
 -1.9972639e-02
  4.8679311e-02
  7.0721179e-02
  2.2660293e-02
 -6.4113162e-02
  7.4938774e-02
  1.4731637e-01
 -5.8019672e-02
  3.5016846e-02
 -2.2611797e-03
  3.3839889e-02
  2.5656275e-02
  1.1316681e-02
  8.9695983e-02
 -5.4965778e-03
  1.1209670e-02
 -2.0752763e-02
  1.5263437e-01
 -3.8268935e-02
  2.0106208e-02
  3.1843562e-02
 -1.3606043e-01
 -2.3795608e-02
  1.2472482e-02
 -5.0862590e-03
  9.2617732e-01
  8.4420778e-03
  1.6125319e+00
 -6.5860033e-02
 -6.1410204e-02
  1.9151852e-01
 -1.2072527e-01
 -1.3151263e-02
 -5.1098816e-02
  1.7877964e-02
 -1.3949110e-02
 -2.1154623e-02
 -3.1106949e-01
 -1.9881524e-02
 -8.1375495e-02
 -8.6907752e-02
 -1.7299421e-02
  5.3254133e-03
 -3.1698681e-02
  2.1397099e-02
  3.8506929e-02
 -3.7321012e-02
 -8.6427212e-02
  9.7099060e-01
 -3.6522772e-02
 -2.7364826e-01
 -1.3074255e-01
  2.0478112e-01
 -4.1765880e-02
 -2.3859376e-01
 -3.4184661e-02
  2.3287861e-02
  1.7093290e-02
  4.8658922e-02
  2.2949830e-02
  5.2035088e-03
  7.8348992e-03
 -1.5265078e-02
 -8.2067378e-02
 -7.7662291e-05
 -9.7527150e-03
 -1.3798391e-02
 -1.2030885e-02
  8.6893514e-02
 -3.6578846e-01
  1.4985669e-01
  4.4664700e-02
 -4.8237825e-03
 -1.0395125e-01
  2.5602758e-02
 -2.1022333e-02
 -6.2376536e-02
 -3.5441212e-02
 -3.1859133e-02
 -4.4148169e-03
 -8.7986905e-03
  1.7658813e-02
  3.1862259e-02
  2.3065010e-02
 -3.6482323e-02
 -7.7398974e-03
 -4.3485630e-01
 -8.5652456e-02
 -5.9452844e-01
 -3.6239552e-03
 -1.0431049e+00
 -1.0970944e+00
 -1.3868427e-01
 -1.4380475e-02
 -8.9869529e-02
  2.7219452e-02
 -3.6289267e-02
 -5.7674691e-02
  1.8620420e-01
  5.3599514e-03
 -4.5947053e-02
 -3.5925422e-02
 -3.4835976e-01
 -8.5920423e-02
  2.4248281e-02
  3.7992004e-02
  5.5336945e-02
  1.6073662e-01
  2.5088801e-03
 -2.0637171e-02
 -1.1323374e-01
  2.2807997e-03
  1.3099013e-01
  1.8767436e-01
  4.1641191e-01
 -6.4700022e-02
 -2.2127731e-03
  3.4037355e-01
 -4.7897029e-01
  1.6301867e-01
  1.3427859e-03
 -1.7364593e-02
  2.6881460e-02
  1.2964214e-01
 -1.2647958e-01
 -4.5209876e-03
 -9.6896745e-02
 -1.2331419e-01
 -1.2237684e-01
  3.9575648e-02
 -2.9011324e-02
 -2.2276245e-02
 -1.5880834e-02
  3.2728857e-01
 -5.7238215e-03
  3.4385305e-02
  1.2483060e-01
 -2.8866652e-01
 -1.6338630e+00
 -2.8658143e-01
  1.8666130e-02
  1.5930347e-02
 -7.9767346e-02
  1.3894495e-02
  1.3761975e+00
  2.7995081e+00
 -2.5084302e-01
  8.2073905e-02
  6.0766347e-02
 -1.2312676e-01
 -1.5713037e+00
 -3.1630948e-01
 -1.0600019e-01
  3.4948613e-03
 -4.3389237e-01
  2.8303942e-01
  5.5342638e-03
 -1.1392052e+00
 -1.3663538e-01
 -4.6131849e-02
  1.1347242e-01
  2.4988385e-02
 -4.4876091e-02
 -1.5808867e-01
  3.6011413e-02
  1.5303333e-01
  3.8047662e-01
 -1.1549290e-02
  1.4768408e-01
 -3.8098735e-01
  2.5567505e-01
  6.6893333e-01
 -1.0424095e-02
  2.7066177e-01
 -9.6657723e-03
 -6.6108994e-02
 -5.4290509e-01
 -7.6720560e-01
 -4.5181254e-01
  1.6463263e-02
 -9.5183128e-01
 -5.0186926e-01
 -1.5656695e-02
 -3.2794766e-02
  2.4957821e-01
  9.9594891e-03
 -2.0839569e-01
  3.6180779e-02
 -1.8779607e-02
  6.9473751e-02
 -5.7939995e-02
 -1.8665025e-01
  5.7119548e-02
 -1.0215927e-02
  4.0185779e-02
 -4.0531501e-02
 -1.7941765e-02
  1.3039520e-02
  1.0282044e+00
  3.9437991e-01
  2.3653857e-02
 -1.9823857e-02
 -9.3898010e-03
 -1.0013927e-01
 -1.9336805e-02
 -3.3540395e-03
  5.4017391e-02
  2.8439667e-03
  2.6315512e-02
 -3.8469702e-02
 -2.1306306e-02
 -3.2583486e-02
 -6.3956589e-02
 -1.0049015e-02
 -5.7595607e-02
  9.4646858e-03
  2.1156482e-02
 -1.9134091e-02
 -1.3090545e-02
 -2.8756931e-03
  4.5123655e-01
  1.1772091e-02
  1.6372745e-01
  1.2345945e-01
  3.8437010e-03
 -1.6011114e-01
  7.1216539e-02
  3.1774100e-02
 -4.8949048e-02
 -2.2875806e-02
 -6.8401970e-02
  8.8363282e-02
 -4.2981844e-02
 -4.1255211e-03
 -2.7283629e-02
  8.8732801e-02
 -1.4647370e-02
 -9.4338413e-03
 -6.8011852e-03
  1.1107730e-02
 -2.8984360e-02
 -2.8754162e-02
  6.3679002e-02
  1.9170141e-02
 -8.6503848e-03
  5.0206617e-02
 -5.4862477e-02
 -5.0008349e-02
 -9.2024282e-03
 -1.4471677e-01
  1.4494364e-03
 -5.2737478e-02
  2.2922610e-03
 -7.1810357e-02
 -3.4806445e-02
 -1.6699232e-02
  2.2928458e-02
 -4.9626864e-02
  1.7352726e-02
  4.7613222e-02
 -1.3023620e-02
  2.0480907e-02
  2.3082430e-03
 -5.6181647e-02
 -3.4458611e-02
 -1.3900548e-03
  2.1120505e-02
 -2.9726845e-01
  9.1058969e-02
 -9.3178593e-02
  6.6409573e-02
  4.1297758e-03
  2.9256031e-02
 -1.4953176e-03
 -2.7053524e-03
 -7.6854944e-02
 -2.9094499e-02
 -8.7126493e-02
  6.4992577e-02
 -4.2717293e-02
  1.9617302e-02
  4.6183836e-02
 -1.6634153e-02
  1.0506899e-02
 -8.0123767e-02
  2.2174278e-02
 -1.1259922e-01
 -1.2397775e-02
  6.0651626e-02
 -1.3671603e-02
  3.1705968e-02
 -6.7202859e-02
  4.4499498e-02
  8.8771414e-03
  1.2684373e-02
 -3.5465728e-03
  2.0827841e-02
 -2.1317815e-02
 -4.1881807e-02
 -3.3000261e-01
  1.3455300e-01
  1.2271619e+00
  8.2072854e-01
  1.0242324e+00
  1.4353648e+00
  1.1643382e-01
 -2.5503400e-01
 -1.8904102e-01
 -2.2150652e+00
 -2.6350749e-01
 -1.1705743e+00
  2.5872509e+00
 -1.3120197e-01
 -1.8657236e+00
 -6.9172269e-01
 -1.9691116e+00
 -1.5011215e+00
 -2.2818644e-01
  9.3298610e-03
 -1.7165604e+00
  6.1283690e-01
 -2.7071390e-01
  4.2935008e-01
  1.0781677e+00
 -4.3124035e-01
  5.1030028e-01
 -2.5661930e-01
 -1.3328103e-02
  1.8563864e-01
 -9.4965667e-02
  8.9515549e-01
 -1.0304571e+00
  1.2888321e+00
 -4.5549032e-01
 -8.3965415e-01
  8.8076904e-02
 -7.2962081e-01
 -6.5182531e-01
  3.6703810e-01
 -1.8026757e-01
  1.7078249e-02
  1.3425568e+00
 -5.6153017e-01
 -1.1808048e+00
  1.8049812e+00
  2.4057572e-01
  2.8903356e-01
 -3.8485602e-01
 -4.8383605e-01
  4.0140370e-01
 -4.0131055e-02
 -1.1350726e-01
 -2.3914230e-01
 -1.1560003e+00
 -1.1581756e-02
  7.6929063e-02
  1.4732752e-03
  7.4399889e-02
  1.2080077e-02
 -6.4095318e-02
 -7.6785155e-02
 -8.8279533e-01
 -1.0481202e-01
  2.0599077e-02
 -6.8220235e-03
  4.8517969e-02
 -5.6964781e-02
  6.3184164e-02
 -1.0388283e-02
 -4.1562788e-02
  4.0875740e-02
 -1.3403799e-03
  3.5601418e-02
 -8.0710743e-04
  8.1351055e-03
  1.3782033e-02
  5.9458826e-02
 -5.4645553e-02
 -5.2643511e-02
 -2.7509462e-02
 -3.3524904e-02
 -1.5212378e-02
 -4.5105655e-02
 -1.1308153e-01
 -1.2543744e-01
  6.8030901e-02
 -2.2016384e-02
  6.0180714e-03
  7.3664412e-02
  1.4801966e-02
  4.2915288e-02
  1.8318921e-02
 -4.8159529e-03
  4.7621991e-02
 -5.8290517e-01
  2.9989323e-03
  1.6728662e+00
 -1.3841833e-03
  1.6987775e-02
 -4.9960809e-03
  1.1280399e-02
  7.2492110e-03
 -4.9374070e-02
  2.5396317e-03
  1.7436642e-02
 -1.0704152e-02
 -2.5210708e-02
 -1.9757137e-02
  1.1698930e+00
  9.4413057e-02
 -2.6225290e+00
  4.1038775e-01
  1.2301807e-01
 -2.2294849e-01
  1.1827160e+00
 -7.5264901e-01
 -3.0828777e-01
 -6.8878323e-02
  3.8593273e+00
  3.9003406e-02
  2.3487749e+00
 -1.2647599e-01
 -3.1036273e-01
  7.0464201e-02
 -3.1667068e+00
  3.7144831e-01
  8.8004249e-01
 -1.4335132e+00
 -6.4872205e-02
 -8.3386493e-01
 -3.4733875e+00
  2.0113669e-04
  5.2562845e-01
  1.3894562e+00
 -1.7084688e-02
 -3.9133748e-01
  5.1117814e-01
 -1.9004722e+00
  4.0660518e-01
  4.4568470e-01
 -1.1029757e+00
  2.8679874e+00
  6.6418284e-01
 -3.7161326e-01
  2.6214966e-01
 -7.5874829e-01
  7.6277807e-02
 -4.1568476e-01
  6.8167108e-01
 -2.5118403e-03
 -4.0130172e+00
  6.0808599e-02
 -1.2719522e+00
  4.4390680e-03
  1.6437595e-01
 -4.8023285e-03
  3.2786382e-03
  3.0035201e-01
  1.6370095e-01
  6.7507498e-02
 -4.5777538e-01
  7.0741080e-02
 -4.0229094e-01
 -2.3737772e-01
 -2.7995432e-02
  7.2542414e-02
 -1.9146213e-01
  4.1747224e-02
 -2.0772209e-03
  1.2296138e-01
 -9.9325001e-02
  3.3216942e-02
  1.9541772e-02
  3.0639889e-03
 -2.8743092e-03
 -1.4768338e-01
 -1.8985428e-02
  1.3295673e-01
  2.8497705e-03
 -2.1125173e-02
 -1.0864747e-01
  4.2235491e-01
 -2.0691167e-01
 -2.2445379e-01
 -1.3810839e-01
  6.4327359e-02
  1.2013126e-01
  2.1547304e-02
 -7.6730289e-02
  3.4711388e-01
  1.0794619e-01
  9.8189861e-02
 -1.6921765e-01
  3.9657232e-01
  5.8617997e-01
  1.4868078e-01
 -2.2226700e-03
 -1.7767601e-01
  6.9028549e-02
 -1.0066474e-02
  1.3627352e-01
 -2.4355389e-01
  3.9518625e-01
  3.3264494e-01
 -2.5926106e-02
 -2.6583797e-01
 -6.8314189e-01
 -4.7737747e-02
  5.0111767e-03
 -7.8329761e-03
 -1.5093572e-02
  1.1687592e-01
  7.2305053e-02
  2.0193540e-02
 -3.4828957e-03
 -5.9313826e-02
 -6.7102619e-02
  2.7725250e-03
  8.3772808e-02
  7.0855039e-04
  5.9757251e-02
  1.0870725e-01
  8.4969085e-03
  3.0945849e-02
  3.0484874e-02
 -6.3301162e-03
  3.0017158e-02
 -6.8401419e-02
 -1.7985696e-02
 -4.8395798e-02
  3.8578473e-03
 -8.9363098e-01
 -2.0309892e-03
  1.0938385e-01
 -1.1980480e-01
 -9.7074598e-02
  1.8822804e-02
 -5.2481119e-02
  6.0037151e-02
 -6.5477849e-03
 -1.0076601e-02
 -6.0829502e-02
  5.4770326e-03
 -1.0341026e-02
  2.8809647e-03
 -4.8167992e-02
  5.8442798e-02
  3.9574794e-02
  1.2088396e-02
 -2.7907092e-02
  1.7566420e-02
 -5.9348242e-03
 -9.1521358e-03
  1.0286631e-02
  1.8317799e-01
 -5.9455806e-01
 -2.7992502e-03
 -5.0906427e-02
 -8.4150247e-03
 -7.5179480e-02
  3.2354806e-02
  1.8472530e-02
  5.3549290e-02
 -1.4462538e-01
  8.7507673e-02
 -9.1216359e-03
 -1.1700875e+00
 -6.0683601e-03
  6.1785439e-03
  2.7744431e-02
 -1.1554388e-01
  3.5250898e-02
  5.3902194e-02
 -3.2369798e-01
 -5.6125575e-01
 -1.3938719e+00
  7.1902555e-01
 -5.4970060e-02
  4.9143214e-02
  1.1955293e-02
 -6.2606466e-01
 -8.3770603e-01
 -2.2900529e-02
 -6.8530470e-02
  4.2585250e-02
 -1.7334901e-01
 -3.6358821e-01
 -4.6574581e-02
 -8.1309193e-01
 -3.9738812e-02
  3.6950785e-01
 -2.9163158e-01
 -1.1017343e-01
 -1.3605370e-01
 -2.4794447e-01
 -2.5581238e-01
  4.0186286e-02
 -1.4462221e-02
 -3.6672205e-02
  3.5551686e-02
 -4.7623632e-03
 -5.6886476e-01
  1.0163477e-01
 -5.8075655e-01
 -3.9603114e-01
  8.1306893e-01
 -6.2122799e-02
 -1.7751008e-01
 -2.1082526e-02
 -4.0486899e-01
 -4.5823923e-01
  1.0576058e-02
  9.4953977e-02
 -2.2595789e-01
 -9.5887655e-01
 -8.6533152e-02
  2.8745404e-03
 -2.6788844e-02
  7.8301705e-02
 -2.2951007e-02
  1.9139009e-02
 -5.1669396e-02
 -2.5843019e-02
  8.7552287e-02
  8.8832283e-01
  1.0213420e-01
 -1.0632956e+00
  5.0229602e-02
  6.7039663e-01
 -9.9081653e-01
  2.5553444e-01
 -6.3612092e-01
  5.3877443e-02
 -8.5232835e-03
  1.4912319e+00
 -2.8893573e+00
  8.0539829e-01
 -1.6721478e-02
 -7.8597590e-02
  9.8713189e-02
  2.1727388e-01
 -5.4152721e-01
 -9.5700121e-01
  4.0635985e-01
 -4.3322733e-01
  4.0663189e-01
 -1.3693041e+00
 -3.6739984e-01
  4.5395955e-01
  1.0727602e+00
 -2.9356975e-02
  2.3292523e-02
  3.6572227e+00
  9.7458911e-01
 -1.3361979e+00
 -1.7891228e-01
  5.5251988e-03
 -2.1874423e+00
 -1.1244067e+00
 -2.0029359e-01
 -1.0023755e+00
  1.0622509e+00
 -5.0511211e-01
  2.6918674e-01
  4.3809810e-01
 -4.1809714e-01
  4.3899173e-01
 -9.3519121e-02
 -3.4111613e-01
 -2.4128506e-01
 -1.0916069e-01
 -1.4141709e-02
 -4.3511067e-02
  3.8395841e-02
 -2.0901412e-02
 -2.1159064e-02
  2.4824873e-01
  8.1302777e-02
 -1.4703037e-02
 -2.2265231e-02
  1.8844539e-02
 -3.8850002e-02
  9.7222313e-02
 -1.3657093e-01
  3.6583990e-02
  6.1984364e-02
  2.2322951e-02
 -5.2268691e-03
 -4.1188739e-02
 -4.9888153e-02
 -3.8465828e-02
 -1.5546533e-02
 -2.2550972e-02
  5.1719010e-02
  1.4169515e-02
  9.1246262e-02
 -6.4958399e-03
  1.7677023e-01
  3.2454293e-02
  4.1997742e-02
 -7.7891052e-03
  4.0782362e-02
  6.7649029e-02
 -9.8510534e-03
 -5.5363927e-02
 -6.2833950e-02
 -6.4069614e-02
 -1.0755856e-01
  2.9044145e-01
 -1.4106127e-02
  4.7158543e-02
  6.7121554e-03
  2.3102634e-02
 -1.4134801e-03
 -4.0089976e-02
 -1.4943818e-02
 -1.1012818e-01
 -3.9632758e-03
  1.0706971e-01
 -7.6488368e-02
  3.0809348e-02
  9.0552472e-02
 -4.8355214e-02
  3.5229012e-01
  2.4973933e-02
 -5.0884865e-02
  1.5487108e-02
  2.8802734e-04
  4.0311903e-01
  5.3714365e-03
 -1.1360420e-02
  5.4563485e-02
  2.7590158e+00
 -5.3671271e-01
 -9.2207181e-01
  7.6270151e-01
  3.8790052e+00
 -1.7327216e+00
  1.4230199e-01
  5.5436009e-01
  8.1746997e-03
 -4.2442954e-01
 -3.6046657e-01
 -2.2347426e+00
  4.6655053e-01
 -1.8666010e+00
 -1.4389508e+00
 -7.1815169e-01
 -6.8782479e-01
  8.6490142e-01
 -1.4552104e+00
 -4.6602172e-01
 -1.3908613e+00
  8.0455106e-01
  1.2129552e-02
 -1.3830374e+00
  1.8272640e+00
  2.9932195e-01
  2.0831637e+00
 -3.1979930e-01
  6.4932406e-01
 -4.0835080e-01
  1.4548723e-01
  1.9834685e+00
 -3.5288933e-01
 -9.1435713e-01
 -1.0669261e+00
 -1.6151942e+00
 -2.2607589e-01
 -2.5679014e+00
 -7.6205790e-01
 -7.7760589e-01
 -1.9745318e+00
  2.2520278e-01
  1.3615516e+00
  1.6145313e-01
 -5.4751915e-01
  9.8550856e-02
 -4.6420600e-02
 -1.6323552e-02
 -1.5933538e-02
 -1.2505671e-01
 -3.1759376e-03
  1.7806770e-01
 -5.6762797e-01
  2.7497369e-01
 -5.8399804e-02
  2.9642865e-02
 -2.2311157e-01
 -1.5562736e-02
  6.2022924e-02
  9.9773034e-02
  2.0611737e-02
  2.0582916e-02
 -1.3960836e-02
 -8.8714892e-03
  9.1700349e-03
 -3.7131142e-02
  2.2985125e-02
 -8.9629162e-03
  6.7872494e-02
 -4.4485178e-02
  8.9127116e-02
 -5.5371691e-04
  1.3690341e-01
 -3.4820363e-02
 -3.9987978e-02
  5.7007819e-02
  1.1741234e-01
 -2.4727166e-03
  1.5922502e-01
  2.4471039e-02
  1.9726466e-02
 -1.0427824e-02
 -2.5736917e-02
  6.8588667e-02
 -2.4327654e-02
  2.9800620e-02
 -5.3455520e-02
  8.3292071e-03
  1.2247220e-02
  1.0382503e-01
  3.5001021e-02
  2.2497118e-02
 -1.0901609e-02
 -3.7076190e-02
 -3.1583820e-02
  1.0697398e-01
 -1.3536248e-02
  1.6270820e-02
 -1.1612484e+00
  4.6952073e-02
  8.5705817e-02
 -3.2108363e-02
 -5.9713352e-02
  2.2760289e-02
  3.2307664e-03
 -3.3346407e-02
 -7.6732975e-03
 -4.1960444e-02
  1.1643280e-01
 -4.6737933e-01
 -1.3852960e-01
 -1.2782921e-01
 -1.9610093e+00
  1.9535312e-01
  4.7316420e-01
  1.4843196e+00
  1.6688998e+00
 -2.6081206e-02
  1.0533874e-01
  7.2478938e-01
 -4.1853508e-01
 -1.8935762e-01
 -2.8810099e-01
  4.9891281e-01
  9.7278878e-02
 -7.4405536e-02
  4.9790916e-01
 -8.6799598e-01
 -3.8116630e-02
 -5.3309226e-01
 -1.0648595e+00
  1.9458547e-02
  1.1649677e-01
  1.7047650e-01
 -3.5982188e-02
 -1.7769620e-02
 -1.9533713e+00
  6.6478157e-01
  1.5739981e+00
 -3.0046866e+00
  2.7071692e-02
 -1.1657104e-01
  6.9341308e-01
  1.6153682e+00
  2.8199893e-01
 -1.3477199e-01
 -1.3664374e-01
 -1.2515619e+00
 -7.4145246e-01
  4.1720259e-01
 -1.4063951e-01
  8.8986075e-01
 -5.2003509e-01
  1.1526709e-02
  1.9642419e-01
  2.1648921e-01
  7.3115222e-02
  3.0031577e-01
 -3.8216535e-02
 -1.1928545e-01
 -1.7766086e-02
 -1.2337124e-02
 -9.1211641e-01
  1.6606470e+00
  5.8311820e-01
 -9.0236497e-01
 -1.3831735e+00
 -7.6701783e-02
 -6.1686379e-01
 -2.4667378e-01
  7.7419418e-01
 -1.2686439e-01
 -9.2805463e-01
 -7.1374208e-02
 -5.8314538e-01
  9.0455621e-02
  3.4023315e-02
 -8.2226545e-02
  2.4710147e-01
 -1.0567378e+00
 -3.0193335e-01
 -8.5815096e-01
  1.5554300e-01
 -6.1357325e-01
 -1.4209569e+00
  1.2090391e-02
 -9.3011267e-02
  7.0979339e-01
 -1.2430429e-02
 -7.8688174e-02
 -4.2039388e-01
  1.6718888e-01
  7.7412426e-01
 -2.7194541e-02
 -6.2497489e-02
 -9.2395997e-01
  1.3235502e+00
 -2.8754455e-01
  1.3972225e+00
 -3.4284580e-01
 -5.1024878e-01
 -9.5410645e-01
  2.8949490e-01
 -5.9642905e-01
  1.0501950e+00
  8.4715471e-02
 -2.0376936e-02
 -2.9932978e-02
 -4.2003784e-02
  4.5394748e-02
 -9.2010498e-02
  1.7976090e+00
 -1.8500952e-01
 -3.3647409e-01
  9.5726646e-02
 -1.2269372e-01
  1.2120817e+00
 -7.0645958e-01
 -3.4005260e-01
  9.5849201e-02
  4.2034008e-02
  1.4478195e-02
 -2.5347629e-01
 -2.2989254e-01
 -5.3339787e-03
 -1.6380142e-01
  1.3224779e+00
 -3.5486236e-02
  3.9485194e-02
 -1.1206783e-01
 -2.3423132e-01
  4.2423606e-02
 -1.1349371e-01
 -5.0795753e-02
  2.0217682e-01
 -5.9596444e-03
  1.3767991e-02
  2.7920268e-02
  1.6137610e-01
  4.5121677e-02
 -5.3963482e-02
  1.6064686e-01
 -1.5118539e-02
  2.9210836e-01
  6.4306525e-03
 -1.3814379e-02
  1.3286990e-01
 -1.1918243e-01
  2.5507536e-02
 -2.8919149e-02
  1.3489269e-02
 -1.0741297e-01
 -2.2366675e-02
 -1.4924522e-01
 -4.2778011e-02
 -4.3338966e-01
  1.4308369e-01
 -6.1110228e-02
  3.8505215e-02
  3.5823677e-02
 -7.4622840e-02
  2.2001926e-02
  1.9028473e-01
  4.8470601e-02
  7.4044220e-02
 -1.5393086e-01
 -3.1714803e-03
  3.6097486e-02
 -3.6691842e-03
  2.0899385e-02
 -1.4069331e-01
 -1.3422068e-02
  6.3747354e-04
 -2.4868928e-02
  2.9185934e-02
  2.3981892e-03
  4.7422055e-02
 -1.9077082e-01
  1.8415492e-02
  9.7519375e-02
 -3.8965166e-02
  7.1722426e-02
 -1.0580904e-02
 -6.7203298e-02
 -6.3832082e-02
  1.1611858e-01
 -6.8937957e-02
 -1.5439310e-02
  2.5262978e-02
 -2.5533520e-02
 -1.1834843e-02
  5.3571969e-02
 -1.4684146e-02
 -8.8652179e-02
  2.6575176e-02
 -4.1436744e-03
  4.4318758e-02
  2.8225929e-02
  1.9984823e-02
  1.6966017e-03
  4.2221259e-02
 -4.2073615e-02
  5.7413369e-02
  2.4027761e-02
  3.0016532e-02
 -2.3581076e-02
 -1.5102606e-02
 -1.8568221e-02
  3.7783556e-02
  5.6710169e-03
 -4.1434668e-02
 -6.8241786e-03
  7.1654424e-02
  2.0442061e-02
  4.0153049e-02
 -7.6663986e-02
 -5.1472448e-03
 -4.4483975e-02
 -1.5629356e-01
 -4.9945459e-02
  4.9803909e-03
  6.7424327e-03
 -1.1300982e-02
 -1.0566935e-02
 -1.3196918e-02
 -2.1674453e-01
 -1.4480164e-02
 -2.1909937e-02
 -5.2643853e-01
  8.7828316e-02
 -5.3974724e-01
 -1.1659672e+00
  2.7296964e-02
  2.3180848e-02
  1.3321327e-01
  8.4502138e-02
  8.4041476e-02
  2.6883146e-02
 -2.6438562e-02
 -1.3627505e-02
 -1.3174495e-02
  2.3761347e-02
  6.7191906e-02
 -1.5390827e-01
 -1.8023330e-01
 -1.2251339e-03
  5.4399468e-02
  2.3813358e-01
 -6.4602360e-02
 -2.0215070e-02
 -1.2435858e-01
  5.3179793e-02
 -3.3638419e-03
 -3.0299034e-02
 -4.4631641e-03
 -2.6102632e-01
 -7.9993121e-02
  6.4795516e-02
 -1.3194075e-01
 -8.5369575e-01
  3.5033461e-01
 -8.9351654e-02
  3.7890758e-02
  2.3795286e-01
  7.5492725e-02
 -8.0361947e-02
  2.6103052e-01
 -5.4289135e-03
 -4.2042613e-02
 -2.0054637e-02
 -2.1769457e-02
 -8.7440655e-02
  1.6000019e-01
 -1.2063731e-01
  1.3022184e-01
  1.7815042e-02
 -1.3940503e-01
 -1.4905091e-03
 -1.9427791e-02
 -4.5435391e-03
 -2.7006868e-02
  5.5991825e-02
  2.4079552e-02
 -3.9792418e-02
  1.8010791e-02
 -5.2167005e-03
  4.0161628e-03
 -1.1317831e-02
 -6.8915442e-02
 -8.4752217e-05
 -5.2938674e-02
 -3.7157819e-02
 -7.0950679e-02
  3.6135023e-03
  5.6815811e-02
 -1.9359437e-03
 -3.7004702e-02
 -3.0471900e-02
 -7.5706812e-03
  2.7010560e-03
  1.1523332e-01
  1.4068136e-01
 -4.5389589e-03
 -3.2691576e-02
 -1.2483870e-01
  3.6439262e-02
 -1.4581735e-02
 -3.7653521e-03
 -2.0581903e-02
  6.1063658e-02
  2.8800213e+00
  6.0324460e-02
 -1.0825060e-03
 -7.9144859e-01
  2.0955924e-02
 -6.6470003e-01
 -2.2141635e-04
  7.1008317e-04
  3.6305197e-02
 -5.4807946e-02
  4.5160517e-02
 -1.6437590e-02
  5.1610586e-03
 -7.7808857e-02
 -8.0280051e-02
  3.4752429e-02
 -4.5632452e-02
  8.6026383e-04
 -6.1224129e-02
  3.7616491e-02
  6.0375549e-02
  5.1097404e-03
  9.8230880e-01
  1.0544200e+00
 -7.9403840e-02
  1.9826078e+00
 -1.0306598e-01
 -8.0727868e-02
  9.0864301e-01
 -2.1983464e+00
  1.2488197e+00
  6.6382933e-01
 -4.0522879e-01
 -3.9104876e-01
  1.5667975e+00
  1.6711812e-01
 -3.4636162e-02
 -2.4697680e-02
 -1.5063789e+00
 -4.7374764e-01
 -4.0848914e-01
  1.0042596e-01
 -3.8517401e-01
  1.5974207e-02
 -1.5599210e+00
  1.1233591e-01
 -3.7700090e-01
  6.0715746e-02
  5.7824124e-02
  4.7952861e-02
 -2.7553391e-02
  4.1303709e-01
 -1.0240856e-01
 -7.4764049e-01
  2.7486553e-02
  3.2602448e-02
 -2.5334212e-01
 -1.1233792e+00
  6.3805655e-02
 -1.0334388e+00
 -8.8656053e-02
 -6.6644713e-02
  1.0235980e-02
  2.0997401e-02
 -4.8718685e-03
 -4.1676971e-01
  4.9423650e-03
 -2.1673848e-03
 -9.2526134e-03
 -7.2053764e-03
 -8.5336659e-03
 -1.5766773e-01
  2.1092325e-02
 -3.3393588e-02
  5.5532688e-01
  3.2319561e-02
 -6.7018998e-01
 -6.9638528e-02
 -2.1025114e-01
  7.9860622e-01
 -6.1456633e-01
 -4.3530367e-02
  1.1975097e-02
  1.8567808e-01
  5.0387219e-02
  1.1195486e-01
 -1.1764761e-03
  2.2047065e-01
  2.0362774e-01
 -6.7611057e-01
  3.8280475e-01
 -4.5066696e-02
  4.0515837e-01
  5.0140679e-01
  1.0909243e-02
  7.4084021e-02
  7.0961565e-02
  5.9879464e-01
  4.3710139e-02
 -2.2878917e-01
  7.4056864e-02
 -7.0045628e-02
 -2.3440473e-02
 -4.1550100e-01
  1.1880777e-02
 -8.1081897e-02
 -5.2958678e-02
 -5.7361090e-01
 -4.1535091e-01
  1.7634249e-01
 -4.0369742e-03
  2.6151631e-02
 -7.3775604e-02
  3.3130860e-01
 -8.6767510e-02
  2.0769344e-01
 -1.1833205e-01
  1.1069551e-02
  2.8576675e-01
  2.7417785e-02
  1.9572467e-02
 -1.7855415e-02
 -2.4088033e-02
 -7.1945703e-03
 -9.9326260e-02
 -4.6987422e-02
 -8.1207491e-02
 -1.0564718e+00
  1.6660544e-03
 -4.3501547e-01
 -2.3107712e+00
  4.3013605e-01
 -3.8761128e-02
  1.1605525e+00
 -3.8819614e-01
 -2.6368201e-01
  2.1411262e+00
 -2.5854522e-01
  1.7740896e-01
 -9.2121057e-02
  7.4932193e-03
 -8.0283087e-01
 -7.5945383e-01
  3.7176568e-02
 -4.0064175e-02
 -4.8876433e-03
  1.8741047e-01
  9.9924499e-01
 -5.8688974e-01
  5.7133418e-01
  1.5020670e-01
  1.5301934e-02
 -9.4683808e-01
 -4.7545531e-01
  1.1529423e+00
 -1.7973219e+00
  1.1593510e-01
  5.9299862e-01
 -5.6130713e-01
 -3.9141777e-01
 -1.5067977e+00
  2.2242947e-01
 -2.1527451e-01
 -1.5440579e-01
 -8.7810796e-01
  2.8145456e-01
  5.0771004e-01
 -9.9000025e-01
  1.3618044e+00
 -2.4572325e+00
 -2.5769577e+00
 -6.7651123e-01
  1.0100713e-01
  2.7267762e-02
 -4.1930175e-01
 -5.1000763e-02
  2.8444018e-02
  4.5521062e-02
 -4.0379100e-02
  1.1083261e+00
  2.0631067e-02
 -3.7238915e-02
 -4.0161848e-02
 -7.0570052e-02
  2.0486403e-02
  3.2144230e-02
  1.5629759e-02
  4.1716304e-03
  6.0843788e-02
 -8.3378544e-03
  6.4287126e-02
  1.7575566e-02
  3.2265722e-03
  5.5629625e-03
  1.5516147e-02
 -4.5044940e-02
  5.0383925e-02
 -2.4548106e-02
 -9.5347194e-03
 -1.6434141e-03
 -1.3627321e-02
  1.8549670e-02
  2.1470295e-02
  2.8257428e-02
 -5.1942080e-02
 -7.2660968e-02
  9.2361823e-02
  4.2391073e-02
  1.7422579e-02
  9.9586248e-03
  2.2172486e-02
 -2.9655902e-02
 -1.6859375e-02
 -5.1793791e-02
  2.5100377e-01
 -5.2299373e-02
  1.9930830e-02
 -6.8962120e-02
  2.6032407e-02
  1.4481100e-02
 -2.7235001e-03
 -1.2079682e-02
 -4.9852245e-02
 -1.1957181e-03
 -5.2832823e-02
  6.4135413e-03
  1.0946922e-01
  1.5514011e-02
  5.3841531e-02
  1.4449367e-02
 -3.9860688e-02
 -1.2210239e-02
  6.2003578e-03
 -1.2128785e-02
  2.2337342e-02
  6.6910940e-03
 -2.7525617e-02
  1.7326931e-02
  1.1750097e+00
 -7.5152028e-01
 -7.7251226e-01
  1.2516238e-01
  1.1266220e+00
 -1.5676181e-01
  1.4448069e-02
  9.8419505e-01
  1.1625708e+00
  3.1825578e-01
  2.1698549e-02
 -5.4028243e-02
  1.5089811e-01
  1.5095315e-02
 -1.1653821e-01
 -1.5508506e-01
  6.8019670e-01
 -1.1018508e-01
 -6.4289555e-02
  5.1139787e-02
 -2.6176161e-01
  2.5067708e-01
  3.7179247e-01
  4.4928139e-01
 -2.2257957e-01
  1.8714049e-01
  1.8100286e-01
  2.5108668e-01
  1.4464496e-01
  9.3749255e-02
 -2.9462667e+00
  1.4284715e-01
  4.9537089e-01
  1.0595726e+00
 -8.1192665e-02
 -2.1647031e+00
  1.3542272e-01
  1.4172987e-02
  2.2086723e-01
 -2.5693005e-01
  3.5696292e-01
 -3.5144652e-03
  6.6322792e-01
 -1.3747085e+00
 -7.1398741e-01
 -2.5497377e-02
  1.3803491e-02
  4.9625613e-02
  5.6601182e-02
 -1.5373784e-01
  2.1407164e-03
  4.0607321e-01
  2.7800044e-01
  1.4256528e-02
  6.4584807e-02
  2.5641579e-02
  3.3892162e-02
 -2.9124144e-02
  4.0497947e-02
 -1.5806401e-02
  8.8764168e-02
 -1.7689910e-02
  5.2891880e-02
  8.8534154e-02
 -1.7294805e-01
 -2.3007076e-03
  1.6284950e-02
  1.2333745e-01
 -8.5138455e-03
 -8.3409943e-02
 -1.0378736e-02
  2.3919351e-02
 -1.9917041e-02
  2.1574924e-02
 -3.5384011e-02
  4.6969753e-02
 -1.6678344e-02
 -5.3175647e-02
 -9.5459938e-02
  3.6419246e-02
  2.6469307e-02
  2.5102538e-03
 -5.0239933e-01
  8.6233430e-02
 -1.4386266e-02
  3.5922114e-02
 -1.0508102e-01
  4.6177808e-02
  4.9093452e-01
  6.5048546e-01
  4.7463202e-03
  6.4682126e-02
  1.2674460e-01
 -1.5407624e-03
 -1.2528588e-02
 -1.2173363e+00
 -9.7175315e-04
 -4.1407528e-03
 -8.2228091e-03
  1.1589440e-02
 -1.5955038e-01
 -2.4115432e-02
 -6.9583379e-02
 -1.5805162e-02
  1.8346122e-02
  2.7345428e-02
 -3.9797269e-02
 -1.0023190e-02
 -1.1075287e-02
 -1.1490056e-01
 -7.6772714e-01
  1.6177548e+00
  2.8139034e-02
  9.8091471e-01
  1.8945453e+00
  4.6859045e-02
 -1.6367838e-01
  2.9533848e-02
  3.2514590e-01
 -1.3368335e+00
  6.4995265e-01
 -1.2146771e+00
 -2.2630492e-02
 -1.0438543e-02
 -1.5535630e-01
 -8.2878757e-01
  1.1841385e-02
  9.5026135e-01
 -6.0816046e-02
  9.4168549e-03
 -6.0494429e-01
 -1.6914056e-01
  5.6964821e-01
  3.8939360e-01
  2.2492969e-01
 -1.5512953e-02
 -6.7973691e-01
  3.1347001e-01
 -1.7998050e-01
  1.1801233e+00
  1.0303146e+00
 -1.0901141e+00
  7.7431035e-01
  1.0554827e-01
  1.0076373e-01
 -1.0706408e-01
 -2.2756183e-01
 -3.8611126e-01
 -1.2253096e-01
  3.7441993e-01
 -2.5266787e-01
 -1.4001915e+00
  4.5147114e-02
  8.2312918e-01
  1.1624957e+00
 -1.6661627e-02
  2.7718896e-01
  7.5972542e-02
  1.2686592e-02
  6.2381256e-01
  1.0204634e-01
  3.8836542e-01
  6.5732829e-02
 -2.9971504e-01
 -1.4995189e+00
  1.2820545e-01
  4.0551629e-02
 -1.6266738e-01
  2.6782569e-01
 -1.8679639e+00
 -1.7112231e-01
 -1.2589649e+00
 -4.8885606e-03
  2.0763237e-02
 -7.5416028e-01
 -6.4652510e-02
 -1.6298037e-02
 -2.1084768e-01
  4.8965313e-03
 -2.4875408e-02
 -7.1995921e-02
  7.1150206e-02
 -9.7985339e-01
 -7.8717661e-01
 -8.7847106e-02
  3.6731660e-03
 -1.1814333e+00
 -1.1880819e-01
  2.6624507e-01
  4.0967774e-01
  3.4677524e-02
  4.9618104e-01
  8.1190288e-01
  1.4430837e-03
  4.7736672e-01
 -1.9558422e-02
 -5.9291095e-01
 -2.5040624e-01
  1.1205684e-01
 -7.9381401e-03
  2.8332397e-01
  2.3905627e-02
  2.4134670e-01
 -3.8007835e-01
 -2.6096547e-01
 -3.3461880e-02
  2.2256084e-01
  1.4998951e-02
  6.3758965e+00
  1.1037685e+00
 -9.9500734e-01
  8.8958210e-01
 -4.7676113e-01
 -3.8992414e-01
  3.0081388e-01
  1.5100331e+00
 -5.8524227e-01
 -3.1151071e+00
 -7.4256018e-02
  2.4380589e+00
  6.4651066e-01
  1.9516632e-01
  1.3347834e+00
  2.8529412e-01
  3.8698670e-02
 -2.4986336e+00
 -1.6782120e-01
 -6.8416834e-02
  1.6296203e+00
 -2.5069418e+00
 -1.6956617e+00
  1.3595835e+00
  2.6369345e+00
  8.1162858e-01
 -5.6032878e-01
  6.8079036e-01
  8.3845007e-01
  1.0692135e-01
 -3.0389576e+00
  6.0920846e-01
  2.1283847e-01
 -8.0294318e-02
  2.0127185e-04
  1.5987574e+00
 -9.2558205e-01
 -9.9619955e-01
 -6.9546199e-01
  8.0457705e-01
 -1.0875657e+00
 -8.4412807e-01
  1.4497690e+00
  2.0698869e+00
 -7.0450038e-01
 -9.6796632e-01
  7.4020630e-01
  6.6436328e-02
  2.7429619e+00
 -4.1214105e-01
 -2.2253208e-01
 -1.5825516e+00
  7.7798530e-02
 -2.7098465e-01
 -3.0425363e+00
 -1.8051586e+00
  1.0987213e+00
  4.6329755e-01
 -1.6745359e+00
  2.0816097e+00
  9.1809846e-02
 -1.7981313e+00
 -4.9214199e-01
  1.3292121e+00
  4.2876759e-01
  1.7156552e-01
 -1.6441112e+00
  1.8527163e+00
 -2.0885333e-01
  8.6976454e-02
  1.0151181e+00
  9.5130873e-01
  9.5891178e-01
  1.0189226e+00
  1.3281790e+00
 -8.6489922e-01
 -1.2388271e+00
 -1.4810586e+00
  4.7768506e-01
  1.4230525e+00
  2.2064755e+00
  1.4132960e-01
  2.9007452e+00
  3.1459472e-01
 -3.0640097e+00
  2.2740066e+00
  8.7597322e-01
  1.2085491e-01
  2.9188916e-01
 -1.3988748e-01
 -1.2857130e+00
 -5.5752951e-01
  1.1121084e-01
  1.5732781e+00
  5.2182019e-01
  1.4963467e+00
  1.0753242e+00
 -5.6306876e-02
 -3.0716760e+00
  1.1773310e+00
  3.3488375e-01
 -1.5108095e+00
 -2.6300714e+00
  2.3969038e+00
  7.6242214e-01
 -2.9912853e-01
  1.3904493e+00
  4.2990512e-01
 -7.5446390e-02
  8.6601615e-01
 -2.1161208e+00
 -2.2587047e+00
 -2.5937016e+00
  2.0568631e+00
  5.7138407e-01
  1.2224975e+00
  1.3982154e+00
  1.3372291e+00
 -1.0114808e+00
 -1.0227751e+00
 -4.6371734e-01
  1.3844663e+00
  1.6415829e-02
 -2.1468005e+00
 -4.5717394e-01
 -1.4644611e+00
 -7.1327633e-01
  5.9442347e-01
  1.0065382e+00
  5.7901931e-01
 -5.5225217e-01
  1.5516976e+00
  4.3766747e+00
 -1.4891596e+00
  1.7255654e+00
  8.7349308e-01
 -1.8895606e+00
  1.9209296e-01
 -3.3428094e-01
 -1.6382164e+00
  7.4360475e-02
  1.9980688e+00
 -8.5911918e-01
  3.7307155e-01
  4.8278016e-01
 -2.4055450e+00
  2.1063762e+00
 -1.7050063e-02
 -2.2368648e+00
 -2.7804680e+00
  3.1488531e+00
  3.0829406e+00
  4.8946837e-01
  2.9584923e-01
  6.2349999e-01
 -1.1192452e-02
  5.8844876e-01
  2.6880455e-01
 -1.2248580e+00
  2.4264190e+00
 -1.5471680e+00
 -2.8194742e+00
  2.5875816e+00
  1.0638932e+00
 -2.5559132e+00
 -1.0195081e+00
  1.8877034e+00
  3.2938650e-01
  2.2525857e-01
  4.6263289e-01
  2.3886780e-01
  2.1932611e+00
 -2.4142780e+00
  8.8775915e-01
  1.3586655e+00
 -4.2733288e-01
 -3.7184361e-01
  1.8883761e+00
  2.2159224e+00
 -1.7589083e-01
 -1.4197986e+00
  3.2790151e-01
 -8.3299793e-02
  1.3059093e+00
 -7.6172762e-03
 -1.2961680e+00
  2.1350040e+00
  2.6156741e-01
 -6.2700994e-02
 -1.8877277e+00
 -1.9241443e+00
  1.1067454e+00
 -9.4769865e-01
  4.1076097e-01
 -2.0566876e-01
  1.0630300e+00
 -1.0738397e+00
  4.6885151e-01
 -1.1130797e+00
  4.1511080e-01
 -3.3935697e+00
  7.5040680e-01
  9.5788074e-01
  9.5537072e-01
  5.5661654e-01
 -9.3567491e-01
 -3.9577106e-01
 -1.0652239e+00
 -5.8748204e-01
 -2.3663771e-01
 -2.2462736e-01
 -5.7315249e-03
 -1.1767781e-01
  8.1142515e-01
 -3.2090727e-02
  6.9361043e-01
 -2.4456937e+00
 -2.1035659e+00
  2.2105925e+00
  2.9232347e-01
 -1.2127831e+00
  7.6476586e-01
  1.2173088e+00
  8.8136113e-01
 -6.6700296e+00
 -7.8586769e-01
 -1.2889546e-01
 -1.2683382e+00
 -1.5550718e+00
  2.6205080e+00
  1.8618952e+00
  1.7224684e+00
  4.3356366e-02
 -1.4081740e+00
 -3.6737257e-01
  3.2876916e-02
  3.2876916e-02
  3.2876916e-02
  3.2876916e-02
  3.2876916e-02
  3.2876916e-02
  3.2876916e-02
  3.2876916e-02
  3.2876916e-02
  1.1229545e-02
  1.1229545e-02
  1.1229545e-02
  1.1229545e-02
  1.1229545e-02
  1.1229545e-02
  1.1229545e-02
  1.1229545e-02
  1.1229545e-02
  6.6791819e-03
  6.6791819e-03
  6.6791819e-03
  6.6791819e-03
  6.6791819e-03
  6.6791819e-03
  6.6791819e-03
  6.6791819e-03
  6.6791819e-03
  7.6475670e-03
  7.6475670e-03
  7.6475670e-03
  7.6475670e-03
  7.6475670e-03
  7.6475670e-03
  7.6475670e-03
  7.6475670e-03
  7.6475670e-03
  5.1768012e-03
  5.1768012e-03
  5.1768012e-03
  5.1768012e-03
  5.1768012e-03
  5.1768012e-03
  5.1768012e-03
  5.1768012e-03
  5.1768012e-03
  1.6870151e-03
  1.6870151e-03
  1.6870151e-03
  1.6870151e-03
  1.6870151e-03
  1.6870151e-03
  1.6870151e-03
  1.6870151e-03
  1.6870151e-03
