nep3 2 Ga O 
cutoff 8 4 234 30
n_max 8 8
basis_size 8 8
l_max 4 2 0
ANN 50 0
  5.8028623e-02
 -5.8478141e-01
 -2.9890287e-01
 -1.8024669e+00
  4.3456802e-01
 -1.9543504e-03
 -1.0090406e+00
 -1.5366209e-01
 -5.6527567e-01
  2.5972944e-01
 -1.2371592e-03
 -8.4151782e-02
 -4.8440346e-01
  3.2874368e-02
 -3.7290175e-02
  9.0294337e-01
 -4.4805282e-03
 -9.8475538e-02
  1.7170823e-05
  8.3127439e-01
 -1.3929127e-01
  2.4907398e-01
  4.8697707e-01
  2.9752475e-01
  1.0593745e+00
 -5.1360086e-02
 -6.4404649e-01
 -4.2368843e-05
 -3.0400013e-05
  3.6692341e-05
  3.3110565e-01
  8.9068282e-01
  3.6721383e-05
  6.1596376e-01
  3.2270736e-01
  1.6600341e-02
  8.7494731e-01
 -9.2981160e-01
  1.4494141e+00
 -1.3190669e-01
  1.8301482e-01
  3.2237207e-05
  7.7089870e-01
  4.9261338e-01
 -1.2772025e-04
 -3.2373144e-05
  1.9822882e-02
 -8.9857286e-07
  6.4912024e-07
 -2.2644585e-04
  2.5698438e-01
  3.7132484e-06
 -2.1678869e-05
 -2.9365111e-03
 -1.7402829e+00
  1.7621092e-01
  8.1479743e-02
  6.0949060e-03
  4.3799102e-01
 -1.4647497e+00
 -1.1115273e+00
  1.1656142e-01
  1.4757952e-01
 -5.9377015e-01
 -8.0437952e-01
  1.5883595e-03
 -6.5997043e-03
 -2.1253265e-01
 -7.1871709e-06
 -5.6872749e-01
  2.8729513e-01
 -3.4523174e-07
 -1.5113202e-01
 -6.4757927e-03
 -4.0364139e-06
 -1.2735412e-02
 -9.0409185e-06
  2.0129712e-04
 -9.9206949e-03
  3.4024672e-06
 -1.0172147e-03
 -6.7397547e-01
 -5.3158003e-01
 -1.2321104e-01
 -8.7267143e-01
  5.1526447e-05
 -3.6097327e-01
 -2.8389735e-05
  1.3493525e-04
  1.7603397e-05
  3.0485014e-06
 -1.2726357e-05
  2.4780084e-04
  7.8953053e-07
  2.1442520e-03
  1.7749088e-01
  2.2751552e-01
  1.8566392e-01
  3.0504056e-05
 -1.1592041e-04
 -2.2159573e-01
  2.1694323e-04
  6.8645182e-05
 -3.5236317e-05
  1.8181259e-05
 -8.2488114e-06
  9.3405099e-05
 -9.3692379e-06
 -4.9663860e-01
 -1.8209851e-06
 -5.1206857e-01
  8.8341993e-01
 -5.6722224e-01
 -8.8188708e-01
  5.0048292e-01
  8.6605674e-01
 -9.0624440e-01
  7.5402290e-02
  1.2406871e-01
  3.5218811e-06
  5.8814150e-01
 -7.2326267e-01
 -1.1473597e+00
  2.5661537e-05
 -3.1543050e-02
  7.7740234e-01
 -3.4887967e-01
  9.8400551e-01
  2.9367875e-05
  1.0813370e-01
  3.0092593e-05
 -6.7425233e-01
 -2.2675429e-01
 -3.1925152e-05
 -1.5003582e-02
  3.5965946e-01
 -5.4301471e-01
  2.8120798e-05
  1.3540848e+00
 -1.4684097e-01
 -2.3582717e-02
  2.9701252e-05
 -2.9557955e-01
 -2.1299480e-01
  4.9100723e-05
  1.4734875e+00
  2.9880047e-04
 -6.9734313e-02
 -5.1451439e-01
 -4.0856838e-02
 -6.2228709e-01
 -1.1828425e-01
  8.0314812e-06
 -2.1211265e-01
  3.6383143e-01
  2.8955450e-05
  2.5449179e-02
 -3.1868117e-06
 -4.1616531e-05
  3.1702177e-05
  7.3247861e-06
  1.5725998e-05
 -3.4448442e-01
  2.5086507e-01
 -1.3206577e+00
  4.5452330e-01
  9.1355550e-01
  8.1697387e-01
 -1.2342094e+00
 -5.0237656e-01
 -7.7615505e-01
  1.4071073e-06
  2.6572147e-06
 -1.0476002e+00
 -1.1127190e-01
  6.5378374e-01
  8.0845850e-05
 -5.8240503e-02
  1.8604106e-04
 -5.4255450e-01
  1.2283114e-05
 -1.9746402e-01
  4.9633760e-02
 -2.0797233e-01
  1.4175161e-05
 -5.2250569e-05
 -1.9601703e-05
  5.9901828e-05
  3.0443895e-01
 -4.1456033e-06
 -6.9588891e-06
 -1.9320483e-05
  8.5857518e-02
 -1.5283784e-05
  7.7478171e-06
  1.2724208e-02
  3.1085903e-05
  6.2406402e-06
  1.9565823e-06
 -3.1012478e-01
  1.9978320e-06
  1.4818194e+00
 -3.3525854e-02
 -2.5908976e-06
 -4.4198617e-02
 -2.3755174e-04
  1.8879629e-05
 -1.7745162e-05
  5.4076241e-07
  6.8877662e-06
 -7.9930351e-06
  9.2715209e-07
 -1.2335136e-08
 -1.4830387e-05
 -1.9677882e-06
  3.9460461e-05
  4.3587220e-01
 -8.2854116e-01
  1.2644253e+00
 -7.3113298e-01
 -8.2412040e-01
 -4.2645678e-01
 -3.9854211e-01
 -2.8471237e-01
 -1.9599910e-01
 -3.4513704e-02
  3.8058389e-02
 -8.1989139e-01
  5.6192309e-02
 -3.8584724e-01
 -1.3379745e-01
 -1.4275695e-01
  1.5782106e-01
  8.5213318e-02
  3.7681898e-01
  1.0433303e+00
 -4.9722680e-01
 -1.8135186e-01
 -7.2633189e-01
  4.9458462e-01
  5.4364108e-02
 -9.9099082e-01
  2.4311267e-01
  5.2237171e-01
  1.1594429e+00
 -1.0153211e+00
  1.5066998e+00
 -1.0804919e+00
 -7.0472211e-01
 -9.1978359e-01
 -6.0957417e-02
 -2.5952662e-07
 -2.3640767e-01
  8.9493853e-01
 -1.4296873e-01
  2.0823970e+00
 -6.4213574e-01
 -3.9056256e-01
 -1.2274443e+00
 -8.5171267e-02
  5.9317324e-05
 -7.3404104e-01
 -4.5053235e-01
  4.7599423e-01
  7.1306980e-01
  4.5048484e-05
 -2.2698862e-06
  3.6206616e-06
  9.7829114e-05
  8.7220706e-06
  4.5038804e-02
 -2.4575953e-01
 -8.9532626e-01
  5.6425482e-01
  1.1422635e-02
  1.3835098e-01
  1.2982963e+00
 -1.4662259e+00
 -2.3684728e-01
  1.8132001e-01
 -1.2283162e-01
 -2.0434879e-01
 -3.5881680e-02
 -2.9461893e-01
 -1.9777893e-01
 -1.0961745e-01
  1.5950692e-01
  8.2347058e-02
  3.3568963e-02
  6.7159253e-01
 -1.2977763e+00
  2.2489619e-03
  1.2147738e-01
 -5.0785527e-02
 -1.3732624e-03
  3.1551519e-01
 -2.4134067e-01
 -5.7343209e-01
  6.5641719e-01
  1.1980310e-02
  4.3891765e-02
 -4.5351958e-06
 -8.0396897e-01
  1.2908025e-02
 -2.6186641e-02
 -4.3941683e-01
 -4.2313168e-06
 -1.3002305e-04
 -1.6270424e-01
 -1.8275890e-01
  1.8511439e-05
 -1.0968787e-03
  3.6930077e-02
  1.5589279e-01
 -4.4341821e-05
  2.8937170e-01
 -1.4127152e-02
 -1.0578384e-05
 -8.3533250e-02
 -1.9303943e-01
  3.4369257e-01
 -2.6873829e-06
  7.8732864e-06
  3.5578595e-04
 -1.3968130e+00
  3.8142931e-01
 -1.3431606e+00
  7.7557373e-01
  2.1821311e+00
  1.0327576e-01
  6.2260342e-01
 -5.3371513e-01
  1.1735858e+00
 -6.8262744e-07
  5.3964895e-06
  1.2646827e-05
 -8.2102088e-06
  1.7196000e-01
  1.0448328e-04
 -1.5993794e-05
  5.8382275e-06
 -4.4450640e-05
  7.9144371e-07
  1.7566954e-05
  1.2572382e-01
  5.0556134e-02
  3.3949404e-05
  7.7469940e-06
  1.0013924e-05
 -2.4738076e-05
 -2.8610302e-06
 -3.1703869e-06
  1.4946832e-01
  1.3043004e-04
  4.2510284e-05
  1.7611805e-05
  9.8561923e-06
  1.8716559e-05
  8.3634131e-06
  2.7903727e-06
 -2.4038829e-05
 -2.0987163e-05
 -3.0855525e-05
 -2.7757131e-05
  3.6335765e-05
 -3.6038745e-02
  9.6187294e-05
 -1.3455766e-04
 -1.8538836e-05
  8.7122016e-06
 -8.3196155e-06
 -2.2392804e-05
  4.0388844e-05
 -2.6348794e-06
  6.7310862e-06
  2.3462239e-06
  4.4870467e-06
 -1.5622778e-05
 -1.3430824e-06
 -9.6109306e-06
  2.1520702e-06
 -1.1228516e-05
 -1.3824103e-05
 -2.4884682e-06
  2.5637140e-05
 -1.6344206e-05
  2.5629354e-06
 -3.8839848e-06
 -1.4036954e-06
  9.0934009e-05
  1.1853764e-05
 -5.5169326e-06
  7.4934605e-06
 -7.7903505e-06
 -1.4767765e-05
  1.5766945e-04
  2.7589122e-06
 -3.5869316e-09
 -1.0261115e-04
 -2.8035394e-05
 -8.1372150e-07
 -4.9676248e-07
  1.5870206e-05
 -4.6628538e-06
  9.2514201e-06
 -1.2313325e-05
  1.0454225e-05
 -5.4560819e-06
  4.2913183e-07
  3.3903866e-06
 -1.4330436e-05
  2.4496640e-05
 -1.7572400e-05
  9.7899820e-06
 -1.4073602e-06
  1.8263518e-07
 -2.2582655e-05
 -1.7424696e-05
 -6.7637287e-05
 -1.7593934e-06
 -1.3012413e-05
 -2.0599107e-05
 -1.0560853e-05
 -1.5190951e-05
 -3.5305279e-06
 -2.0439373e-05
  4.0405098e-06
  2.7618460e-05
  2.8987515e-06
 -1.7444763e-06
 -7.2730127e-06
 -3.6698475e-05
  1.8548230e+00
  6.8404287e-01
 -2.8188100e-01
 -1.1416012e+00
  1.6064333e+00
  9.5025980e-01
  7.3647422e-01
  1.2674747e+00
  1.6811904e+00
  4.3987883e-03
 -2.1242058e-01
 -2.4395023e-02
 -3.5102943e-01
  4.3499053e-01
 -2.9782242e-01
  1.4696512e-01
 -2.3096503e-01
 -7.7102214e-01
  2.8877210e-02
 -1.5312710e+00
  9.4859958e-01
 -5.9236658e-01
 -2.1983294e-01
  1.1527684e-01
  6.8617642e-02
 -3.7556705e-01
 -1.5366966e+00
 -2.0242198e-01
 -2.0040770e+00
  8.6443019e-01
 -9.1672510e-01
 -1.4257520e+00
  7.2376534e-02
 -4.1125462e-04
 -1.4091569e-01
 -4.9087921e-01
 -1.3492387e-04
 -6.0498011e-03
  6.6010594e-01
 -2.2377758e+00
 -7.6068389e-01
  8.6764142e-02
 -5.3517241e-02
  2.8393072e-01
  7.8514668e-06
  4.4467586e-01
  6.7688540e-02
 -3.1364760e-01
 -1.2980488e-01
 -1.9042276e-01
 -4.5465806e-01
  2.9240561e-01
 -7.6766446e-06
  4.0132788e-01
  5.6236964e-05
 -5.3897920e-06
 -1.5155536e-05
  4.1561823e-05
 -4.0666338e-05
 -1.2156498e-04
  2.0922302e-05
 -6.8645904e-06
 -2.4842602e-04
  7.7437226e-06
  2.7735969e-06
 -6.7231081e-06
  2.1606777e-06
 -4.7216326e-05
 -8.2471815e-05
  1.5181045e-05
 -1.7456116e-05
  4.5672564e-06
  1.6971924e-06
  8.3159997e-05
  5.5401176e-07
 -3.3011054e-06
  6.3196180e-06
 -1.2306188e-05
  2.7901742e-06
  1.5778678e-05
 -2.1570986e-05
  2.8572334e-05
  6.5119839e-06
 -1.4152125e-05
  5.8889459e-06
  1.1866951e-05
  1.0826176e-05
 -1.6666173e-06
  9.5350306e-06
  4.2580718e-06
 -1.6690950e-06
 -3.8015962e-05
 -4.5423844e-06
 -2.5725335e-06
 -1.4774312e-05
 -4.6356745e-05
 -3.7033524e-06
  6.8976583e-06
 -1.0770857e-05
  3.4778044e-05
 -3.1169247e-06
 -1.8548411e-05
  1.7408593e-05
 -1.0927015e-05
  3.3747725e-05
  4.9256545e-05
  2.5274247e-07
  9.3706250e-05
 -1.0920867e-01
 -8.0474012e-04
  5.4758483e-01
 -8.6875796e-02
  5.0270790e-01
 -1.2929454e-01
 -1.6156361e-01
  5.2280658e-01
  6.0644251e-01
 -1.3941681e-01
 -6.1924529e-01
 -1.0751668e-01
 -1.6019729e-01
 -2.6174688e-01
  5.3168450e-02
  1.6115999e-02
  6.2425965e-01
 -1.3216856e-01
  2.2934690e-01
  6.2580973e-01
  2.3282130e-01
  4.6092364e-01
 -1.6074207e-01
 -4.6434116e-01
  6.1689592e-03
  8.6994434e-04
 -5.3894552e-03
  6.9727266e-01
  4.7578622e-02
  3.7394735e-01
  7.1137190e-01
 -2.1718800e-01
 -1.5589982e-04
  7.2534746e-03
 -1.6549946e-01
 -7.3462101e-03
 -2.2301252e-01
  2.4723504e-05
  9.3518665e-06
  3.9478369e-02
 -2.4018826e-01
 -5.3398050e-02
 -5.7469463e-01
 -2.2070247e-01
  1.3717424e-04
 -1.0409594e-06
  6.4852647e-02
  1.7048513e-05
  1.1351111e+00
 -8.9274617e-06
 -8.7606106e-03
  9.9274715e-05
  6.1710864e-07
  3.2029163e-02
 -4.7445396e-06
  5.1864140e-06
  3.2189903e-06
  8.1397175e-06
  4.8862321e-06
 -1.6110926e-06
 -3.2472774e-06
 -4.1148385e-05
  9.3501749e-06
  5.7946604e-06
  3.2015756e-05
  4.0798445e-06
 -8.1587177e-07
 -4.1148232e-06
  2.4757499e-05
 -6.6743225e-05
  7.8048091e-05
  2.1778651e-07
 -1.8509246e-04
 -2.1079848e-05
 -4.9402515e-05
  1.5916081e-05
 -6.6037965e-06
 -6.1505707e-06
 -1.4625764e-06
  2.3295670e-05
  2.0733734e-05
  3.1995543e-07
 -6.3090147e-06
  2.9466842e-06
 -1.5863573e-06
 -2.2806496e-06
  7.2055600e-06
 -1.6515085e-05
 -5.3006488e-06
  1.1564969e-04
  1.4014748e-05
 -1.9719851e-06
  8.8904130e-07
 -2.6535338e-06
  2.8202190e-05
  1.6319216e-05
 -5.0542371e-06
  3.3041266e-05
 -3.9304461e-05
  1.4632819e-05
  1.8161730e-06
  3.7267400e-06
 -2.7901513e-06
  3.3491906e-05
 -1.4494768e-05
 -5.1819324e-04
 -1.6654847e-05
 -1.3464160e-08
 -5.1715208e-05
 -8.0600494e-06
 -1.0797682e-04
 -3.0665403e-06
 -1.6012335e-04
  1.2201433e-04
 -9.5799714e-06
  4.5382330e-04
 -1.7832754e-05
  1.6414629e-05
  2.0958287e-05
 -1.5481388e-05
 -7.2554844e-06
  3.1433142e-06
  2.4680912e-05
  1.1434734e-04
  1.0149841e-05
  5.8797118e-06
 -1.2796848e-05
 -2.4664967e-05
  4.5741990e-06
 -3.3785207e-06
  7.1878254e-05
  5.1353738e-05
  1.1066183e-05
 -2.7608269e-06
  4.1539415e-06
  2.2561942e-05
 -2.1186597e-06
  7.1077011e-09
  2.7730142e-05
  7.4266304e-06
  6.0965253e-06
  1.5330543e-05
  2.1613600e-05
  6.0345968e-07
  3.5343397e-05
  6.5145823e-06
  5.7486322e-06
 -1.8606544e-05
 -5.0477734e-06
  1.9362149e-06
 -1.5459946e-05
  5.9771146e-06
  3.5891840e-06
 -6.9092434e-06
  1.9901172e-06
 -7.5229048e-07
  7.7993873e-06
  5.6398285e-06
  1.9803949e-05
  1.0017802e-06
  2.1107530e-07
  1.4779886e-05
 -2.4595578e-01
 -7.6737924e-06
 -4.3109655e-02
  9.5657830e-05
  5.8739966e-01
  1.8710282e-01
 -2.2020106e-01
  6.7419320e-02
  2.6898786e-01
  5.8869887e-06
  1.6931355e-05
  3.0784015e-06
  2.4450219e-05
 -3.5888363e-02
 -1.1305807e-04
  1.7976757e-06
 -4.8503585e-05
 -1.4610768e-05
 -5.6080944e-06
 -5.4500110e-06
  1.1610609e-05
 -3.0992349e-05
 -4.2717686e-05
 -1.7727474e-05
 -3.2073362e-06
  4.2369370e-06
  4.9613068e-06
 -1.9379715e-06
 -1.5758176e-05
  5.3787812e-06
 -5.8840860e-06
 -1.5689415e-05
 -6.0347320e-06
  1.3255337e-06
  1.7445320e-05
 -4.5658198e-05
 -1.9888696e-05
 -5.4201180e-05
  5.2990374e-05
 -6.8177434e-07
 -1.7479589e-02
 -1.0592365e-06
 -2.8536128e-05
  6.4093806e-06
 -7.0254532e-07
 -5.2234673e-06
 -4.8236116e-06
  6.8064496e-06
 -3.4133035e-07
 -3.2497931e-06
 -1.2073336e-05
  6.8301902e-06
 -3.0183770e-07
 -1.9379354e-06
  2.1543121e-02
  1.4709852e+00
 -1.2103541e+00
  8.8073500e-02
  9.1307037e-02
  1.8085064e-01
 -7.2289616e-02
  1.4483351e-02
  4.2079458e-01
 -1.3077687e-01
 -1.1632143e-01
  6.3739840e-06
 -2.5184351e-01
 -1.0871083e-01
 -8.6193226e-02
  1.2575909e-01
 -5.2130103e-01
 -3.8314222e-03
 -1.6068082e-01
  7.3051988e-03
  1.1537783e-01
  1.3739431e-01
  4.3807170e-01
 -9.0659451e-06
  5.9872405e-06
 -5.4348493e-03
  3.2812342e-02
  2.1549481e-01
  3.3000833e-01
  1.0578367e-05
  1.2061150e-01
  9.6412914e-05
 -4.5462240e-02
  1.4302043e-04
  4.7443852e-02
  3.9334055e-02
 -1.5213440e-01
 -7.0965602e-06
 -2.3894403e-02
 -1.9896688e-01
  4.9487787e-01
 -3.8575369e-01
  6.7558996e-02
 -2.2377051e-01
 -6.8889707e-02
  6.8906925e-06
 -4.7040167e-03
  1.4788612e-02
 -1.3063288e-01
  6.1948476e-06
  6.8060188e-03
 -5.3913230e-03
 -4.1214345e-05
 -3.7832817e-06
 -4.9062264e-06
 -9.3910678e-08
  6.7768515e-06
 -8.1530990e-05
  1.1103911e-05
  2.9471132e-05
 -3.8331477e-06
  2.8646550e-06
 -1.7998374e-05
  2.1459227e-05
  2.6717593e-05
  1.2112509e-05
  4.8289148e-06
 -1.8379862e-05
  2.1208984e-05
 -2.0583722e-05
 -2.7645221e-05
 -1.4465872e-05
  5.7571197e-06
 -6.9628140e-06
  1.8724973e-05
 -2.3207613e-06
 -1.2097338e-05
 -2.2249025e-05
 -1.1178432e-05
  4.8303687e-06
 -1.8241935e-05
  9.6442927e-06
 -6.1030725e-05
  1.2809534e-05
 -1.9178162e-05
  1.8597684e-05
 -6.8408790e-06
  6.9556759e-06
 -1.2499490e-04
  1.5185840e-05
 -1.7508091e-05
 -2.6226371e-06
  8.2601000e-06
 -9.2532537e-06
 -4.1874278e-05
 -6.6447697e-06
 -6.9067357e-07
 -2.5675447e-05
  2.2872142e-05
  2.1909720e-05
  8.4771937e-06
  1.4995900e-05
  5.4630596e-06
 -4.2625536e-05
 -9.7367438e-06
  6.9085049e-06
  2.8642291e-06
 -5.4159111e-05
  1.2380321e-01
 -1.6034258e-04
  9.1836154e-03
 -2.1957909e-03
  9.7498834e-02
 -3.0945584e-01
 -1.0638838e-01
  1.7766939e-01
  2.1379197e-01
 -7.1815409e-02
  6.2855156e-03
  7.0454471e-02
  1.9499110e-02
 -1.5616798e-02
 -6.7516230e-03
  4.6777193e-04
 -8.0912402e-03
 -2.1182459e-02
  7.8497633e-02
 -6.0109634e-02
  7.2209892e-05
 -3.6842590e-03
 -1.0511847e-01
 -4.4379425e-01
 -5.1931343e-03
  1.1937058e-05
  8.7550870e-04
  1.0934841e-01
  1.2129866e-01
  1.3986646e-01
  2.0347135e-02
 -7.0434254e-01
 -8.4645022e-03
 -1.1935550e-03
 -1.3175116e-01
 -2.3012937e-03
 -4.6929170e-05
 -8.4413734e-04
  2.7226801e-03
  1.5700734e-03
 -5.7734263e-01
  7.9354160e-03
 -5.6131464e-01
 -2.7957167e-02
  5.6252343e-04
 -5.2330725e-02
  1.1852505e-01
  4.6142075e-05
 -1.9152722e-01
  1.7457413e-02
  2.1291236e-05
  6.2177400e-03
  1.9851136e-03
  1.3062239e-01
  2.3910742e-01
 -2.2386301e-05
 -4.5415618e-05
 -1.1101709e-01
  9.1640794e-01
 -6.5283820e-02
 -9.6698284e-01
  2.7554929e-01
  1.0944792e+00
 -1.9464842e-05
 -9.6020875e-03
 -6.9097601e-02
 -3.5179499e-05
  1.2356219e-01
  1.3185157e-02
 -4.1831190e-06
  3.3168028e-05
 -1.5771678e-02
 -1.7639981e-01
  3.0342626e-06
 -6.6974777e-01
 -4.9107590e-01
  4.3735945e-05
  3.2073443e-05
  2.4246046e-05
  1.1987093e-05
 -1.2396397e-01
  3.7579975e-05
  1.5196277e-01
 -3.6087735e-03
 -7.9817095e-05
  1.7425609e-01
 -3.1070746e-04
  2.3425281e-02
  1.4248667e-05
 -3.4823406e-05
 -1.2029422e-05
  1.5680781e-01
 -1.0518183e-06
  2.3349401e-01
  4.2750373e-02
  6.6628076e-05
  1.3323194e-01
  1.6780709e-01
 -9.2640039e-07
 -3.3048820e-03
  6.9369353e-02
 -4.4318613e-02
 -2.7539295e-01
 -4.5114314e-07
 -5.7485997e-04
  2.8944949e-06
 -1.6720443e-05
 -1.1281807e-04
 -1.3612214e-01
  3.1656256e-01
 -5.1058359e-03
 -3.7478331e-01
 -2.4359724e-01
 -3.9072132e-01
 -2.2463188e-01
 -9.2570043e-01
  5.6826621e-01
  2.7124789e-01
 -5.3941333e-01
 -9.8119199e-02
 -4.6094364e-01
 -5.3732760e-02
  2.7536082e-01
 -5.9209764e-02
 -3.1099036e-02
  5.7711892e-02
  6.0530275e-01
 -6.2404495e-01
 -1.8465562e-02
 -4.9895257e-01
  2.0491710e-02
 -2.5081354e-01
 -1.1119388e-01
  6.8320514e-05
  8.2013543e-08
  3.0493975e-04
 -4.5625252e-01
  9.5337155e-06
 -2.6246998e-01
 -3.4653991e-01
 -6.5436199e-02
 -3.3792809e-01
 -2.0613615e-01
 -1.8062188e-03
 -2.9359523e-02
 -1.3685018e-01
  3.3344078e-04
  3.9708006e-01
  4.5913823e-02
 -2.1066998e-01
 -9.7381823e-02
  1.0290823e-01
  3.0100474e-03
  9.8197117e-05
 -1.9770026e-05
 -9.6587338e-02
 -5.9832848e-04
  6.9892747e-05
 -3.2200611e-01
  3.3577630e-01
  4.1513740e-05
  1.0175587e-02
 -3.9762508e-06
  8.9475657e-07
  3.1820296e-06
  3.6271636e-06
 -5.2607993e-07
  4.5772682e-05
  2.4260398e-05
  7.2682528e-06
 -4.0986150e-05
  1.9458726e-05
 -6.7638510e-05
 -7.5366816e-06
  2.7859425e-05
  2.5118266e-06
 -9.0278292e-05
 -5.3512867e-06
 -5.7161401e-06
  8.5151134e-07
  6.6605054e-07
  6.2721974e-06
 -1.1599073e-05
 -3.8257308e-06
  2.4745395e-05
  1.8003097e-05
 -1.9441146e-05
 -1.5424021e-06
  3.4904542e-06
  5.8440778e-06
  2.7620079e-06
  2.5971315e-06
  3.2634694e-06
  6.7501314e-06
  5.6386480e-06
 -1.1357456e-05
 -1.5012776e-06
  2.6589496e-06
  2.0419584e-06
 -1.2308681e-05
  1.9722775e-05
 -2.9214760e-05
  3.5147555e-06
 -1.4957567e-05
 -2.7633716e-06
  7.1904237e-06
 -4.4214892e-05
  7.3861793e-06
  9.1054299e-06
 -8.2541656e-06
  7.3275846e-06
  2.7830879e-06
  3.3419452e-05
 -2.4890185e-06
  2.6772932e-05
 -1.5564445e-05
 -1.9199917e-05
 -1.9489637e-05
  1.9896435e-05
  1.8892149e-07
 -7.6033275e-06
  5.0538652e-06
 -1.1424021e-06
  3.4662503e-06
 -1.2595933e-06
 -9.4030140e-05
  4.6458708e-06
  1.9908737e-05
  4.5898508e-07
  6.1943247e-06
  1.9694546e-05
  1.4324434e-06
  3.7723454e-05
 -1.5008860e-05
 -9.0949352e-06
  6.4294459e-06
 -2.3221175e-05
 -9.3836184e-07
 -5.4147945e-06
  4.7846875e-06
 -3.0445441e-05
  2.0188395e-06
  4.2733745e-06
 -1.4394143e-06
 -1.9865063e-06
 -5.1919953e-05
 -5.2701082e-05
  3.2388259e-06
  3.3163691e-05
 -1.5846706e-05
 -3.5417702e-06
 -1.0804864e-05
  4.5868915e-06
  6.2873062e-07
 -2.1868420e-06
 -1.2944707e-04
  1.6400447e-06
 -4.0045575e-06
  3.3146804e-05
 -2.9360544e-07
  3.1750885e-06
  3.3190206e-06
 -1.5738990e-05
  2.4422941e-05
  2.6591001e-06
  2.5728737e-06
  6.6241475e-05
 -8.7782519e-06
 -5.4616648e-06
 -5.1986431e-06
  6.6946391e-06
  7.5027615e-06
 -5.6277929e-07
  1.3417488e-05
 -5.0051814e-05
 -1.2933917e-04
  3.3592601e-06
 -7.7964854e-05
 -1.3523469e-04
 -3.9208364e-05
 -4.2640272e-06
  7.6024662e-06
 -2.4625515e-05
  1.0817670e-05
  1.1046209e-06
  6.1312935e-06
  2.4981573e-05
 -3.2572301e-05
  6.7883198e-06
 -5.0097638e-06
  1.3410942e-06
  1.0497359e-05
  1.2599254e-07
  1.7435181e-05
 -2.1962947e-05
  5.8922515e-06
  1.1661727e-05
  1.0623156e-04
  2.1998781e-05
 -1.8094519e-05
 -2.9019000e-05
  5.8240403e-06
 -3.0078832e-06
 -7.3062879e-06
  1.4201221e-05
  9.2370019e-06
  1.0353182e-06
  1.0582994e-05
  1.0483608e-06
  1.6356037e-06
 -6.0794782e-06
  4.0161617e-06
  2.4106673e-06
 -3.9012070e-06
  1.2984411e-05
 -3.3206739e-05
 -1.0418639e-05
  5.1502998e-06
  5.6331151e-06
 -1.5261343e-04
  2.1385044e-05
 -4.7909762e-06
  1.3621786e-05
 -6.7730221e-06
 -3.8555935e-01
 -2.4491243e-02
  4.7943801e-01
  9.5086250e-07
  6.8547785e-02
  1.7081520e-02
  7.5427406e-02
  3.5358390e-01
 -4.0785193e-02
  4.4931207e-07
  1.9065579e-05
 -3.6105721e-06
 -3.7161462e-06
 -4.6586427e-01
  1.6150627e-05
 -6.2480708e-06
 -1.0379731e-05
 -8.3833020e-03
  1.1398423e-05
 -3.0668732e-02
 -3.1678846e-05
 -1.0926525e-01
  1.2133767e-06
  1.6026711e-06
  2.2753595e-06
 -4.9759378e-06
  3.8565180e-05
 -1.2898616e-06
  1.2080103e-05
  5.3127627e-05
  2.1579437e-02
  6.7985216e-06
 -1.5468651e-05
  1.4328401e-05
 -1.4512654e-05
 -2.9175430e-06
  7.1324098e-06
 -8.9716031e-07
  1.2585912e-05
  4.4216936e-06
 -8.8148192e-02
 -1.7480254e-05
 -7.2724288e-06
 -4.9198272e-05
  3.8559875e-07
 -4.8077100e-06
  1.7351635e-03
  5.6505623e-06
 -2.9544244e-06
  1.0081350e-05
 -3.6650334e-05
 -2.1485881e-05
 -9.5510395e-06
  2.9933969e-06
  1.4725587e-05
  7.1459194e-06
  5.7513275e-06
 -2.5556383e-05
  5.0363506e-05
  3.6435395e-05
  3.5562639e-06
  1.6816174e-06
 -1.6970128e-04
 -2.0727588e-05
 -2.2078115e-05
 -2.2258725e-07
 -7.3356791e-06
 -4.2513252e-06
 -4.6970281e-06
 -5.8219186e-05
  3.9042723e-05
 -3.2292472e-05
 -5.2542851e-05
 -2.2875613e-06
  5.9951554e-07
 -4.8541351e-06
  1.1829338e-06
 -5.3156891e-06
  1.9140678e-05
 -1.2632188e-06
  2.2375712e-06
  1.7004897e-05
  6.5385001e-07
  5.6555868e-06
  1.9730718e-05
 -8.9937515e-07
 -3.2120388e-05
  6.9370931e-06
 -7.2737357e-06
 -1.1178100e-06
  5.8880196e-06
 -1.5804164e-05
 -5.6377967e-06
  3.7145146e-04
 -3.7922046e-06
  2.0758036e-05
 -5.6352769e-07
 -2.0489340e-05
 -2.8757818e-06
 -2.5431100e-05
 -5.9027880e-06
 -8.3077111e-07
 -1.8589260e-05
  2.2158163e-06
  6.7494980e-06
  1.3546914e-05
  2.6830685e-05
 -5.2281421e-06
  1.7497848e+00
 -1.1800209e-01
  8.7534088e-01
 -1.7802457e+00
 -5.2257293e-01
  5.8952671e-01
  3.9281183e-01
 -1.4432278e+00
  1.2446159e+00
  1.2568900e-06
 -9.6025702e-05
  3.2961722e-02
 -4.4804914e-05
  3.5417771e-03
  1.8937963e-05
 -6.7526656e-07
  1.4497167e-02
  2.9328139e-04
  5.9784606e-06
  2.0481262e-05
 -1.6403035e-04
  2.0538418e-02
 -7.9667307e-06
 -1.5395757e-06
  2.0585231e-01
 -4.4322287e-06
 -4.0960772e-06
 -2.1030046e-06
  4.9948622e-04
  1.6059199e-06
  2.5683947e-04
  2.4333303e-01
  3.3055726e-06
  1.3213223e-01
  3.1106482e-04
  3.8629419e-03
  8.0979626e-05
  4.3657642e-06
  1.2312003e-05
 -6.4262532e-02
  3.0646570e-02
 -2.4046774e-05
  3.9249007e-05
 -5.1272736e-04
 -1.2442043e-04
  2.3005285e-05
  1.8822202e-05
 -8.5637286e-05
  7.3692922e-06
  1.0016497e-05
  3.9115796e-05
 -2.2921836e-06
 -6.7714600e-06
 -5.2043856e-06
 -1.6244629e-02
  3.4910838e-05
 -9.3106217e-05
 -3.2683936e-05
 -1.1711807e-01
  4.9635397e-05
  1.9549290e-05
 -1.7818373e-01
  2.2540849e-02
  1.5887454e-04
 -1.8610014e-04
 -1.1575389e-06
 -1.5349291e-05
 -1.6747163e-06
  3.9790488e-05
  2.5464869e-06
  1.6420083e-05
 -5.1422035e-06
  1.7661325e-05
  5.7354118e-03
  2.4634433e-06
  3.6763359e-04
  8.4240496e-04
  1.3838794e-04
  1.2562204e-05
  4.7777517e-06
  1.1456873e-06
 -8.8344393e-07
  6.9470821e-07
 -2.6253370e-05
 -1.3490051e-05
  1.3489648e-02
  5.0551513e-08
 -7.5324160e-06
  1.5794143e-05
  3.1458211e-04
  5.5378452e-05
  1.2723260e-04
 -4.7767719e-07
  3.5222049e-05
  1.0996724e-01
 -6.7428978e-06
  4.6547266e-06
 -1.3329373e-05
 -2.0739672e-05
  2.7567239e-05
 -4.3948330e-06
 -6.9290300e-06
  2.2414775e-05
 -3.2340984e-05
  4.1200386e-07
 -3.8314038e-06
 -1.6807571e-05
 -1.0946781e-06
  5.7671542e-07
 -6.3793455e-06
 -9.2007322e-03
 -5.6722979e-06
 -1.0765040e-01
  1.8462557e-05
  2.0685595e-06
 -1.7021231e-01
  1.0174389e-02
 -5.4971892e-06
 -7.9526078e-05
  6.0731345e-05
  3.5364196e-06
  3.2455796e-06
  3.2728010e-05
  4.1329217e-06
 -6.9185999e-06
  6.6996927e-06
  1.0868232e-05
 -2.0221056e-05
 -1.9147676e-05
  9.6586475e-05
 -1.4124875e-05
 -2.4662904e-06
 -1.2105615e-03
  1.3235212e-06
 -1.6431664e-05
 -6.7129431e-06
 -1.8896586e-05
 -2.3378005e-05
 -4.3336063e-06
  7.1597417e-05
  3.8791950e-05
 -1.2677404e-05
  4.5185909e-05
 -2.2117472e-06
  5.1324309e-07
  5.5416676e-06
 -9.0425965e-06
  2.9677643e-05
  1.0712200e-04
 -1.1629814e-05
  5.9896793e-05
  5.1110605e-05
 -7.9875950e-05
 -4.6367983e-05
 -4.1285594e-07
 -4.3126320e-06
  1.2572620e-05
 -2.0897667e-06
 -1.3557688e-04
 -9.1368383e-06
  6.2012768e-06
 -9.2764567e-06
  2.7067325e-01
  1.6501154e+00
 -6.8978775e-01
  6.4451659e-01
  6.9770020e-01
 -6.8951768e-01
  1.5006185e-01
 -4.5945272e-01
  1.0200996e+00
 -6.7037851e-02
 -2.7101806e-01
  4.4469598e-01
 -4.1886037e-03
  6.4710295e-01
 -5.3340558e-02
  3.8594443e-02
 -9.8699354e-02
  6.0337627e-01
 -5.7598449e-02
 -6.5218431e-01
  3.7238652e-01
 -3.5251316e-02
 -6.6990806e-06
 -8.5681919e-03
 -1.4648086e-01
  4.6774467e-06
  5.8127904e-01
 -4.7430322e-01
 -2.4170305e-01
  3.8368523e-02
 -6.5946078e-01
 -5.5011928e-06
 -3.2212514e-01
 -2.5742520e-02
  1.4024085e-02
  5.9095677e-03
 -1.7451009e-01
 -2.5064498e-01
 -1.4019663e-04
 -4.4372025e-01
  4.4844230e-05
  6.6403351e-03
  1.8265374e-02
  7.3614717e-03
  1.0402442e-05
  1.4626334e-03
 -6.9510797e-06
  5.0582903e-06
  9.4626527e-03
  7.4356979e-07
 -2.8552513e-06
 -3.6130237e-05
 -3.4244193e-05
 -1.9821726e-01
  2.0102113e-02
 -3.5265575e-06
  9.3337719e-04
  5.3090637e-04
  1.0769438e-01
 -5.7041220e-06
 -6.5690787e-03
  1.0046817e-01
 -2.4805780e-04
  9.3079125e-06
  4.8068039e-02
  3.2830001e-03
  2.5096431e-02
 -1.8009275e-02
 -2.0589164e-04
 -3.2479927e-01
 -8.5601385e-04
 -5.8370687e-02
  5.5872172e-02
 -8.5761733e-02
  2.3634359e-06
 -1.2341222e-03
 -2.8370393e-02
 -1.1290168e-01
 -1.3215987e-02
 -5.6969784e-06
  1.5541579e-04
 -1.5316817e-05
 -2.0058060e-05
  7.3646575e-02
  1.1119578e-01
 -5.1502031e-01
 -5.4878072e-04
 -2.6586733e-06
 -1.3074377e-01
 -3.5128400e-02
  1.8548912e-05
 -3.4223549e-04
  3.3052288e-06
  4.6592881e-03
 -4.2047009e-01
 -1.7462206e-06
 -2.2671212e-01
 -1.1261434e-01
  1.1172539e-04
 -5.2663478e-07
  6.1518867e-02
 -2.4966796e-06
 -6.7458344e-03
  3.0209512e-06
 -2.8323504e-05
  1.6068801e-05
  7.6467877e-05
 -1.5580337e-06
  2.2326914e-05
 -8.2398241e-05
 -2.2236012e-05
  2.0898010e-06
  1.8796920e-05
  1.3784578e-05
 -2.0128777e-05
  1.4811999e-05
 -1.0340608e-06
 -3.0601732e-06
 -4.7392673e-06
 -8.1623672e-05
  1.1098767e-05
 -2.3878518e-05
 -1.2683188e-06
  2.8001914e-06
  3.8699040e-06
 -3.1197087e-06
  1.3614991e-05
  6.4655964e-05
  5.6850186e-06
  2.0205076e-05
 -8.4569210e-06
 -3.8466500e-05
 -1.4249048e-05
 -6.9958674e-06
  4.5898100e-06
 -9.3215231e-06
 -6.3313382e-06
 -1.2889986e-05
  1.6692340e-05
  1.1938569e-06
  5.2299129e-05
 -4.5778370e-06
 -8.9716805e-06
 -2.0369868e-04
  2.1559117e-08
  1.2207614e-05
  8.8408260e-06
  7.8728249e-07
 -4.2493057e-06
  4.3425662e-06
 -8.2164916e-05
  3.4228808e-06
 -3.2106300e-06
  9.0837921e-06
  1.5929098e-05
 -4.9915907e-06
 -2.3084933e-06
  2.1369772e-06
 -3.2218709e-06
 -3.7927371e-06
  5.4981515e-06
  7.8528801e-06
 -1.8034634e-05
  3.5873982e-05
 -6.8337081e-06
  4.9150080e-06
  9.8754062e-06
 -1.7289258e-05
  1.4292854e-06
 -3.5405690e-05
  2.1871594e-05
  5.2243608e-06
  2.1678392e-05
  3.4370329e-05
  1.5861661e-06
 -2.3543093e-06
  4.4852051e-05
  1.7332562e-05
  1.9182457e-05
  6.9134489e-06
  7.5976623e-06
 -2.1749577e-06
 -7.6371129e-05
  6.8371519e-05
  5.8189426e-06
  1.9137065e-06
  3.5801579e-05
 -3.6168606e-06
  2.7914107e-06
  2.0847874e-06
 -5.8040432e-06
 -1.8415736e-05
  2.2267692e-05
  2.5970780e-06
 -2.6354262e-06
 -2.6610223e-06
  1.6982027e-05
  2.0263109e-05
 -1.7968767e-05
 -4.2828847e-06
  2.9587045e-05
 -6.0722737e-06
  2.6462367e-06
  6.7671390e-06
  1.4325334e-06
  5.3612534e-06
 -9.0989779e-06
  1.8930001e-05
  9.9599165e-06
  2.1721713e-05
  5.6311501e-06
 -2.1116819e-06
 -1.1657897e-06
  4.8174752e-05
  9.9492149e-07
 -2.8300168e-05
 -7.6950009e-06
  6.2687667e-07
 -3.6604733e-06
 -2.7831738e-06
  3.3986323e-06
  5.8399775e-05
  2.0530836e-06
  2.1598609e-05
  7.7084076e-07
 -1.7245522e-06
 -5.0775225e-06
 -7.1845634e-06
  2.0144531e-05
  8.2932758e-07
 -1.0446835e-05
 -1.8704040e-05
  2.3519944e-05
  1.3281260e-05
  4.0957166e-06
 -2.4564310e-06
 -9.2469952e-07
  2.2601278e-05
 -1.1754521e-05
 -7.9788032e-07
  2.4657111e-05
 -2.1049242e-05
 -5.3569374e-06
  3.3067376e-05
 -7.6541158e-07
  1.2917877e-05
  1.3137183e-05
  3.7598011e-06
 -2.8368469e-05
 -1.3206714e-05
 -1.8698458e-05
 -2.6141319e-05
 -2.5736786e-06
 -5.5979694e-06
  5.5097262e-06
 -2.4762812e-06
  6.5838854e-06
  4.4842391e-06
  1.0126191e-05
  4.9372688e-06
 -1.1195332e-05
  2.0573443e-05
  5.1087831e-05
 -2.3750468e-05
  9.8424280e-06
 -6.4064225e-05
 -6.1722026e-06
 -7.0484380e-06
  1.5645286e-05
  6.9702423e-06
  9.8387480e-01
  8.5211456e-01
 -1.4258289e+00
 -4.5386249e-01
  9.3460709e-01
  4.9905625e-01
  2.6204422e-01
 -3.6861798e-01
  2.1301985e+00
  1.0967043e-05
 -1.0564351e-05
 -2.3767564e-01
 -1.6733163e-04
 -1.4421850e-01
  9.6646659e-07
  3.2718304e-05
 -2.9544302e-04
  4.1144563e-06
  4.3061100e-06
 -3.4634365e-06
 -2.0100316e-02
  1.1806121e-05
 -1.7004677e-05
  1.3043574e-05
 -4.5763209e-06
 -2.8837344e-06
 -9.4102270e-06
 -9.6128468e-05
 -1.1923145e-05
 -3.3862096e-05
 -3.8087055e-05
 -6.4070719e-06
 -1.9038770e-06
 -4.4903441e-04
  6.6270026e-05
 -5.9337190e-06
 -1.4807072e-06
 -2.4675765e-07
  3.4071585e-05
 -1.0479002e+00
  2.5519901e-06
 -4.5954671e-06
 -3.3251420e-06
  3.1314397e-05
  5.4857328e-06
 -4.9188418e-07
  2.1762098e-06
  2.0916470e-05
  1.3854537e-05
 -1.7416271e-05
 -3.6475842e-06
 -8.2862352e-06
  9.6401245e-06
 -2.5862673e-06
  2.6940048e-01
 -1.9858532e-01
 -4.2586428e-01
  3.7161717e-01
  1.6967887e-01
 -1.5282740e-01
  2.5583365e+00
  5.0800711e-01
  1.5490727e+00
  7.7072432e-04
 -4.8220663e-06
 -6.7586325e-06
 -2.8475467e-06
  3.7615981e-05
  1.7486366e-04
  1.8711744e-01
 -2.2035939e-04
  1.8263517e-01
  1.5104280e-05
  1.2178228e-05
 -7.2831884e-02
  4.8808452e-05
  6.3796424e-06
  4.0362389e-05
  7.4461554e-05
  2.7959968e-06
 -1.2377046e-02
  5.2957921e-07
 -4.7691309e-01
 -2.9306004e-05
 -9.6732154e-02
 -1.3087808e-04
 -1.3593062e-04
 -4.3785360e-01
  1.8714645e-05
  5.8102319e-06
  6.8881750e-06
  6.8986636e-01
  1.2279975e-07
  2.1858837e-01
  3.4895957e-01
 -2.0652604e-05
  1.5181914e-05
  5.1523789e-06
 -9.8452101e-06
  4.4096241e-06
  6.4016872e-06
  5.8542464e-06
  1.0431409e-05
 -7.7431823e-06
 -7.0072099e-07
 -1.7071148e-05
  7.0691613e-06
 -3.0172221e-06
 -1.4650475e-06
  2.7883375e-06
 -5.2229211e-06
 -2.8813495e-06
  1.0529386e-05
  1.6134154e-06
 -3.6204492e-05
  3.6571264e-06
 -4.2826041e-06
  7.2838579e-06
 -4.6994865e-07
 -1.7983061e-06
  8.2297165e-06
  1.0304904e-06
 -2.1513654e-07
  1.8822555e-05
  4.3649602e-06
 -1.9771155e-06
  1.4778723e-05
  2.2151466e-05
 -6.0176312e-06
 -2.1484439e-05
 -4.5955594e-06
 -1.1131470e-05
 -2.2886188e-06
 -5.9756494e-06
 -3.9563552e-06
  1.9664636e-05
 -3.0597105e-06
  4.2484294e-06
 -3.4514192e-06
 -6.3022430e-06
 -2.1669381e-05
 -1.4143957e-06
  4.5919587e-05
  6.6085677e-06
  1.0111884e-05
  2.2254203e-06
 -8.0123846e-06
 -2.4535122e-05
 -3.4068760e-06
  1.8847122e-05
 -1.2895411e-05
 -6.0212592e-06
 -1.1293259e-07
  1.7967939e-05
  2.3827979e-06
  3.9972833e-06
  3.5791502e-06
  8.1994178e-05
 -1.6368651e-05
 -2.5788875e-05
 -2.5457866e-05
  2.2353681e-05
  1.4203465e+00
 -1.3331997e+00
  5.1122475e-02
  2.7123660e-01
 -9.9673390e-02
 -3.7262800e-01
 -1.8680985e-05
  4.6462163e-01
  8.4209102e-01
  1.0450644e-05
  1.8060063e-03
 -1.0621936e-01
  1.2396485e-05
 -1.4189845e-01
 -7.3606104e-01
  5.9130794e-01
 -2.0530081e-04
  7.8139862e-04
  4.2603006e-05
  9.8363227e-01
 -2.8638231e-02
 -1.7634386e-05
 -2.6840157e-06
 -4.1131613e-01
 -9.6228869e-06
 -3.2143729e-05
  7.2172279e-06
  9.0713173e-02
 -1.3385568e-05
  2.4179548e-01
  2.9249582e-01
 -3.6244043e-03
 -6.6829473e-02
 -2.5767640e-03
 -4.5942888e-01
 -2.7295304e-02
  4.5480369e-06
  2.2865535e-05
  4.1475077e-03
  2.1579781e-01
 -1.8371393e-01
  1.2357099e-04
 -3.4897131e-01
 -7.5570097e-05
  9.9228047e-02
 -1.8174062e-02
  1.3774478e-01
  6.7274142e-03
  1.2851386e-01
 -6.7290334e-06
 -1.5341477e-06
  3.4128282e-06
  2.3875177e-04
 -5.6040767e-06
  1.4523478e-01
  2.2969609e-01
 -1.4363022e-01
 -8.9059718e-02
  2.7737933e-01
  1.4093725e-01
  1.1084976e+00
 -4.7533769e-02
  1.3968839e-01
  3.5894416e-05
 -2.3625005e-02
 -2.9558268e-01
  1.3845649e-02
 -8.5037723e-02
  2.0155807e-01
  5.2964991e-01
  3.6220613e-01
  2.1112604e-01
 -3.7529710e-01
  1.9735817e-02
 -1.3707945e-01
 -3.2459396e-01
  1.6844811e-01
 -8.1383653e-02
  6.0141295e-02
 -9.0765170e-05
  2.2464670e-05
 -1.5185362e-04
 -4.3684689e-04
 -5.0424129e-01
 -2.0048015e-02
  4.8008814e-01
  7.0085212e-06
  7.1692032e-01
 -5.3389772e-06
  3.7707936e-02
  7.2602369e-02
  1.7847258e-01
  4.4793304e-02
  6.8813577e-02
  7.3129125e-02
 -3.3044413e-05
  4.7377075e-04
  3.8309982e-01
 -3.3246274e-06
  1.1723307e-01
  5.9330438e-07
 -3.6814269e-02
  1.8437093e-01
  1.2026628e-05
  1.4309117e-05
 -2.3076645e-05
 -8.4945808e-05
 -9.6607383e-04
 -7.2082359e-01
 -1.7303313e+00
  3.2036614e+00
 -4.3287718e-01
 -3.2853939e-02
  3.1403759e+00
  9.9432224e-01
  4.0379316e-01
  4.4166467e-01
  1.1734924e-01
 -8.0072368e-06
 -1.2998438e-01
 -1.3998841e+00
 -4.2777374e-01
  2.2457282e-04
 -4.5380407e-06
  4.2708162e-02
  1.5692565e-03
 -1.3044018e-05
  2.7818538e-03
 -2.2410614e-02
 -1.6471858e-01
  3.6565991e-05
  3.2052126e-02
  2.0120707e-01
 -2.9441187e-01
 -3.7680520e-04
 -1.3679108e-05
  1.0416869e+00
 -1.0395432e-01
 -4.4756260e-05
 -2.1005698e-01
 -7.5175640e-06
  6.0222086e-02
 -2.6975896e-03
 -2.4708177e-01
 -1.2476895e-05
  1.2801917e+00
  1.9034630e-01
  2.6723546e-05
  6.6686697e-02
  4.5687444e-05
 -1.3581114e-05
  3.2993692e-01
 -9.2212331e-06
  2.2448943e-05
 -1.0603437e-05
  2.1970940e-04
  1.4573605e-05
 -2.4314861e-05
 -1.4081069e-05
  3.0714180e-06
 -4.1987183e-05
  4.4707002e-05
 -5.1701327e-06
 -9.2887876e-06
 -1.1741498e-05
 -1.1905674e-05
 -1.2564017e-05
  1.1802402e-05
  4.4748090e-06
 -8.2646911e-06
 -1.3480940e-05
 -1.1520796e-05
 -9.7147458e-06
 -3.5070883e-05
  3.3434837e-06
 -2.4498699e-05
  4.2490001e-06
  9.9257741e-06
 -1.0464561e-05
 -1.2795057e-05
 -1.0620375e-05
  3.8564074e-05
  1.3176656e-05
  8.7895451e-06
 -3.9542587e-07
 -1.4149156e-05
  1.6510654e-05
 -3.7195296e-06
  4.2786005e-06
  8.9414734e-06
  4.8469606e-06
  1.4904110e-06
 -3.6929683e-05
  4.2433257e-06
 -2.6786693e-06
 -6.4074966e-06
  1.5276190e-05
 -4.6694113e-06
 -2.4356726e-05
 -3.4502597e-07
  1.0640025e-05
  9.6010092e-07
  1.4632062e-05
  4.9366540e-06
  7.0649553e-06
 -3.1546268e-05
  2.8229551e-05
 -1.3981342e-05
 -1.0434955e-05
  1.2000619e-05
 -4.3566506e-05
  6.1993355e-06
  1.1376080e-05
 -4.7202469e-05
  5.5453474e-06
 -4.1566913e-05
  1.3467567e-05
  9.0561962e-06
 -1.4533609e-05
  4.1055289e-05
  7.6849228e-06
  1.3157620e-05
  1.1572029e-05
  4.3772857e-06
  6.8569398e-06
 -8.7208364e-06
 -1.1733885e-06
 -1.1719771e-05
 -3.1903533e-06
 -3.2850717e-06
 -1.0817687e-05
 -5.2197861e-06
  1.4058688e-05
 -5.9560375e-06
  4.5533074e-05
  6.7208307e-06
 -1.2018560e-06
  8.9681134e-06
 -6.2148888e-06
  7.4473451e-06
  2.9175883e-06
 -4.2637807e-06
 -7.7518107e-06
  1.4278140e-05
  1.1400435e-05
  3.9864335e-06
  1.2274139e-05
  4.1814714e-05
 -1.3759884e-05
  4.5077348e-05
  1.6002063e-05
 -1.4784505e-05
  8.5683760e-06
  3.7306661e-05
 -1.0930057e-06
  6.7563569e-06
  1.4704763e-05
 -1.2667346e-05
  1.3943497e-05
  5.2295577e-06
  9.3309663e-06
 -4.0995597e-05
 -9.2814844e-06
  1.5952804e-05
  1.3492256e-04
 -2.3261327e-05
  1.4463106e-05
 -3.2764703e-05
  9.5572186e-06
  1.0173555e-05
 -9.2851299e-01
 -8.9087945e-01
  6.7297679e-01
 -6.7624137e-02
  2.1102807e-01
 -1.1712686e+00
 -2.0005636e-01
 -1.6874717e+00
 -2.6728755e-01
 -1.4574590e-02
 -5.8363104e-01
 -1.5289807e-01
 -1.6009644e-01
 -3.5939237e-01
 -2.4039647e-01
 -3.2499064e-02
  3.7470511e-01
  5.3764943e-06
  1.4833582e-02
  5.2536130e-01
 -4.0543702e-01
  1.7033519e-02
  2.7177122e-01
 -5.4319501e-01
  7.9676604e-01
 -1.5183780e-01
 -1.1335013e-03
  1.8269761e-01
  3.1663561e-01
 -1.8982027e-02
  7.8548841e-02
  6.7121450e-06
 -1.1548481e+00
 -9.0863405e-06
 -3.4326735e-01
 -2.2163160e-01
  6.5931332e-01
  9.8472488e-01
 -6.8538784e-06
  1.1012369e+00
  1.6481603e-03
 -1.2813525e+00
  5.3256272e-06
  8.5376978e-06
 -9.3374270e-05
  4.5188277e-05
 -5.3877961e-02
  1.0631500e-02
  7.1234959e-03
 -1.8916121e-01
  4.1347175e-06
  1.5237616e-05
 -8.3799573e-04
  5.2601667e-03
  1.0230575e-05
 -2.5512377e-06
 -1.3400143e-05
  1.3856064e-05
 -5.6703539e-06
 -4.1399595e-05
  1.3910717e-05
  1.3891005e-05
 -4.9104037e-06
 -5.5872929e-06
 -1.1147318e-05
  4.6928940e-06
 -1.1532584e-05
 -2.7032449e-05
 -2.0915373e-05
 -3.8309372e-05
 -1.3695188e-05
 -5.8628675e-06
  7.0373229e-05
  1.1011595e-05
 -5.0569811e-06
  1.1786477e-05
  6.1447395e-07
 -7.7636810e-07
  2.1675787e-06
  6.1890591e-06
 -4.4936878e-06
  1.3543815e-05
  8.6881073e-06
 -4.1197472e-05
  1.3733320e-05
  1.1421890e-05
  6.7361607e-06
  1.3869611e-05
  9.2621149e-06
  2.6614705e-05
 -1.1823174e-05
  5.2602332e-05
  6.2763802e-06
 -2.7714430e-06
 -5.5793907e-06
 -1.3461482e-05
  1.2818686e-05
 -1.0777006e-05
 -1.3579443e-05
  3.1793932e-06
 -1.2260566e-06
  4.3565913e-05
 -1.2677667e-05
 -1.5463190e-06
 -1.0363214e-05
 -3.0511164e-06
  6.2338590e-06
 -5.1428855e-05
  1.3268017e-05
 -3.1375930e-06
 -4.5093380e-05
  3.0381880e-05
  1.2840437e-05
  1.3018988e-05
  1.4812385e-05
 -8.2461947e-06
  7.5350187e-07
 -2.3773568e-05
 -1.1328668e-05
  3.3589340e-06
 -1.1269874e-06
  1.2463289e-05
  4.5207547e-05
 -1.0204306e-05
 -4.2200183e-05
 -3.1012953e-06
 -1.3108164e-05
 -7.5798031e-05
  1.2816219e-05
 -3.8719376e-05
  3.8829614e-05
  2.0280211e-05
 -1.3479665e-05
  1.1360307e-05
  2.6245743e-07
 -1.2624056e-05
  4.1829353e-05
 -2.6647545e-05
 -8.9686791e-06
  1.0492507e-06
  1.5093548e-05
  8.7448709e-05
  1.1579608e-05
 -1.8992425e-06
  1.4152639e-05
 -1.2268738e-05
  5.9239223e-06
  3.7859019e-05
  9.4172874e-06
  5.5582339e-05
 -1.0761723e-05
  7.0496004e-05
  8.1778326e-06
  1.2577038e-05
  6.9346252e-06
 -7.6093015e-06
  1.3630653e-05
 -1.2045941e-05
  1.3387596e-05
 -9.9314675e-06
  2.4572798e-06
  3.1515629e-05
  1.4277066e-01
 -5.2503252e-01
  4.2758796e-01
 -1.0398222e+00
  6.3388383e-01
  6.2934762e-01
  1.2061594e-01
  4.8740673e-01
  4.0171787e-01
 -7.6191586e-01
  2.2545290e+00
  1.8751304e-01
  4.3465340e-01
 -7.0109360e-02
 -1.8463513e-01
  3.5224286e-01
 -1.1527205e+00
 -3.7741137e-01
  8.7263519e-01
 -2.6045753e-02
  5.6191413e-03
  3.9802548e-01
  7.4414682e-01
 -2.2889602e+00
 -6.5967739e-01
 -2.5367856e-01
  2.5303582e-02
 -7.1243341e-03
  9.8385054e-01
  4.5713112e-01
  3.1718021e-04
 -9.2567194e-01
  6.1527717e-01
 -7.3738176e-01
 -4.4883227e-01
 -2.5360933e-01
  4.5158273e-01
 -1.3792456e+00
  6.6268004e-02
  9.9817228e-01
 -1.5078388e-01
  1.5085228e-01
 -1.8214074e-01
 -4.0020259e-05
  3.4339204e-02
  1.9386759e-01
  2.2041282e-05
  6.2733126e-01
 -8.0972326e-01
  2.3693863e-05
  9.6279429e-03
  2.8734174e-04
  3.7367311e-03
  1.3480003e-05
 -7.9342335e-01
 -1.6831863e-01
 -7.9485886e-03
 -2.4127015e-01
  1.1777996e-01
 -7.5103897e-01
  1.6480674e-01
  2.3176441e+00
 -2.2485440e+00
 -2.0969999e-01
 -1.0514368e-01
  2.6541021e-01
 -2.9982531e-01
 -3.1802070e-03
  2.6045851e-05
 -3.6914833e-05
  2.7790397e-01
 -3.0024651e-06
  9.0076937e-05
 -1.4313294e-01
  4.5222049e-03
 -1.4329506e-05
 -1.4053798e-02
 -1.0100516e-06
 -1.9440361e-06
  1.5359151e-06
 -1.2636609e-05
 -5.6753339e-07
 -2.2565523e-02
  1.3314074e-04
 -4.3344125e-03
 -4.1852617e-03
 -1.0505436e-04
  5.8151059e-02
 -6.7836503e-05
  8.8126764e-02
 -4.0124774e-05
 -3.8186723e-01
  8.5956208e-06
 -5.5680424e-01
 -1.8192367e-01
 -1.5175190e-05
  1.0780862e-04
 -3.6545521e-01
  1.3991869e-05
 -1.4143066e-05
  9.7444376e-07
  2.8198148e-05
  2.7956075e-06
  7.4012773e-06
 -2.6915570e-06
  1.3821766e-05
  1.0225462e-05
  3.8343827e-05
 -1.2337708e+00
  1.3237028e+00
 -9.6549714e-01
 -5.3667492e-01
  3.0160021e-02
 -2.3762424e+00
 -8.5241812e-01
  2.0200981e-01
 -8.1693903e-02
 -1.2576579e-01
 -2.6371366e-01
  4.3696600e-01
 -1.2841918e-01
  4.4989493e-01
 -1.0554045e+00
 -7.6709157e-06
  5.9513080e-01
 -1.1262479e-01
 -5.7832170e-01
 -5.4998857e-01
  5.7234533e-02
 -2.4619101e-01
  1.3005921e-05
 -9.6718322e-06
  1.5561342e-01
 -3.4464611e-05
 -1.3313595e-05
 -5.1303422e-01
 -3.5688441e-02
 -2.2370707e-04
  8.3896309e-02
  1.7606500e-01
  7.5988391e-05
  9.4800633e-01
  1.9394556e-02
  3.0897709e-02
  4.8321005e-02
  1.5100804e-03
 -1.0638760e-06
 -2.2680618e-01
  5.2435631e-01
  7.3775433e-02
  3.8688478e-01
  3.6815446e-04
 -1.2669282e-05
  7.2671883e-02
 -2.9200334e-02
 -2.2236796e-05
 -9.5073428e-06
 -1.2693475e-05
  2.0843268e-05
  3.8962924e-05
 -7.9595111e-06
  3.5613994e-06
 -3.8485880e+00
  1.3305916e+00
 -9.6503985e-01
  7.5355309e-01
  9.7210783e-01
 -1.3394049e+00
 -8.2014459e-01
  5.1195115e-01
  4.4604370e-01
 -5.3052623e-02
 -8.2891423e-01
  7.1317625e-01
 -2.7199650e-01
  2.8098738e-01
 -1.0965006e+00
 -1.0343313e-01
 -1.9550556e-01
 -8.0757320e-01
 -3.1441528e-01
 -1.1165918e+00
  1.2358724e+00
 -4.8013821e-01
  5.4170422e-02
 -1.1160530e+00
  7.2685696e-02
 -3.9060426e-01
 -2.7722850e-01
 -1.0850576e+00
 -1.2782433e+00
  7.6688790e-01
 -2.7749190e-01
 -6.7334443e-01
 -5.1852059e-01
  2.1276486e-01
 -3.6487740e-01
  3.9277345e-01
 -1.5855184e+00
  9.7079005e-04
 -6.8919480e-02
 -2.9200724e-01
 -1.1081634e-05
  1.1293021e+00
 -2.5010964e-05
 -1.4327062e+00
 -1.5643130e-01
 -1.4194517e-01
 -2.4728839e-01
  4.5850862e-02
  2.5200617e-01
  1.9032737e-05
 -1.9273232e-01
 -6.7973860e-02
 -1.5333436e-03
  1.2069218e-01
 -5.5565401e-03
 -8.9768952e-01
  2.6376903e-01
  8.2582906e-03
  2.3623000e-01
 -1.2860684e-02
  4.2666900e-01
  4.0432137e-01
  3.3193347e-01
  1.4521732e-05
 -1.4631421e-05
  9.2450548e-03
 -2.7891837e-02
 -1.2276293e-01
 -8.0592132e-01
  1.1821669e-05
  1.9715255e-06
  7.0045855e-05
  1.8433631e-04
 -8.1403211e-02
  8.6538148e-06
 -1.6712883e-01
  3.3511906e-06
 -3.8116482e-01
  1.1654691e-05
  1.6620350e-03
 -4.4638538e-05
  1.9321753e-02
  1.0207908e-02
  8.4519011e-01
  2.8950387e-01
  1.5256911e-05
 -1.0877798e-01
 -4.4333432e-05
 -1.4631571e-04
 -2.1037275e-02
 -3.7016082e-04
 -3.7566388e-06
 -3.6461354e-06
  3.0296356e-05
 -8.7575227e-06
  2.7793086e-01
 -7.4841500e-06
  9.8775825e-05
  1.3207275e-04
 -7.5786471e-02
  3.2199603e-01
  1.2854988e-05
 -6.6390730e-02
  6.2404652e-05
 -3.8275239e-06
  3.1833629e-06
  1.3261988e-04
  2.5198358e-05
 -1.3266054e+00
  6.7048306e-05
 -6.6374195e-01
 -1.1916239e+00
  1.7597760e+00
 -1.3450760e+00
  1.2087828e+00
  7.5390112e-01
 -2.0092185e-01
 -6.5773052e-06
 -1.4515998e-05
 -6.8991205e-05
  2.8211371e-06
 -7.4073575e-02
 -6.5599370e-04
  9.8494969e-02
 -6.1396922e-06
  1.1568769e-05
  1.3849804e-05
 -2.6678410e-01
  7.6564123e-05
 -4.1949654e-01
  6.3992684e-06
  7.3960559e-06
 -2.2982756e-05
  6.3165226e-07
  1.1237739e-05
 -2.2838157e-04
 -1.4030291e-01
 -2.0831820e-05
  7.1268573e-06
  3.3688161e-06
 -8.9154974e-02
 -1.3523299e-01
 -9.5084846e-02
 -7.4857235e-05
 -8.6323025e-06
  4.4855531e-04
  8.5268416e-02
  5.5979826e-03
 -6.8167942e-06
  3.6866274e-01
 -3.3302688e-06
  3.6701463e-02
  1.0379814e-05
 -2.7614410e-04
  2.8446177e-04
  7.8014523e-02
  7.1284309e-02
 -2.6789626e-06
 -2.7096610e-05
  7.4195725e-09
 -5.1274214e-06
 -2.3738816e-05
  4.6056497e-01
 -5.0778076e-02
  2.4412365e-01
 -2.6285875e-01
  8.3982319e-01
  2.1623778e+00
  1.0918790e-01
  7.9361228e-03
  8.6992532e-02
 -5.0934547e-01
 -3.7396070e-02
 -1.3308572e-02
  1.5321290e-03
 -4.4413641e-01
  3.7278271e-01
 -1.6266155e-01
  2.0268971e-01
 -8.2926822e-01
 -1.3397975e-01
 -1.1167706e+00
  1.6570628e-04
 -1.0946593e-01
  2.8063908e-01
 -5.6177932e-01
 -2.5105613e-01
  2.0712671e-01
  5.6053001e-01
 -3.1590469e-05
 -8.1928247e-01
  9.8265253e-02
 -6.2303549e-01
  1.2195304e-01
 -6.8475911e-04
 -2.1848915e-04
  1.6282095e-01
  8.4180850e-01
  3.9970309e-01
 -3.4965274e-01
 -4.2600779e-05
 -9.8407799e-03
  5.9926623e-01
  1.0371602e-01
  7.9310596e-02
  4.2017032e-06
 -8.8395691e-06
 -4.7131680e-02
  2.6191571e-01
 -2.2783717e-04
 -6.6167921e-02
 -1.1078205e-06
  4.7366467e-01
  4.7405189e-01
  7.2180037e-06
 -1.2325247e-02
  1.0137446e+00
 -5.2720058e-01
  9.4863856e-01
 -1.9788933e-01
 -7.2837609e-01
 -1.1741589e+00
  4.5126000e-01
  9.0702115e-06
 -1.8523229e+00
  1.0523024e-04
 -4.4477738e-02
 -4.0150488e-05
  2.6508516e-05
 -6.2331630e-05
 -4.0962046e-01
 -1.2708129e-04
  3.1840645e-02
 -3.8278559e-01
  1.7638192e-01
 -7.0241226e-06
 -2.8237293e-06
 -9.5870855e-05
 -6.8787072e-06
  1.2019890e-05
 -1.1892880e-01
  1.1590319e-05
 -6.1324072e-06
  1.3041459e-01
  3.6680470e-03
 -1.5106866e-05
  1.0979275e-05
 -1.3929799e-05
  1.1749374e+00
 -1.5846676e-04
 -8.1663957e-06
  2.5878370e-01
 -2.5992966e-01
  1.5864826e+00
  9.4027318e-06
  6.6529992e-06
  3.0364377e-02
 -1.3358206e-05
  3.6712404e-06
 -1.8922057e-02
 -6.6355139e-01
 -1.7594831e-01
 -4.6320362e+00
 -2.8199443e-01
  1.7091722e+00
 -3.5113040e-01
  6.1658370e-01
  2.5690737e-01
 -2.4476352e-01
 -2.5683773e-01
 -4.7901189e-01
  1.7218623e+00
  9.6786208e-02
 -4.9843434e-06
 -8.8670695e-01
 -1.6319471e-04
 -3.3014300e-01
  3.2996711e-06
  6.8580011e-05
 -1.4115591e-01
  5.7776940e-01
  4.0145192e-06
 -5.4285455e-01
  4.0335986e-01
 -1.0891248e+00
 -4.5426630e-05
 -1.2090981e-05
 -1.3707158e-04
 -1.4320330e-01
 -6.2339857e-02
  5.6929010e-01
  1.8001659e-01
  1.1661822e-01
  7.6346213e-01
 -3.1864926e-01
 -1.0119521e-05
 -1.0475661e-05
  4.6310574e-06
  8.3924860e-01
  2.9954055e-01
  1.5432981e-05
 -3.3619523e-01
  3.7721241e-01
 -4.3622625e-01
  1.4308535e-02
 -2.5136394e-06
  6.9045490e-01
  4.3745389e-05
 -1.4582411e-05
 -4.6516395e-01
 -4.2966777e-01
  2.3472565e-01
  1.1723371e+00
 -2.5645843e-01
 -1.8288268e-01
  1.1157629e+00
  3.6095741e+00
  9.4104105e-01
  5.0080252e-01
 -8.0174756e-01
  1.8321047e+00
 -3.8203928e-01
 -1.3583800e+00
 -1.0000031e-01
 -6.1427116e-01
 -1.0000000e-01
 -1.6384610e+00
  1.0000000e-01
  2.4512599e+00
 -2.1396699e+00
 -3.1622443e-01
 -1.1232754e+00
  1.1237452e-01
 -1.4510423e+00
  7.2072101e-01
  3.1716208e+00
 -3.3036408e-01
 -1.7096412e-01
  1.0000614e-01
  1.8462424e+00
  1.0000800e-01
 -1.0016552e-01
 -2.4998003e-01
 -7.1566999e-01
  1.0236905e+00
  2.3760772e-01
  9.6094978e-01
 -7.8332442e-01
  1.1177191e+00
 -2.7356703e+00
  2.7582619e+00
  2.4717161e-01
 -1.5961583e+00
 -5.4859924e-01
 -6.6074473e-01
 -1.9439811e+00
  1.3737288e+00
 -7.4176276e-01
 -1.3114340e+00
 -1.8514183e+00
  2.9411373e+00
 -1.4362247e+00
  9.4125068e-01
 -1.0000024e-01
 -1.7330762e+00
  1.4474689e+00
  2.0289543e-01
 -4.6875817e-01
 -2.0492952e+00
 -2.2717059e-01
 -6.7531216e-01
 -1.3733788e+00
 -3.3703795e-01
 -1.8038129e+00
 -1.3860838e+00
 -1.5517545e+00
  3.1726243e+00
 -2.6406496e+00
  3.1116960e+00
  1.0158459e+00
  1.6840521e-01
  1.0002943e-01
 -4.4024211e-01
  2.1826427e+00
  1.5382859e-01
  1.5088807e+00
  1.2937963e+00
  1.9037714e+00
 -7.5778687e-01
 -1.5729637e+00
  1.8750589e-01
  1.1061687e+00
 -1.4517263e+00
 -3.6379939e-01
  2.9008946e+00
  3.4021730e+00
 -3.2332022e+00
  1.8932343e+00
  3.8569948e-01
 -2.0679667e+00
 -3.5630622e+00
  2.1567075e+00
  1.0848073e-01
  5.5885088e-01
  9.0088868e-01
 -1.1590501e+00
  1.8771708e+00
  1.7051777e+00
 -1.9644446e+00
 -7.9658455e-01
 -4.5149693e-01
  2.3884346e+00
 -2.7266803e-01
 -2.8778584e+00
  1.0103333e-01
  1.2140814e+00
 -7.9910350e-01
 -1.6021322e+00
 -2.4723947e+00
 -2.0233269e+00
  1.9476507e+00
 -1.6965607e+00
 -1.1419747e+00
 -6.0212594e-01
  5.0611162e-01
 -4.9208924e-01
 -1.5444936e+00
  1.2022227e+00
 -1.1082455e+00
 -1.1467284e+00
 -1.6023768e+00
 -2.3352596e-01
 -7.3646545e-01
  6.2674969e-01
  1.0002472e-01
 -4.0163913e-01
 -9.8603952e-01
  3.6610918e+00
  8.9852899e-01
 -7.1871459e-01
 -7.6571876e-01
  1.0000044e-01
 -4.2385373e-01
  1.0000035e-01
  1.7369590e+00
 -9.9893177e-01
 -9.7773331e-01
  6.7189765e-01
  2.0196986e+00
  3.0910891e-01
 -7.3627698e-01
  3.7026486e+00
  3.1055602e-01
 -1.0000412e-01
  1.0526772e+00
 -5.4537088e-01
 -8.0735070e-01
 -9.5613807e-01
 -3.4606501e-01
 -8.4491694e-01
  2.4720716e-01
 -3.1201022e+00
 -1.3469100e+00
  2.0144643e-01
 -1.7651469e-01
  1.0000009e-01
  2.0571291e-01
 -4.8619280e+00
  2.8405302e+00
 -1.0004369e-01
  2.6043168e-01
  4.5121727e+00
  5.5856937e-01
  1.1325893e+00
 -1.2479286e+00
  5.9258217e-01
 -9.1967487e-01
  3.3528584e-01
  2.4726713e+00
 -2.2224934e+00
  4.1391320e+00
  1.0000000e-01
  1.9813225e-01
 -3.1275541e-01
  9.4165319e-01
 -1.1435721e+00
 -1.2535609e-01
  6.6115981e-01
  7.7592415e-01
  6.3469779e-01
  1.4479497e-01
  2.5884432e-01
  2.1088879e+00
 -1.6817621e+00
 -1.1610470e+00
  1.8459071e+00
 -4.5660982e-01
 -2.7866123e+00
  2.7264895e+00
  1.7183800e+00
 -2.0294001e+00
 -8.9997429e-01
  1.1321715e+00
 -1.0000024e-01
 -2.3170140e+00
  1.5682009e+00
  1.0717276e-01
  1.0000008e-01
  2.7280524e+00
 -7.7975082e-01
 -1.7375044e+00
  7.5421071e-01
 -1.2426826e+00
 -2.2591667e+00
  2.8067067e+00
  2.7684529e+00
 -1.4164257e-01
  7.7895874e-01
  5.0609356e-01
  1.8455321e+00
 -1.5108336e+00
 -3.3669630e-01
  1.9204658e+00
  2.4477217e+00
 -2.4199767e+00
 -1.5261048e-01
 -8.1344599e-01
  1.4034477e-01
 -1.3839927e+00
 -1.0000010e-01
  1.2870787e+00
 -7.7230823e-01
  1.4120431e+00
 -1.6102092e+00
  1.0003078e-01
 -8.7445676e-01
 -8.6215162e-01
  1.0000065e-01
  1.5142231e+00
 -1.0000118e-01
 -6.8963516e-01
 -1.0000737e+00
 -2.3060896e+00
 -1.4275165e+00
 -8.4676456e-01
  6.8323690e-01
 -2.5060215e+00
  1.2431056e-01
  4.9121466e-01
  1.0000098e-01
  3.5861454e+00
 -6.3814843e-01
  1.4365300e+00
 -4.0737912e-01
 -5.0043893e-01
 -9.1503406e-01
  9.9586868e-01
 -1.5175068e-01
  1.0049076e-01
  1.0522361e+00
 -3.4967592e+00
 -1.1048543e+00
  1.1997499e+00
 -1.4112655e+00
 -9.1999793e-01
  1.0000832e-01
  8.6662400e-01
 -1.1071046e-01
  2.7231965e+00
 -1.4808438e+00
 -5.4155248e-01
  1.6969292e-01
  2.3555772e+00
 -1.0000141e-01
 -1.0000000e-01
 -2.1735182e+00
 -1.0599989e-01
  9.2421973e-01
  2.7192265e-01
 -1.6640257e+00
 -3.1789708e-01
 -8.8545603e-01
  3.8882297e-01
 -1.2784427e+00
 -1.3993515e-01
 -1.8238348e-01
 -1.0823162e-01
 -1.5918494e+00
 -1.2269218e-01
  2.2927436e-01
  5.2685971e+00
 -3.1075981e+00
 -2.0029466e-01
 -1.0000493e-01
  1.4432595e+00
 -2.4182814e-01
  3.5143873e-01
  1.0553817e+00
  1.0957326e+00
  1.0324433e-01
 -1.4327689e+00
 -4.4899172e-01
 -1.0000134e-01
  1.5283797e+00
  1.1991193e+00
  3.8515377e-01
  9.3554771e-01
 -1.0396188e+00
 -1.6482061e+00
 -2.1154851e-01
  1.2435991e+00
 -5.0753176e-01
  2.1983829e+00
 -1.0050962e+00
 -6.7564964e-01
  2.2109029e+00
  1.0000001e-01
  2.2918788e-01
  1.5987017e+00
 -4.1109353e-01
 -9.8992240e-01
 -1.0003559e-01
 -1.1929967e+00
 -5.0839739e+00
 -1.5867918e+00
  1.0000604e-01
  8.9048845e-01
 -2.1378129e+00
 -1.0000070e-01
 -5.0503606e-01
  3.6708677e-01
 -1.0010555e-01
  1.8019032e-01
 -1.0011517e-01
  1.7968234e+00
  8.8872874e-01
  1.0000101e-01
  1.0000485e-01
 -9.8827493e-01
 -2.7811835e+00
  1.3265336e+00
 -1.3453063e+00
  1.0000220e-01
 -1.4217217e+00
 -3.1072018e-01
  1.0000043e-01
  1.0000163e-01
 -7.4604011e-01
  1.0000012e-01
 -1.3003212e+00
 -1.0000417e-01
  1.0289611e+00
 -1.0018645e-01
  1.0000475e-01
  8.1625360e-01
 -1.4225894e+00
 -1.0870285e+00
 -8.7319893e-01
 -1.0000072e-01
  5.3025287e-01
  2.6110584e-01
 -5.3803915e-01
 -8.9450872e-01
  5.4218930e-01
  3.2564819e-01
 -1.0016268e-01
 -1.8986973e-01
  1.0000001e-01
  6.0296535e-01
  1.0000387e-01
 -2.8264102e-01
 -4.4358215e-01
  1.8434678e+00
  1.0000000e-01
 -6.2563431e-01
 -1.0000417e-01
  1.1395274e+00
 -1.3439996e+00
 -1.0000100e-01
  2.1528585e+00
  1.7991620e+00
  1.0065680e-01
  1.5137584e+00
 -3.3205923e-01
 -1.4570459e+00
 -1.2859778e+00
  4.5547351e-01
 -8.3462489e-01
  1.2000290e+00
  1.0000194e-01
 -1.0000043e-01
  8.6683285e-01
  3.8875952e-01
 -1.0605162e+00
  5.5965829e-01
 -1.2221428e+00
  4.8241553e-01
  1.0001146e-01
 -1.0000040e-01
 -1.1652594e+00
 -1.2023884e+00
 -5.4267353e-01
  1.6363204e+00
  4.6103862e-01
 -1.9875251e+00
 -1.7556393e-01
  4.0194482e-01
  8.6468160e-01
 -1.8099164e+00
 -2.2817519e-01
  8.5177493e-01
 -1.0000008e-01
 -1.1006750e+00
 -7.9182935e-01
  5.1431149e-01
 -1.1287628e+00
  2.0345668e-01
 -1.0001857e-01
 -4.8689690e-01
 -1.1729420e+00
  1.0021815e-01
 -9.6205449e-01
  1.5239032e-01
 -2.5301826e-01
 -1.0000199e-01
 -1.3299179e+00
  3.3349526e-01
  1.0000007e-01
  2.6780733e-01
 -1.5003853e-01
 -3.9966097e-01
  6.9939035e-01
 -1.0000307e-01
 -4.4466412e-01
  1.0000163e-01
 -1.2747487e+00
 -4.4419786e-01
 -1.1675663e+00
 -1.0000023e-01
 -1.9107751e+00
 -8.1881678e-01
 -7.4300867e-01
 -1.3737301e+00
  2.1283653e-01
  1.0000132e-01
 -5.2190948e-01
  1.6377309e-01
  1.4663812e+00
  7.4783963e-01
  1.0368822e+00
 -1.8128039e+00
  4.8872855e-01
 -1.3751808e+00
 -1.0000895e-01
 -1.0167961e+00
 -1.4980159e+00
 -1.0000096e-01
  1.9734666e-01
 -1.0000086e-01
 -1.2662950e+00
  3.3356857e-01
  1.9527882e-01
  1.0819799e-01
 -3.6876459e+00
  1.3573660e+00
  1.0000084e-01
 -6.3998413e-01
  1.0000235e-01
 -1.0000341e-01
 -1.0000062e-01
 -1.0000054e-01
  1.1866422e+00
  7.8973246e-01
 -7.5172824e-01
 -8.6471760e-01
  1.0000597e-01
  1.0676092e+00
 -1.0000255e-01
  7.9890209e-01
  1.0000000e-01
  8.0860305e-01
  1.0000000e-01
  1.1218424e+00
  1.0567604e-01
 -8.8806468e-01
  1.9214773e+00
 -9.9813664e-01
 -1.1145383e-01
  1.6241516e+00
  1.0000362e-01
 -1.9531077e-01
  1.8887608e+00
  1.1387779e-01
  8.7466401e-01
 -1.0000125e-01
 -2.4247327e+00
  1.0004772e-01
  2.7294614e+00
  1.0000000e-01
 -5.6457812e-01
  5.9725946e-01
 -1.0000578e-01
  8.8639885e-01
  2.4138846e+00
 -8.6870974e-01
 -1.0000001e-01
  1.1571733e+00
  2.0912495e-01
 -1.3460466e-01
  1.2417907e+00
 -1.0812681e+00
  3.4999216e-01
 -5.5626631e-01
  1.2078183e+00
 -1.5394841e-01
 -1.1516438e-01
 -1.0623087e+00
  9.2422217e-01
 -5.5709833e-01
 -2.6569298e-01
 -1.2432116e-01
 -2.3476246e-01
 -6.0316813e-01
 -1.6274190e+00
 -1.0000236e-01
 -1.0000007e-01
 -1.0006229e-01
 -4.7101480e-01
 -1.0000540e-01
  1.0000098e-01
 -1.0011861e-01
 -6.9398844e-01
 -1.9787751e-01
 -5.7015926e-01
 -1.0000025e-01
  1.0000847e-01
  1.1975383e+00
  1.0793951e-01
 -1.1620607e+00
  8.5976255e-01
  1.0002129e-01
  1.0000265e-01
 -6.5191084e-01
 -1.0885450e+00
  1.2153014e+00
 -1.0000058e-01
  8.2821596e-01
 -8.1265241e-01
  1.7245263e-01
 -2.7682436e-01
  1.8081000e+00
  5.7601714e-01
  6.6234440e-01
 -4.1729277e-01
 -5.3347594e-01
  4.9138713e-01
  3.1270877e-01
  3.2894599e-01
  1.5426469e-01
 -1.2687606e+00
 -2.2247818e-01
 -1.0003518e-01
 -3.1941469e+00
  2.3916623e-01
  4.6935448e-01
  4.4875818e-01
  1.5914662e+00
 -1.0000002e-01
  1.0000321e-01
 -1.0000028e-01
 -9.4612360e-01
  1.0002994e-01
  2.5026906e+00
 -1.0031039e-01
 -2.4995677e+00
  5.0865310e-01
  1.0000000e-01
  1.0000001e-01
 -1.0000272e-01
  1.7988553e+00
  1.0812614e+00
  1.0001659e-01
  9.8443031e-01
  2.4493462e-01
  2.6175272e+00
 -1.0000008e-01
 -1.5258569e-01
 -1.2231584e+00
  5.1949859e-01
  1.0000018e-01
 -7.6326960e-01
 -1.4257506e+00
 -1.3439726e+00
  1.0000697e-01
  1.0122260e-01
 -1.4075222e+00
  1.1297283e+00
  1.0000058e-01
 -1.0000148e-01
  1.0484098e+00
  1.0000008e-01
 -1.0000436e-01
 -1.0000303e-01
 -2.8277683e+00
 -1.0001776e-01
 -1.9570650e-01
  1.6760479e+00
 -5.0605369e-01
  4.0072316e-01
 -1.0006202e-01
 -4.6136689e+00
 -1.0000192e-01
  1.3035579e+00
 -3.9924985e-01
 -1.2666422e-01
  1.0000000e-01
 -1.5872577e-01
  1.0000205e-01
  7.9476494e-01
  8.8470489e-01
  8.7384826e-01
 -9.3471831e-01
  8.2820129e-01
  6.4635706e-01
  1.6043348e+00
  2.8646761e-01
 -9.7537220e-01
 -3.7020805e-01
  2.9481444e-01
 -3.1082085e-01
  4.9844110e-01
  1.0000008e-01
 -1.0000335e-01
 -1.0000544e-01
 -1.0024343e-01
 -1.0000082e-01
 -1.0000003e-01
 -3.4736234e-01
  1.0000554e-01
 -2.3790421e+00
 -1.0000019e-01
  1.0011769e-01
 -6.4470297e-01
  1.0000114e-01
  2.8969523e-01
 -1.0095326e-01
  9.6265084e-01
  2.7962527e+00
  1.0000008e-01
 -1.0002616e-01
 -2.7406514e-01
 -4.5874226e-01
 -1.0000055e-01
 -1.0001612e-01
 -9.7876859e-01
 -2.0301652e+00
  1.1895757e+00
 -2.6729900e-01
  1.1681443e+00
  1.0000301e-01
 -1.0000128e-01
  1.0006433e-01
  4.3172622e-01
  1.5377445e+00
 -1.0000052e-01
  3.0126259e-02
  3.0126259e-02
  3.0126259e-02
  3.0126259e-02
  3.0126259e-02
  3.0126259e-02
  3.0126259e-02
  3.0126259e-02
  3.0126259e-02
  3.0066469e-01
  3.0066469e-01
  3.0066469e-01
  3.0066469e-01
  3.0066469e-01
  3.0066469e-01
  3.0066469e-01
  3.0066469e-01
  3.0066469e-01
  1.0964622e-01
  1.0964622e-01
  1.0964622e-01
  1.0964622e-01
  1.0964622e-01
  1.0964622e-01
  1.0964622e-01
  1.0964622e-01
  1.0964622e-01
  3.0455222e-02
  3.0455222e-02
  3.0455222e-02
  3.0455222e-02
  3.0455222e-02
  3.0455222e-02
  3.0455222e-02
  3.0455222e-02
  3.0455222e-02
  1.5240447e-02
  1.5240447e-02
  1.5240447e-02
  1.5240447e-02
  1.5240447e-02
  1.5240447e-02
  1.5240447e-02
  1.5240447e-02
  1.5240447e-02
  1.4507768e-01
  1.4507768e-01
  1.4507768e-01
  1.4507768e-01
  1.4507768e-01
  1.4507768e-01
  1.4507768e-01
  1.4507768e-01
  1.4507768e-01
