nep3 1 C 
cutoff 3.5 3.5 25 25
n_max 8 8
basis_size 12 12
l_max 4 2 0
ANN 50 0
 -2.6211526e+00
  9.1020024e-01
 -7.7957533e-02
 -8.6297387e-01
  4.5760334e-01
 -9.9430388e-01
 -1.4804077e-02
 -4.0670598e-01
  7.9175949e-01
 -2.4775536e-05
 -1.1360693e+00
  6.2780744e-01
 -5.2558297e-01
  1.1509322e-04
  2.5189431e-05
  4.4959705e-02
 -3.0702820e-02
 -2.2088835e-01
  4.1991028e-01
 -1.5911868e-05
 -1.4041948e+00
 -2.3587093e-02
  1.4087504e-01
 -5.8690447e-02
  5.8823086e-02
  5.0233293e-01
  1.1791951e-04
 -1.5866761e-05
  7.5856036e-01
  1.0265090e+00
  9.2316377e-01
  4.8662466e-01
 -1.2774840e-04
 -1.3887378e+00
 -1.2109179e+00
 -1.7621594e-03
 -7.6736564e-05
  9.1485072e-06
  3.6751962e-01
  1.8329851e-01
  4.6191892e-01
 -2.0394406e-01
 -1.4112960e-01
  8.9262378e-01
 -2.9339304e-05
  4.3243814e-05
 -1.0060854e-04
  3.0425224e-01
 -1.8134036e-03
  3.5599616e-05
  8.4469371e-05
 -2.4546728e-02
 -1.5227502e-05
 -1.5461954e-05
  1.6182512e-01
  4.3301567e-01
  2.1985112e-01
 -1.5508918e-01
  5.2439833e-01
  3.3288088e-02
 -3.1369480e-01
 -2.1730100e-01
  5.4940820e-01
  1.7326830e-04
 -2.2365566e-01
 -1.5370723e-06
  5.2100766e-01
  4.8621457e-02
  2.9627856e-02
  3.7514374e-03
 -2.0007828e-06
 -4.4822806e-05
  1.5874569e-01
 -2.2461103e-02
 -1.6742082e-01
  6.6589164e-03
  4.3184853e-05
  2.9660961e-05
  5.9389500e-03
  4.7934720e-01
 -1.3265457e-05
  9.8579824e-02
  8.7714525e-06
 -5.7972455e-01
 -6.4165376e-02
 -1.0638523e+00
 -3.0683288e-05
 -2.9409170e-01
  4.2779464e-01
 -5.4182077e-05
  4.0583819e-01
 -2.9848986e-06
  6.7834616e-02
 -3.2053864e-01
 -2.0475071e-03
 -1.8430327e-01
 -5.1792536e-05
 -3.4359971e-01
 -4.6371761e-01
  1.9811283e-01
 -1.0548426e-04
 -4.8236674e-05
  1.6665191e-04
  1.6814101e-04
 -3.0517465e-05
 -1.5529767e-01
 -9.1429137e-02
  2.0730904e-05
 -8.0534118e-01
 -7.3659678e-05
 -1.4612056e-05
  9.2733407e-01
 -1.8634525e-04
 -2.8076202e-01
  5.8243817e-01
 -8.7280647e-04
 -4.8455176e-01
  9.9590043e-06
 -3.4960110e-03
 -5.0066476e-05
  1.3110177e-05
 -2.4571596e-05
  1.1053612e-04
  6.0148777e-05
  8.2262131e-06
 -2.8567202e-04
  1.4988980e-05
 -1.7700797e-03
  5.0872745e-06
  8.0108142e-04
  5.5170829e-05
  6.1468629e-05
  7.4727322e-05
  9.9050421e-06
 -3.4794932e-05
  5.7478373e-05
 -2.2235741e-05
  1.6401537e-01
 -3.6696136e-05
  2.5266476e-05
 -4.6204248e-05
 -5.3672029e-05
  1.0344228e-01
  1.9797191e-05
  1.2521533e-04
  4.0245282e-06
 -6.2057930e-05
 -5.1967916e-05
 -1.1415550e-04
  7.7024051e-05
  4.5061370e-07
 -2.2558936e-04
 -1.2586561e-04
 -1.3238140e-05
 -1.6152952e-05
 -5.7025563e-06
  4.2970023e-05
  1.4777461e-05
 -9.8375349e-05
 -5.4807111e-05
  2.2736100e-05
 -1.0033148e-04
 -4.1203433e-01
 -2.1821731e-01
 -3.0975300e-01
 -3.7095070e-01
  3.7238577e-01
  8.8823311e-02
 -8.2207717e-02
 -5.4646343e-01
  1.4624023e-05
 -4.1173429e-05
 -1.9186319e-04
 -3.4355166e-05
  7.4878119e-02
  3.9815714e-05
  3.8326980e-05
  1.2030013e-02
  1.7297652e-05
  1.1724805e-05
 -5.3796139e-06
 -3.8058532e-04
 -1.6240852e-02
  2.8445256e-05
 -1.3261569e-05
  5.7038993e-05
  4.4288106e-05
  1.4026095e-04
 -8.6975560e-06
  1.7418216e-03
  1.7822334e-06
  5.0598510e-02
 -8.8595079e-05
 -1.4487517e-01
  1.2457129e-04
 -4.6535002e-05
 -4.0549648e-04
  1.4665486e-04
 -2.9013469e-05
 -6.2102881e-05
  3.0883504e-05
 -1.1374596e-05
  1.4084029e-05
 -3.3581989e-06
 -1.5683673e-04
  2.6110356e-04
 -9.5522453e-05
 -5.5258199e-05
  1.5243885e-04
  2.4748540e-06
  3.4435958e-05
  6.3670964e-06
 -7.5855052e-05
 -5.6999559e-03
  5.2525116e-05
  2.3298981e-05
  1.3164793e-05
 -1.0288455e-04
 -7.1591836e-05
 -1.1672764e-04
  3.6152902e-05
  7.9864520e-05
 -3.6414793e-05
 -7.2152002e-06
  2.3188424e-05
 -3.9624425e-05
 -6.7435994e-06
  1.2479876e-05
 -5.9394428e-05
  1.9812076e-05
  1.7262340e-05
 -2.0235031e-05
  2.0023852e-05
  3.0758049e-05
 -5.0019276e-05
  1.2930564e-04
  1.1698997e-05
  3.7275197e-05
 -1.1718790e-05
  1.8620805e-05
  1.9845444e-05
  2.3478533e-06
 -8.4933483e-05
  1.6274638e-05
  1.4540736e-05
 -4.3198190e-05
  6.3076033e-05
 -7.1044211e-05
 -7.5119833e-06
  2.5669255e-05
 -3.9658993e-05
 -1.4023706e-05
  7.6415548e-05
 -2.3832283e-05
  3.5969570e-06
  3.3679964e-05
 -2.1969478e-05
 -5.3394633e-05
 -1.2431064e-05
 -2.0301479e-05
 -2.3307683e-05
  5.0534956e-05
 -2.0390586e-04
  4.8855858e-05
  1.9659477e-05
  3.4230754e-05
 -7.6099997e-05
 -8.2041224e-05
  8.3842779e-06
  4.3441585e-05
  7.1311137e-05
  2.2595028e-05
  5.6498367e-05
 -6.4334468e-05
  3.4134198e-05
  2.8089145e-05
 -1.0584549e-04
  2.5501087e-05
 -2.1919477e-05
 -2.3477547e-05
  1.1670942e-04
 -4.6073721e-05
 -4.8300972e-06
 -6.0249789e-05
 -4.0346684e-05
  5.6446239e-05
 -1.1586364e-04
 -5.6816680e-05
  9.6877688e-05
  8.6593909e-06
  9.5563119e-06
 -3.1878822e-05
 -6.9017253e-05
  3.3392986e-05
 -1.2277348e-05
  3.1459273e-05
 -1.2008196e-04
  3.4611119e-05
  2.4358564e-05
  1.4051432e-05
  4.8169693e-07
  5.1522464e-05
 -4.5096800e-05
  4.0950772e-07
 -3.1741165e-05
  6.5936998e-05
  6.2948388e-06
 -6.2389132e-05
 -5.7929610e-05
  7.1305858e-06
  1.5463954e-04
 -4.1890340e-05
  3.1434101e-05
  7.7031771e-05
  4.5136380e-06
 -2.9788363e-05
  1.1484886e-04
 -2.3698934e-05
 -8.1995677e-05
  4.0322248e-06
 -2.6547130e-05
 -1.9302097e-05
  1.2672887e-05
  7.2930457e-06
 -9.4667434e-05
  2.8671917e-05
 -1.6260834e-05
 -1.4479352e-05
 -1.9136471e-05
 -9.6625499e-06
 -6.1087951e-05
 -7.3387200e-06
  7.9720041e-05
 -8.9813206e-05
  3.8629194e-05
  2.6498721e-05
 -8.9597270e-06
  6.8048699e-05
  1.4709992e-05
  1.9714902e-05
  6.5252410e-05
 -6.3535281e-06
  2.2571718e-05
  1.6176226e-04
  7.7742116e-06
 -5.8826731e-07
  3.3839100e-07
  7.0823148e-06
 -5.5518876e-07
  5.6260320e-05
 -4.4378045e-05
 -1.0610775e-05
 -1.1982199e-04
 -2.0087988e-05
 -2.2495205e-05
  4.6143487e-06
 -1.4562273e-05
 -9.0554768e-06
 -1.0100224e-05
 -1.5740630e-05
  9.9724439e-06
 -1.6495984e-05
 -8.8906301e-05
  3.6112247e-05
 -3.1245519e-05
  2.1586267e-05
 -1.4910937e-05
  2.5066320e-06
  1.7336903e-05
 -7.2219391e-06
 -4.4893379e-05
  9.4077688e-05
  2.1802338e-05
  2.0704612e-05
 -1.0169869e-04
 -1.2055277e-04
 -3.3150183e-05
  2.2967908e-05
 -6.4651995e-06
  4.5763704e-06
  1.7347209e-05
 -1.8880210e-05
  2.6169506e-05
  2.9033949e-05
  4.5167399e-06
 -1.9068424e-05
 -3.3586898e-06
  2.5559551e-04
  7.5546930e-05
  7.7354434e-06
 -9.6143238e-05
  2.3305000e-05
  7.8028643e-06
  4.3278407e-05
 -9.1771262e-06
 -3.3177246e-05
  8.2507846e-05
  1.2400988e-05
 -6.9144990e-05
 -2.2548969e-05
  2.6350972e-05
  3.2327007e-05
 -3.2304728e-05
 -6.2811660e-06
 -1.4156956e-04
  2.7124710e-05
 -2.8947035e-05
  2.7419461e-05
  2.4225426e-05
  3.7024794e-05
  3.2235807e-06
  5.4281390e-05
 -2.9609493e-05
  1.1299055e-05
 -6.3885294e-05
  5.7789446e-05
  7.0058304e-05
  4.3756354e-05
 -2.1108140e-06
  8.1515554e-07
  5.6034220e-05
 -3.0809031e-05
 -3.7216985e-05
 -5.4235348e-05
 -4.2425352e-05
 -1.2879183e-04
  1.1087599e-05
  6.8391280e-05
 -7.9468036e-06
 -1.6995615e-05
 -2.8683278e-05
  9.7610515e-05
 -8.8407911e-02
 -1.0475439e-01
  5.1977009e-01
 -3.0118914e-02
  2.9499065e-02
  3.7271112e-02
  9.7189406e-03
 -3.2463828e-03
 -8.9944720e-02
  1.5139024e-04
  5.1100925e-03
 -2.2952311e-01
 -2.3592806e-01
 -4.7516948e-01
  1.8440915e-03
 -1.2127053e-01
 -2.2952810e-02
  7.0362277e-03
 -1.5115243e-02
  2.2130729e-01
  1.0427580e-02
 -2.3786370e-01
  1.1051659e-03
 -4.8143961e-02
  2.9629186e-02
 -5.7220924e-01
  2.0393166e-01
 -8.0815166e-02
 -2.0942029e-02
  1.6478673e-01
 -1.6144039e-02
  2.2583321e-02
 -2.8221175e-04
  5.7941568e-03
 -1.0351923e-01
  6.4707734e-02
 -1.0304891e-01
 -5.2522361e-02
 -3.2487148e-01
  5.8799930e-04
  5.2999920e-04
 -2.4352851e-03
  1.4610977e-01
 -3.2727350e-02
  5.9201258e-01
 -3.7272584e-01
  9.5942684e-02
  3.2273435e-06
 -7.5792988e-05
 -3.9179431e-04
  5.7096690e-02
  4.6433812e-01
  5.7117236e-01
  1.4032862e-04
  3.4031174e-05
 -3.8607079e-05
 -2.8404700e-05
 -2.2395619e-05
  6.1128330e-06
  4.6970748e-05
 -4.3947475e-05
  2.5787078e-05
  5.0295307e-06
 -1.6466609e-05
 -3.0523431e-06
 -1.7649484e-06
 -1.5314195e-05
 -2.8597542e-05
  4.8421072e-05
  4.3652799e-05
  1.7855093e-05
  5.1779170e-07
 -8.4287676e-06
 -4.7187208e-05
 -6.4980639e-05
  6.7805113e-06
 -1.7148854e-04
 -2.7500973e-06
 -2.1866885e-05
 -4.5889963e-05
  1.4519905e-05
  8.7823419e-06
  1.0488162e-05
  5.2917218e-05
 -2.2361774e-05
  2.9616244e-04
 -6.4441170e-05
  1.9889086e-04
 -7.9159745e-06
  1.1373323e-05
  7.0049762e-05
 -1.1445591e-05
 -1.8449848e-05
  2.5070620e-05
  1.0668927e-05
 -2.2116723e-05
  9.5767473e-07
  3.6548754e-05
  7.6983915e-06
 -5.2189269e-05
  9.1777925e-05
  1.8742869e-05
 -6.5119543e-06
 -3.9367649e-05
 -8.1836864e-05
  2.3037323e-05
  6.6520544e-05
  1.3727362e-04
 -6.7193746e-06
  3.5516307e-05
 -2.7990216e-04
  1.2302379e-05
  2.3037173e-05
  1.1251591e-04
  1.6330845e-05
  4.0648989e-05
 -8.4235842e-05
 -1.1033745e-04
 -3.2805438e-05
 -7.1938673e-05
  1.1845752e-05
 -7.3525152e-05
 -1.5877531e-05
 -3.8337275e-06
 -5.7281466e-07
  1.3352229e-05
 -2.2966482e-05
 -1.6600523e-05
 -2.1688596e-05
  1.0631266e-04
  6.4421647e-06
  3.8806229e-05
  4.0304963e-05
  7.2630624e-05
 -1.3860556e-05
  6.3880667e-05
 -4.2276824e-05
  3.8441183e-05
 -3.5059662e-07
 -6.4818349e-05
  2.7495933e-05
 -5.0181126e-05
 -9.7977054e-06
 -5.0448893e-05
 -3.9187347e-05
 -1.1136597e-04
  6.0672028e-05
 -3.1082884e-05
  6.4463253e-05
 -1.1376406e-05
 -2.4861135e-04
 -5.8489466e-05
 -9.7489992e-06
  7.3540898e-05
  6.6110246e-05
  1.3101553e-05
 -7.2054236e-06
  4.3294549e-06
  8.1436738e-05
  3.7712027e-05
  4.3856009e-05
 -3.2762095e-05
  5.2987095e-02
 -7.3751874e-02
  4.7090167e-01
 -3.8538210e-02
  2.1260556e-05
 -3.1531331e-01
  7.1857654e-02
  1.1786338e-01
  3.6787294e-02
  6.9171314e-05
  1.8398820e-04
 -6.3783803e-04
 -6.5861036e-06
 -1.4422578e-04
  5.9828508e-06
 -1.2914963e-04
 -2.0290466e-04
  3.5837318e-05
 -4.2561234e-05
  4.1644933e-04
  2.1846712e-02
 -2.2395466e-02
 -9.7328211e-06
 -4.7237219e-05
  1.7022016e-04
 -1.7994019e-01
  9.3666444e-05
  1.0333618e-04
  1.4126036e-06
 -4.3387383e-02
 -3.4100495e-04
  3.3143035e-01
 -3.5200515e-05
  1.2552123e-02
 -1.1613103e-02
  2.2763027e-04
 -1.2939924e-04
  3.9488725e-05
 -2.8918721e-02
  2.3222655e-04
  3.3998146e-04
 -1.7595592e-04
  5.9583526e-02
 -1.5505067e-03
  2.6621653e-02
 -3.1504373e-03
 -4.4552700e-05
  7.2799344e-06
  2.5701216e-05
  1.0479034e-04
  7.3420415e-06
  1.7437218e-01
  1.7229104e-03
 -1.5380529e-05
 -2.5553207e+00
  5.6271881e-01
 -2.0607382e-01
  3.3250737e-01
  1.1593159e+00
  1.9252646e-01
  5.8596369e-02
 -1.6270642e+00
  1.7456831e+00
  2.6165086e-01
  4.5457732e-02
  6.5141022e-01
 -3.8291098e-04
  1.7922357e-05
  2.2973731e-05
  6.5524124e-05
  1.8204270e-01
 -5.8835849e-05
  6.4635289e-01
  4.3664536e-01
 -2.0258458e-01
  2.8095365e-01
  1.6662771e-06
  2.1701794e-02
  1.1823814e-01
  8.4098108e-02
  3.5634628e-05
  3.8367197e-02
  3.7723178e-01
  5.0108480e-01
 -2.4739656e-01
 -2.4691477e-01
 -2.1840249e-01
  2.3842023e-01
 -1.6556997e+00
 -2.3468113e-01
 -2.5412794e-05
  2.0902906e-02
  2.1471291e+00
  2.5175864e-01
 -3.3370106e-05
  5.9366040e-04
 -6.6982210e-01
  1.5668471e+00
 -8.1565013e-06
 -2.5674200e-03
  8.3326551e-05
  5.0081265e-01
  5.2056683e-04
  1.4447371e-05
 -3.6381516e-05
 -1.3362075e-01
  1.0621674e-04
 -4.6558260e-05
  8.0719685e-05
 -2.3163623e-06
  1.7431646e-04
  1.5396226e-04
  6.7852852e-05
  4.8964193e-06
  2.4663981e-05
  1.2803481e-05
  3.3983320e-05
 -2.1565975e-05
 -2.3077433e-05
 -5.3668427e-05
  4.7667436e-05
  9.4973613e-05
  4.5320994e-05
  4.0365267e-06
  1.0013855e-04
  1.5051254e-05
 -3.2334938e-05
 -1.7168313e-05
 -5.1442101e-05
 -3.3354678e-05
  1.0392185e-04
  1.0181709e-04
 -8.2321072e-05
  1.3279378e-05
  5.1143023e-05
 -1.8649187e-05
  9.7439715e-06
  9.0603808e-06
 -5.2254371e-05
 -3.2835292e-06
 -9.1042593e-06
  1.2248727e-05
  1.6391241e-05
 -1.3609885e-04
  2.1644702e-05
  9.7219290e-06
 -2.8676412e-05
 -3.4107052e-05
 -3.2882399e-06
  1.6103320e-05
  1.2118488e-05
 -3.5899277e-05
  7.1646900e-05
  2.4621706e-05
 -2.2448716e-05
 -1.7933478e-05
  1.0230744e-04
 -2.4033212e-05
 -2.7096776e-05
  9.6970443e-06
 -4.9686978e-06
 -1.2219079e-05
  4.7111578e-05
  1.8799818e-05
  1.3391181e-05
  8.5849184e-05
 -2.8393599e-05
 -4.8478989e-05
  3.5375513e-05
 -1.2925630e-06
 -7.8748169e-05
 -1.2639898e-04
 -8.3908653e-06
 -3.9409399e-05
 -2.6344183e-06
 -7.9038282e-06
  2.8771834e-04
  5.9941840e-06
 -3.8231479e-05
 -1.4438734e-05
 -8.2377970e-05
 -9.3557792e-05
  8.0501864e-05
  3.3033688e-05
  9.6369440e-06
  5.6667042e-05
  9.6835676e-05
 -1.1680192e-04
  4.5210920e-05
 -1.4154190e-05
  3.2858647e-05
 -1.5085168e-05
 -2.1222046e-05
 -3.6838665e-05
 -1.0457744e-04
 -4.3960164e-05
  1.2773226e-05
  6.1574043e-05
 -5.0203842e-05
 -5.1497689e-05
 -4.8408245e-05
 -3.4269338e-05
 -3.3643123e-06
 -5.4503603e-06
  1.3051318e-05
  2.0912732e-05
  6.4628534e-06
 -9.8374403e-05
 -1.0473364e-05
 -6.9109665e-05
  7.2353272e-05
 -1.0371489e-05
  1.6680475e-05
 -4.2503572e-05
 -9.2839444e-05
  6.2321036e-05
 -1.1168544e+00
  1.7983939e-01
 -1.1226292e-01
  1.1982307e+00
 -8.7942940e-01
 -8.8592112e-01
  4.0783588e-02
 -1.5640125e+00
  2.9044435e+00
  3.0602256e-05
 -4.1984116e-05
 -4.3635727e-03
 -9.8112374e-05
  1.5438385e-03
 -7.1405266e-05
  1.5078872e-01
 -1.0712120e-06
 -1.0040283e-03
 -6.6755313e-01
 -2.3423846e-01
 -9.6614522e-01
  4.3422604e-01
 -7.2315015e-05
  1.1623253e-03
 -1.0357171e-04
 -1.0211070e-04
  8.7249191e-07
 -2.0167502e-03
 -4.5361685e-06
  4.9187315e-01
 -1.7720276e-01
  3.8680214e-01
  2.0895848e-05
  5.3190321e-02
 -1.1360581e+00
  8.4989770e-05
  1.3709997e-01
  3.5427038e-05
 -1.2106113e+00
  2.0043853e-04
 -1.7660303e-05
  1.5013357e-02
 -1.6134104e-04
 -3.2198298e-01
 -2.0682621e-05
 -2.2386146e-05
 -3.7822178e-05
 -7.7406650e-05
 -1.3802465e-04
  1.5762444e-05
 -1.2044582e-04
 -6.3330665e-02
 -4.6085639e-05
 -9.0734638e-06
 -1.4890365e-01
  4.8825929e-01
  1.0502633e-01
  6.1804187e-01
  4.9242291e-01
  1.9651176e+00
  3.5919639e-01
  7.1556383e-01
 -1.3866314e-01
 -1.3768397e-01
  5.4747546e-01
 -2.0598696e-01
  1.4936519e-01
 -5.5539352e-01
  9.7134399e-01
 -7.9667181e-02
 -1.6337942e+00
 -1.9099603e-04
 -5.0395654e-05
  1.0030671e+00
 -3.4390554e-01
 -9.4431776e-01
  1.0972198e+00
 -1.2142478e-01
 -7.7173334e-01
 -8.8250083e-01
  1.3306349e-03
  3.0902910e-01
  7.1161807e-01
 -4.0544935e-02
 -1.8860848e+00
 -6.2914109e-01
  5.5289734e-02
  8.5450000e-01
  5.4345036e-01
  7.3324561e-01
 -6.2055576e-01
 -6.4842784e-01
 -3.4618989e-01
 -3.7389585e-01
  1.0855097e+00
 -9.7054821e-03
 -1.3838956e-01
 -1.6584414e+00
  9.6792680e-01
 -6.3454863e-05
  7.1795523e-02
 -1.3639607e+00
  1.1371492e+00
 -6.2487517e-02
  4.9705759e-01
  3.0604277e+00
  7.1401495e-01
  3.5697631e-05
  4.8276990e-05
 -4.2513668e-05
  6.6530174e-06
  1.9002724e-05
 -4.0395764e-05
 -6.5387743e-05
  9.4423694e-06
  1.4449575e-02
  8.7793978e-06
  6.2256244e-05
 -1.1694599e-04
  5.2124917e-05
 -1.0906258e-04
  7.4157106e-07
  1.1248079e-05
  6.3781743e-05
  1.5515705e-05
 -5.1686889e-05
  8.6908629e-05
 -9.8097626e-06
 -9.6065614e-06
  1.2532427e-04
  2.8364673e-05
 -3.4599165e-05
 -4.2449596e-05
 -6.6629063e-06
 -1.7262319e-05
 -5.8728940e-05
 -1.2996932e-04
 -2.5434580e-05
 -1.9226280e-05
 -1.4081743e-04
 -1.5397056e-05
 -9.1321217e-06
  9.7395950e-06
 -8.2114799e-05
  1.1336776e-06
  1.4292239e-04
 -4.4971417e-05
 -8.9588633e-05
 -2.0980886e-05
  2.8641311e-05
  1.9636622e-05
  6.1181745e-05
  4.1217805e-05
  4.4559292e-05
  5.8884270e-05
 -4.8812086e-05
 -5.8804246e-05
 -3.6552628e-06
 -4.7590398e-05
  5.4128159e-05
  1.4626779e-04
 -1.5382930e-05
 -2.2404414e-01
 -9.2971360e-04
 -1.4183137e-02
  5.7055647e-03
  4.6790723e-05
 -3.6211139e-05
 -8.5186921e-03
  1.3346374e-02
 -4.4808215e-01
  1.9232721e-05
 -1.3636661e-05
 -4.7753078e-05
  5.3167634e-05
  4.9224593e-05
  3.1971442e-05
  1.0107234e-04
 -4.9105074e-05
  4.1550943e-06
  1.8924093e-05
 -1.1708806e-04
 -2.3510084e-03
  3.7299941e-07
 -1.8623186e-05
  5.6211270e-06
 -2.4052321e-04
  1.0991048e-04
  6.4274432e-06
 -5.0594044e-06
 -6.2253212e-06
  2.6169810e-01
  1.2178098e-04
  1.7400382e-05
  6.9010544e-05
 -1.2492408e-02
  4.4842806e-01
  1.9331871e-06
  1.2157975e-05
 -1.6549520e-05
 -7.4345728e-05
 -3.1495918e-05
  5.0543013e-06
 -3.5362609e-05
 -2.9590793e-02
  2.1714774e-04
 -7.6919084e-04
 -2.5895324e-05
 -1.4479103e-05
  2.1468832e-05
  1.9804735e-05
  1.5041343e-05
  7.7842204e-05
 -3.7936118e-04
  1.3898762e-05
  8.9370282e-05
  1.7185410e-02
  6.7229390e-01
 -8.6845744e-01
 -1.1057262e+00
  2.2249271e-01
  1.5088952e-01
 -4.6549889e-01
  2.6874912e-01
  1.1582577e+00
  9.7745055e-01
 -7.4910530e-04
  1.2464218e+00
  1.3667902e-01
  1.0963022e-01
  3.3398097e-05
  7.2860844e-02
 -6.0264409e-01
 -6.9770738e-02
 -2.2962200e-02
 -7.1953267e-01
 -8.7605721e-01
 -5.7615157e-02
  2.2901243e-01
  9.2755724e-04
 -1.0416630e-01
  2.4072313e-01
 -1.1312585e-04
 -1.1687693e-01
 -1.8211417e-02
  1.4974381e-01
 -5.3399068e-05
 -1.4563689e-01
  1.1020685e-04
  3.8774016e-01
  1.6795495e-01
 -6.3018864e-01
  1.5050721e-01
 -2.2320736e-03
  1.1232803e-03
 -5.6554121e-01
 -1.7804532e-01
 -3.0642667e-01
 -3.8095811e-01
 -1.8884812e-01
 -9.7073376e-01
  2.6445925e-01
 -1.7054725e-02
  8.6768940e-02
 -1.5055585e-04
  2.9455028e-05
 -2.3587479e-03
 -2.8476024e-01
 -4.5663193e-01
 -7.8590791e-05
  4.0090245e-06
 -7.0494410e-05
 -6.7623487e-06
 -3.1655218e-05
  1.0879580e-05
  3.5964309e-05
  2.1048834e-05
  4.1168432e-06
 -6.8540336e-05
 -6.5112145e-05
  2.4820953e-05
  2.0481390e-05
 -3.5629125e-06
  3.1239950e-05
 -1.8378627e-05
 -5.1921925e-05
  1.1868623e-07
  5.7276826e-05
 -2.6301181e-05
  6.5804976e-05
 -1.8250306e-06
 -3.7282938e-05
 -9.2276314e-05
  4.1599316e-05
  1.8974530e-05
 -3.1789488e-05
  6.0172690e-05
  3.8974973e-05
 -4.0433933e-06
 -6.9786351e-05
 -4.2589763e-06
 -4.9430687e-06
  4.1060273e-05
 -5.9376005e-05
  2.7313543e-05
 -5.9238697e-05
  2.0167554e-05
  4.4432622e-05
  5.8305799e-05
  6.1064136e-05
  5.7224202e-05
 -2.3059922e-05
  1.7804647e-05
  5.0272633e-05
 -6.7311164e-05
 -7.9794219e-05
 -2.8167806e-05
 -4.1488747e-06
 -1.0211187e-07
  4.5074223e-05
 -7.8695994e-06
  9.8804412e-07
 -6.1491764e-06
  2.0014711e-04
 -6.5268464e-06
 -3.9129976e-05
 -4.5556445e-03
  6.3018297e-04
 -6.3448031e-05
  1.6661340e-04
  2.4829082e-05
  2.8681906e-03
 -1.5467261e-04
  1.0955172e-04
  3.5876095e-05
  1.1361443e-05
  1.1205026e-04
  3.7453265e-05
 -8.1063088e-05
  2.9021840e-05
 -7.1842325e-05
 -7.5552425e-06
  8.5900601e-06
 -3.2293101e-05
 -5.7699624e-05
 -5.5058215e-05
 -2.2671549e-05
  1.4343556e-05
  6.0970597e-05
 -1.7817252e-05
 -2.3913422e-05
  3.2680957e-05
 -2.1071546e-05
  1.0277308e-04
  2.6958112e-05
  6.3370251e-05
 -1.3948493e-06
 -2.3093383e-04
 -8.6630962e-06
 -9.3213668e-05
 -3.9968118e-06
 -2.3991741e-05
  4.1016692e-06
 -1.1485353e-05
  3.8941191e-05
  2.1531977e-04
 -8.9867877e-05
  5.8406840e-05
 -4.0613595e-06
 -7.0601956e-05
 -1.6626331e-04
 -2.3078272e-05
  8.6205808e-05
  2.4639851e-06
 -6.1968960e-05
 -1.7985098e-04
 -5.1575157e-06
  5.8752098e-06
  6.6419160e-01
 -7.1662474e-01
 -4.1480598e-01
 -1.7803768e+00
 -4.3597463e-01
 -3.2571942e-01
 -4.5900884e-01
 -3.1491664e-01
 -2.3104522e+00
 -6.1391328e-02
 -1.6162335e+00
  4.5438731e-01
 -2.0107207e-01
  4.2259040e-01
 -7.7410561e-01
  6.0565478e-01
  5.5079438e-02
 -4.6184677e-01
 -1.7613764e-01
 -2.0278802e+00
 -8.1979084e-01
  3.5519856e-01
  6.3000923e-01
  1.1864933e-03
 -6.5990287e-01
  9.2559320e-01
 -3.1840912e-01
 -1.2661974e+00
  3.9350903e-01
 -1.5324755e+00
  4.1659694e-02
 -4.1630289e-01
 -2.5683329e-01
  1.3131635e-01
 -6.2270153e-01
 -1.8853144e-01
 -1.8167129e-02
  2.0886582e-01
  1.7063047e-01
 -5.2416807e-01
  1.4576254e-03
  6.0420326e-04
 -2.3107531e+00
 -8.5501319e-01
 -8.3570790e-01
 -1.2527814e-04
 -3.0755509e-02
 -4.8888610e-03
  6.4456144e-06
  2.4216918e-04
 -5.8554066e-05
 -9.6141773e-01
 -2.3868482e-01
 -4.3481949e-05
 -1.4198497e-05
  7.5218072e-06
  2.7121154e-05
 -2.8474058e-05
  4.9982988e-05
  6.0601262e-05
  2.6116946e-05
  3.7269881e-05
  7.1330345e-05
 -5.6494664e-06
 -4.7665376e-06
 -1.2926123e-05
 -1.5763083e-06
 -1.5736147e-04
 -1.4160707e-04
 -6.8450718e-05
  8.3000496e-06
 -3.6475278e-05
  2.1754497e-05
  2.6748454e-05
 -9.0884059e-05
  7.4824246e-05
 -1.7464330e-05
 -7.9507168e-05
  9.0239344e-05
  4.3695389e-05
 -1.9627345e-05
 -1.6918854e-04
  4.4670896e-06
 -2.6755921e-05
 -6.0674105e-05
 -6.6310677e-05
 -1.2828619e-04
  2.9256107e-06
  1.1126071e-05
  6.0272985e-05
 -8.8997702e-05
  2.8587463e-05
 -1.1318552e-04
  4.6553596e-05
  1.0298787e-05
 -1.6665017e-05
  1.0739632e-05
  8.3052975e-05
 -1.3708040e-05
 -2.0604835e-05
  2.4470968e-05
 -1.6261065e-05
 -2.1747574e-05
 -9.3843024e-05
 -5.9103644e-05
  6.1029923e-06
  2.7258246e-05
 -1.2250902e-04
 -7.9865013e-06
 -2.3258599e-06
  4.7516696e-05
 -5.2199110e-05
 -1.9674286e-05
  5.2664916e-05
  2.7801099e-05
 -1.1946242e-01
  3.2433873e-04
  7.9678532e-05
  1.1299982e-05
  6.1851410e-05
  8.0368649e-05
  2.6943865e-06
  1.0834953e-04
 -5.0653063e-05
  3.0374260e-05
 -3.8042188e-05
 -5.1810042e-05
 -2.1877877e-05
  2.7944714e-05
 -1.4639021e-05
 -9.1051435e-05
  1.2106899e-04
  3.7103113e-05
 -1.7508962e-04
 -4.9396316e-05
  1.0269117e-05
 -4.7507756e-06
 -1.9655365e-05
 -1.6835733e-05
  1.1604594e-04
 -1.3956169e-04
  1.6165493e-04
  3.9440747e-05
 -2.7412166e-06
 -2.1741744e-05
  5.2837663e-06
 -3.8201410e-06
 -5.3426469e-05
  4.3423694e-05
 -1.2287741e-05
  1.9112491e-05
 -6.0624484e-06
  3.2398784e-06
 -1.5859547e-04
 -1.3050723e-05
  7.5239132e-06
  2.3936556e-05
  1.6656335e-05
  7.3333249e-05
  1.8147184e-05
  6.1616738e-05
  2.3555422e-04
  8.2220604e-06
  7.1464492e-05
  9.1572947e-05
  4.0089315e-05
  4.8021026e-05
  1.0438308e-05
 -1.0323392e-05
 -1.6066977e-05
 -2.3880657e-05
  5.6815188e-06
 -3.9037561e-05
  2.4619074e-05
  2.5696161e-05
 -4.2926381e-06
 -5.2495172e-05
 -1.2424696e-05
  1.6448290e-05
  7.6738816e-06
 -1.5121711e-05
  6.2693944e-05
 -2.5474141e-05
 -3.6801255e-05
  3.2048636e-05
 -5.4508655e-05
  1.1683926e-05
 -1.7477805e-05
  3.7194986e-05
 -7.4276513e-06
  4.7270860e-05
 -4.3254488e-05
 -1.0572697e-04
 -1.7752884e-04
  1.5281637e-05
 -1.7430523e-04
 -7.1396113e-05
 -3.1511998e-05
  1.8203267e-05
  3.6822774e-05
 -5.2802472e-05
 -8.0911614e-06
 -5.3066629e-05
 -6.3183717e-05
 -1.1109668e-05
  6.7755980e-05
 -3.4900895e-05
 -3.4573051e-05
  4.5802581e-06
 -8.9737572e-05
  3.3223550e-05
 -5.0556253e-05
 -2.0767247e-06
  6.0074788e-05
 -7.4191789e-06
 -5.7083485e-05
  4.3110898e-01
 -6.0343689e-01
 -7.2541153e-01
 -1.3003303e+00
 -7.7341986e-01
  8.7440479e-01
  1.5771846e+00
  1.5804039e-01
 -5.5465025e-01
  6.7649685e-02
 -1.3689079e+00
 -3.0106750e-01
 -4.1120955e-01
  1.0427617e-05
  1.1168084e-01
 -1.0636444e+00
  5.3466374e-01
  4.2111224e-05
  2.0022588e-02
 -3.5180467e-01
 -8.9351034e-01
  6.7718886e-02
  6.9382089e-01
  2.5435332e-02
  4.5491342e-02
  1.2894814e-01
  1.6319324e-01
  5.1842666e-01
 -1.2524813e-01
  1.7574457e+00
  4.9599281e-01
 -3.7971568e-01
 -8.5534455e-05
 -6.2100118e-01
 -2.5470164e+00
 -1.8452546e-02
 -1.6492639e+00
 -3.3577111e-02
  9.8168981e-01
  1.2737608e+00
  5.0095014e-02
 -3.6249462e-01
  1.2844566e-01
 -3.1424427e+00
 -1.0726356e-03
  1.7039428e-02
 -6.0276836e-02
  7.0020586e-01
 -1.3939699e-05
  3.7398793e-05
 -5.4943230e-04
 -1.9850712e-01
 -8.5186489e-02
 -5.0497558e-05
 -1.9132714e-05
  5.3900549e-05
  5.9248719e-05
 -6.5026856e-05
  1.7399077e-05
 -7.3416645e-06
 -6.2470426e-05
 -4.3192986e-06
 -9.9074670e-05
  1.0153359e-05
  3.4069119e-05
  7.8717007e-05
 -9.6644864e-05
 -6.3119762e-05
 -4.5440374e-05
  3.4119599e-05
  4.6590690e-06
 -1.7010696e-05
 -5.2148171e-05
 -8.6190166e-06
  2.9328772e-05
  1.2718673e-05
 -8.5256579e-05
  4.7650890e-05
  2.7538092e-06
 -2.6058515e-07
  3.1621119e-05
  3.3479202e-05
 -9.0141493e-06
 -1.5664787e-04
 -1.0128739e-04
 -3.3929777e-05
 -3.2727508e-05
 -1.5943991e-05
 -7.5992117e-05
  4.2883446e-05
 -4.8813545e-05
 -7.0476766e-05
 -1.9820240e-05
 -9.1382768e-05
 -1.3434891e-04
 -1.5569774e-04
 -1.2037788e-05
  3.9213195e-05
  1.3861225e-04
  9.3424605e-05
  1.6526350e-04
  3.2531470e-06
 -4.3685836e-06
 -6.7693645e-06
  1.0609195e-04
  3.2075503e-05
 -1.6355400e-05
  3.8648313e-06
  1.1749390e-02
 -5.9465063e-01
  1.0090141e-01
 -3.8291219e-01
  3.8503817e-01
  4.2890421e-01
 -3.6515129e-01
 -6.4184570e-01
  6.2766328e-02
 -1.0372217e+00
 -1.3379316e+00
 -5.9022796e-01
 -9.0610379e-01
  2.9873788e-01
 -2.6893911e-01
 -1.6541316e-01
  4.2166671e-01
 -5.1232535e-01
 -2.5059178e-01
 -8.8343817e-01
 -5.3794688e-01
  3.1450513e-01
  5.7177374e-04
  3.4592129e-02
  2.1402520e-01
  3.5090816e-01
  6.9363923e-05
  1.3196148e-01
  6.0061860e-01
 -5.8066901e-02
 -9.7654200e-01
  5.9601603e-05
 -5.5069053e-01
 -3.5778078e-01
  1.2013302e+00
 -7.3006359e-04
 -1.8307197e-01
  1.0539093e-02
  2.5709701e-04
  7.6963371e-01
 -4.8177797e-05
  1.0306271e+00
 -1.4399591e-01
  7.1175551e-01
  1.0630149e-04
 -2.2217406e-01
 -4.6422757e-02
  1.0529936e-01
  1.4964123e-03
  1.1510246e-05
 -5.9829410e-05
 -4.1353065e-01
 -1.6935258e-01
 -1.3236170e-05
 -1.6672403e-06
 -1.5752648e-05
 -8.9084624e-06
 -5.2062933e-07
 -5.3788685e-06
 -5.5871962e-05
 -8.6074906e-06
  2.8843917e-05
 -8.3372746e-05
 -7.1299080e-05
 -4.2540345e-05
 -2.5146654e-05
 -9.3772658e-05
 -2.7506412e-05
  6.1900391e-05
  5.7560610e-06
 -4.7583551e-05
 -7.5583453e-06
 -3.8837043e-05
  5.2991873e-05
  5.5600682e-05
 -1.7738133e-05
 -1.4217983e-05
  1.1162039e-04
 -5.2869706e-05
  4.6396952e-05
  2.9679057e-05
 -1.6365583e-06
  8.2770966e-05
 -2.2007614e-06
 -1.1254966e-06
  1.6799902e-05
  1.0138429e-04
  3.1379550e-05
 -2.0679632e-05
 -3.2940829e-05
 -7.1651484e-06
  3.1902950e-05
  1.8954265e-04
  2.8111977e-05
 -1.0527385e-05
 -1.0119475e-04
 -2.4049894e-05
 -6.4313599e-06
  4.4816916e-05
  4.0738737e-06
 -4.4416582e-05
 -3.8655424e-05
 -9.8305245e-05
 -2.2767254e-05
  3.7633115e-05
  6.5730972e-05
 -2.3641121e-06
 -4.4910594e-05
 -2.3532624e-05
 -1.6975607e-04
 -1.2318364e-01
  1.7899835e-02
 -5.2442801e-06
  2.9602441e-05
 -1.0667824e-03
  4.3525212e-02
 -1.7235116e-03
 -1.7959193e-05
  2.7176371e-05
  9.7134653e-05
  3.0308590e-06
  1.7304663e-05
 -3.9559167e-05
 -4.9045907e-06
  4.1610605e-05
  2.2244669e-05
 -4.0571020e-05
  5.3641335e-05
 -6.6729590e-05
 -1.7212307e-05
 -7.0369060e-05
  2.4438382e-06
 -3.3514393e-06
  2.4963907e-04
  1.3215147e-05
  7.6565184e-06
  7.2619137e-06
  1.1778233e-02
 -1.7857684e-04
  4.5997214e-05
  4.0683975e-05
 -5.0452532e-04
 -1.3221960e-03
 -6.6600178e-06
 -1.6004825e-04
 -1.8267969e-05
  9.0738722e-06
  1.1600247e-05
 -2.4796846e-06
  2.4930543e-05
 -1.4504697e-04
  1.8615824e-04
 -3.7885799e-05
  1.8912602e-05
 -1.0741637e-04
  3.3031410e-04
 -3.0031277e-05
 -4.0052426e-05
 -7.6090923e-06
 -2.9281163e-04
  2.2579961e-06
  2.7691007e-05
 -2.4953908e-05
 -1.2795779e-06
  3.2605218e-05
  2.1530941e-05
  3.1668085e-05
 -7.9716838e-06
  7.5521835e-05
  8.8769440e-05
 -2.9459552e-06
  1.2209469e-05
 -3.4594102e-06
 -1.5860869e-04
  1.1250666e-04
  2.5786938e-05
 -2.3549754e-05
 -3.3622651e-05
  8.3540966e-05
 -1.2829285e-05
  4.1715590e-05
 -5.1690531e-05
 -3.8983191e-05
 -8.0020038e-07
  4.6808855e-06
 -7.6453936e-05
 -2.5155761e-05
  5.2372772e-05
 -2.6069504e-06
  6.4572800e-05
 -2.3923356e-05
  1.1299431e-05
  3.2297099e-05
  7.2125436e-06
  2.0930179e-07
  2.2693630e-05
  7.4203010e-05
 -2.4020234e-04
 -1.4250714e-05
 -6.4348795e-05
  5.4307613e-05
 -1.0397376e-04
  4.3242209e-05
  9.5029627e-06
 -3.8197668e-05
  9.8097400e-05
 -2.6749953e-05
 -6.6194602e-06
  5.3430591e-05
  6.2145933e-05
 -5.0229235e-05
  7.0117749e-05
  1.3452083e-04
  2.2954551e-05
 -4.6675423e-06
  2.0750427e-05
  1.0170857e-01
 -1.5922978e-05
 -8.5369702e-06
  7.1557290e-05
  1.6128488e-05
 -8.5450134e-05
 -1.1803961e-01
 -4.6002730e-05
 -1.2194866e-05
 -1.0240264e-04
 -2.6141455e-05
  1.7893482e-05
  1.7475530e-05
 -8.4072155e-05
 -4.6038695e-05
 -2.1071764e-04
  4.7662314e-05
 -6.8202085e-06
  5.1510873e-05
 -7.0051596e-05
  8.0680638e-06
 -5.9466033e-06
 -6.5739012e-05
 -1.4911902e-04
 -4.5191711e-05
 -6.3331281e-06
 -3.0910704e-07
  3.0647458e-05
 -8.8458604e-05
 -9.5984524e-06
 -4.4247181e-06
 -2.6760979e-05
 -5.2434216e-06
 -1.3823157e-04
 -1.2978700e-04
 -2.5359939e-05
  1.6586407e-04
 -2.0794232e-05
 -8.0660044e-05
  4.2061511e-06
 -7.8656885e-05
 -3.3805689e-05
 -2.9889612e-05
  9.6443728e-05
 -9.0373127e-05
 -2.7752742e-05
  5.1655421e-05
 -6.4926430e-06
 -4.2325405e-06
 -6.1450810e-05
 -1.2274680e-04
 -1.7388292e-04
 -3.6169091e-05
 -4.1307259e-05
  8.7951805e-05
  1.0628079e-02
  3.6530867e-01
  1.6380703e-01
 -3.6405513e-04
 -1.9991450e-04
  1.1188588e-01
  4.0695737e-03
 -1.3471128e-01
 -2.2757408e-06
 -1.2963755e-05
 -3.1759300e-06
 -4.4032554e-06
 -3.3453148e-04
 -4.2649672e-06
 -1.0906102e-05
 -5.6793492e-06
  3.6438807e-05
  3.4500092e-05
  1.3423087e-04
  1.8211655e-02
 -1.1953919e-02
  5.1888628e-06
 -4.4287186e-05
  1.9279514e-01
 -6.4752743e-02
  8.2792276e-06
  1.5912738e-03
  5.5960034e-05
 -1.0556846e-04
 -5.4115923e-03
  1.1971729e-04
  8.0847982e-05
  1.5359431e-02
 -1.4907865e-01
  1.9359449e-04
 -2.1795002e-05
  4.5275421e-05
 -1.7540933e-01
  5.7567682e-05
  9.6680276e-05
 -4.7659175e-04
  2.0485491e-02
 -2.1868854e-04
  3.3568175e-04
 -5.0892093e-05
  4.1958756e-06
  3.8928983e-06
  5.8508454e-07
  5.8731366e-05
 -1.4183072e-05
  3.1495038e-02
  3.2342409e-04
  7.1638140e-05
  5.6432185e-05
  9.2599141e-05
  7.6872493e-05
 -1.6549132e-04
 -3.4725457e-05
  1.8845934e-05
  4.4283326e-05
 -2.5013134e-02
 -1.8378720e-05
 -2.2282033e-05
  3.0157340e-05
 -4.1409548e-06
  4.0315601e-05
 -1.5081895e-04
  3.6636138e-05
  5.9113558e-05
 -5.1610477e-05
 -6.1260198e-07
 -7.8587553e-05
  1.0801854e-04
  2.6961883e-05
 -1.4658025e-04
 -2.4478848e-05
 -1.0609973e-05
  2.1660067e-05
 -4.6156791e-05
 -2.9688536e-05
  2.1560115e-04
  4.3600499e-05
  1.2579246e-05
 -2.0113583e-05
 -1.1427715e-06
  7.6316122e-05
  2.8087694e-05
  1.8220223e-04
  8.2414459e-05
  6.5803382e-05
 -8.0511440e-05
 -2.3878092e-05
 -8.9078476e-06
 -1.6941920e-05
 -2.4459734e-05
  3.0062647e-06
 -1.2101818e-05
  1.0374866e-04
 -7.2914545e-06
  5.0106792e-05
 -1.9998600e-04
  6.7562200e-05
  6.7616734e-06
 -1.7565400e-05
  2.8811410e-05
  2.5050198e-05
 -8.3868967e-05
 -1.2544249e-01
 -5.4407224e-02
 -2.7948132e-02
 -4.9846765e-01
  2.7307885e-06
 -2.1840699e-03
  1.0151769e-01
  9.9680603e-02
 -5.5785282e-03
  2.5879675e-05
  1.4181543e-05
 -2.6201326e-03
 -7.4849554e-06
 -8.8931515e-04
 -6.6607167e-06
  3.3556273e-05
 -1.2358553e-04
  1.1772135e-04
 -1.0149347e-02
  8.8185843e-06
  1.2517647e-02
 -7.1769883e-03
  4.5987413e-06
 -1.3166268e-05
 -3.6361267e-05
 -6.3641444e-03
 -5.2241900e-05
  7.5294862e-05
  6.6975168e-05
 -2.3841427e-03
  2.0502684e-05
  3.9200793e-05
 -7.6586759e-05
 -1.6634814e-04
  4.2897511e-01
  1.2152751e-03
 -2.7916520e-03
  3.4395838e-05
 -1.7299962e-01
 -6.4615604e-05
  3.0990379e-04
 -3.9098551e-04
  1.5162683e-05
 -4.8176320e-03
  4.2077932e-05
  2.4463832e-05
  2.5823675e-04
  1.2450148e-05
 -1.3444207e-04
 -2.2615914e-05
  7.0719092e-05
  1.5746813e-02
 -2.0354266e-05
  9.6683332e-05
 -9.8201975e-02
  4.0261239e-06
  1.6043428e-02
 -1.2029521e-03
 -3.5708392e-05
  8.6258624e-05
  2.1480438e-01
 -5.8164742e-02
 -1.0555974e-02
  6.0020784e-06
  4.8321072e-05
 -1.9723981e-05
  5.7691432e-07
 -3.1312939e-05
 -2.6777992e-05
  4.4253276e-05
 -8.7796019e-05
 -3.3195315e-06
 -1.5161472e-04
  4.1765801e-05
  2.0334444e-05
 -7.2711111e-05
  5.2440195e-05
 -2.0719164e-05
 -1.2699602e-04
 -4.2801759e-05
 -1.9720885e-05
 -9.4731593e-05
  1.6855543e-05
 -2.0691012e-01
 -6.1636354e-05
 -6.5832763e-05
  3.3428179e-05
  3.5575213e-04
  1.7939670e-05
  5.1334486e-05
 -4.6886940e-05
 -9.8724282e-05
 -8.2477833e-05
  3.5109497e-05
 -2.1352847e-05
 -5.6641247e-06
  3.0290374e-05
  2.0890951e-05
 -2.9196599e-05
  3.7190759e-05
 -1.0993030e-05
  1.2039085e-04
 -2.0948650e-05
 -7.2820103e-06
 -1.6158463e-05
  1.0152181e-04
  7.9602687e-06
  3.1727806e-05
  8.3870500e-01
 -9.0129882e-01
 -3.6686453e-01
 -7.5746560e-01
 -1.9020185e-01
  7.2607517e-01
  1.7352585e+00
  1.2397579e+00
 -1.2047927e+00
 -1.9038549e-01
  3.8035813e-01
  2.6265082e-01
 -5.6972259e-01
  3.2066670e-01
  3.1264484e-02
 -7.3886091e-01
  4.7553104e-01
  4.1520110e-05
  4.9104050e-01
 -3.4207609e-01
 -1.5960006e-01
  1.3918980e+00
  9.2390738e-03
  6.7521882e-04
  1.0418166e+00
  5.8532560e-01
 -4.6745990e-06
 -5.7198615e-03
 -5.8944597e-06
  5.5412281e-01
  1.1834587e-04
  1.4038455e+00
  6.9309133e-01
  1.5101384e+00
 -2.4520128e+00
  3.5918194e-01
  7.4870124e-02
 -7.9736018e-01
 -1.9217552e+00
 -2.9713255e-01
 -1.1248279e-01
 -6.8712735e-01
 -9.4589695e-02
  1.0689111e+00
 -5.7001430e-01
  7.5013906e-01
 -4.2163934e-05
  5.3060937e-01
  1.3372676e-01
  2.3747087e-05
 -4.2364652e-05
  1.5948772e-05
 -2.4377201e-01
  8.9064215e-06
 -2.3382068e-05
 -1.5819746e-04
  3.7034933e-05
  7.5906166e-05
 -3.0903830e-06
 -9.6942800e-05
  3.1776148e-05
 -3.1696094e-05
 -8.2457736e-05
 -2.7029482e-05
 -7.3206087e-05
  1.4356989e-05
  2.6327831e-05
  1.4042841e-04
 -6.4724304e-06
  2.0268617e-05
 -2.8088782e-05
 -8.0175392e-05
 -1.1517475e-04
 -1.8688030e-05
 -1.4876925e-05
  2.4878280e-05
 -1.6225978e-05
  6.3582702e-05
 -7.6594893e-05
  6.5860535e-05
  6.9785124e-06
  5.2130148e-05
 -4.7412505e-05
  2.3667005e-04
 -6.5676890e-05
  1.7266602e-05
  3.4190965e-05
 -2.7797930e-06
 -2.0809650e-05
 -3.1288495e-05
  1.0990222e-05
  8.5209122e-06
  6.0982544e-05
  5.5970373e-05
 -3.3736633e-05
  2.3870334e-05
  4.2406527e-06
 -3.4434670e-06
  1.2650840e-04
 -7.2584182e-05
  8.7794208e-05
 -2.8615317e-05
 -3.1891566e-05
 -1.9480667e-06
  2.6088857e-05
 -1.0363836e-04
  2.1523010e-06
 -3.6769309e-06
  3.3400022e-06
  4.8659771e-05
 -3.4194883e-05
 -5.2477568e-05
 -1.7589751e-05
 -8.9606052e-05
  2.7484624e-05
 -3.6362628e-05
  8.1042148e-05
  3.2756429e-07
  3.0251244e-05
 -5.4488715e-05
  1.1047406e-04
  1.3871702e-04
  5.2489831e-05
  3.9836254e-05
 -5.4790362e-05
  5.7022366e-06
 -1.2168000e-05
  2.7257873e-05
 -2.2729841e-05
  1.4948506e-05
  4.1081994e-06
  1.2422517e-05
  3.3918303e-05
 -4.1290710e-05
  1.3405173e-04
  1.2205797e-04
  3.6450885e-05
 -3.9832881e-05
 -1.7748426e-06
  3.2037751e-05
  2.3256998e-05
 -8.1655977e-05
 -1.7535338e-05
  9.9749632e-05
 -3.5304496e-05
 -6.0816346e-06
  1.4238729e-05
  1.9576573e-05
 -6.4186250e-05
  5.4097767e-05
 -3.4969362e-05
 -8.3450423e-06
  1.9346057e-06
 -3.7907266e-05
 -4.8644033e-06
  1.3950314e-05
  3.8588769e-05
 -6.1710343e-06
  2.9678147e-05
  1.9346142e-05
  2.1137641e-05
 -5.8160418e-05
 -7.0616494e-05
  3.8799040e-05
  7.0195674e-06
 -1.8277882e-02
  2.5531855e-05
  1.8380579e-04
  5.8564892e-05
 -5.1827414e-05
  7.3132367e-05
  2.7817642e-04
 -5.1912215e-05
 -2.0024499e-04
  2.0209996e-05
  2.7192646e-05
 -1.5342553e-04
  5.9824615e-05
 -9.6645681e-06
 -1.2773947e-06
 -9.3058494e-05
  1.4719728e-04
  1.0791710e-05
 -6.2550593e-05
 -1.6498454e-05
 -1.1545981e-05
  2.0319243e-05
 -1.9115538e-04
 -5.4544566e-05
  1.0171114e-04
  2.2147180e-05
 -8.3265877e-05
 -7.7133729e-05
 -9.7147176e-06
 -9.8222181e-06
 -1.3477825e-05
  8.2694663e-05
  4.5003493e-05
  8.1724727e-05
  3.8391474e-05
  2.9719164e-05
  8.0582227e-05
 -9.8784454e-05
  4.8738839e-06
  1.5730885e-04
 -4.1114788e-05
  9.0467554e-05
  3.8328581e-06
 -3.8789549e-05
  6.1214407e-05
 -2.2388484e-05
 -1.5051418e-05
  5.5464625e-05
  6.0545179e-05
 -5.4684738e-06
 -1.4235972e-05
  4.4630688e-05
 -3.8767244e-05
 -7.4322685e-05
 -1.1402886e-05
  1.9143179e-05
  6.8050387e-05
  4.0497041e-05
  4.3174121e-05
 -1.4216312e-05
 -1.0363935e-04
 -1.9839295e-05
 -1.1360105e-05
 -7.9429255e-06
  3.7157693e-05
  4.7008209e-05
 -8.5976935e-05
 -7.5776559e-05
  3.3997210e-05
 -6.1885090e-05
  3.3559572e-05
  3.6438440e-05
 -9.7971213e-05
  5.7991452e-05
 -1.0368189e-04
  1.3601054e-04
 -1.0389845e-06
  1.2912072e-05
 -9.0136718e-06
 -5.3134107e-05
 -1.0050817e-05
 -5.0249222e-05
  6.5039574e-05
 -2.1351148e-05
  1.3620392e-05
  1.5283976e-04
 -3.5522888e-05
 -3.4203011e-05
 -2.1065176e-05
  3.3395230e-05
  3.4614055e-05
 -2.2969685e-05
 -3.8164340e-05
  1.6970486e-04
  2.0553160e-05
  4.3751006e-05
 -1.0646319e-05
  8.5851265e-05
 -9.3387556e-05
 -1.0307358e-05
 -7.7955392e-06
  1.0041040e-04
 -2.0921332e-05
  1.5319467e-05
  2.1191354e-05
  4.8965746e-01
 -8.1536473e-07
  2.6131105e-01
  6.2869823e-01
  1.2393451e-05
  1.5309797e-05
  5.2838802e-01
 -8.7677532e-01
  4.1232217e-02
  1.5218262e-05
  7.7705867e-05
 -4.4458429e-05
  1.9739791e-05
  3.0243749e-05
 -1.3395050e-05
  7.8423036e-06
 -6.2740553e-05
  9.9459949e-06
 -1.2613591e-04
  7.2953676e-06
  4.7392543e-05
  5.6593548e-05
 -3.5679106e-05
  2.7867582e-05
 -4.0822333e-06
 -1.4503181e-04
 -1.8176841e-05
  5.0521456e-05
 -3.5898534e-05
 -1.6135320e-01
 -2.1398975e-05
 -1.2914541e-02
  1.1426740e-05
  3.0954179e-04
  1.5572432e-01
 -7.3610761e-05
  3.0933734e-05
  5.0254490e-05
 -1.1247934e-06
 -7.0860922e-05
 -4.2423067e-05
  5.3218395e-05
  5.4717416e-06
 -4.1611982e-04
  9.9246325e-05
  9.7428856e-06
  5.9402759e-05
  1.1086579e-05
  4.8497372e-05
 -6.1803832e-05
 -1.5807896e-06
  1.6407257e-05
 -3.1954867e-06
  8.9356610e-05
  2.3889399e-05
 -2.7630778e-05
  1.7692462e-05
 -1.7265207e-05
  1.7757884e-05
  1.2208318e-04
 -1.4439291e-05
 -3.3924280e-06
  6.1777486e-05
 -9.3859155e-05
 -1.2602251e-05
 -1.2069540e-04
  4.0440859e-06
 -1.1191561e-05
 -5.0761675e-05
  4.9730224e-05
  8.2021688e-06
 -3.9682554e-06
 -8.0131984e-05
 -4.5818339e-05
  8.7724911e-05
  2.3542227e-05
  1.6526276e-06
  4.3003423e-05
 -3.7865735e-05
 -2.2224262e-05
 -9.8913093e-05
  3.7613980e-05
  4.7355188e-06
 -3.0538700e-05
 -9.3761546e-06
  8.8222791e-05
  3.1460211e-05
  3.6843692e-05
  4.3591979e-05
  5.1107409e-06
  9.0026224e-06
  6.5445951e-05
 -3.4046516e-05
  5.6459252e-05
  7.5272306e-05
 -1.9279276e-05
 -2.2199101e-05
 -5.4291831e-06
 -4.7894093e-05
  4.6291334e-06
  2.1871854e-05
 -1.9384899e-05
 -9.9343624e-06
 -2.1872786e-04
  6.4956686e-05
  2.3367809e-05
 -2.0345740e-05
 -3.5087956e-05
 -6.7100045e-06
 -2.0927600e-05
 -2.5356947e-03
  3.1176413e-04
 -7.3375617e-05
  3.0594043e-04
 -2.6128374e-04
  1.7322396e-05
 -8.6468783e-05
 -2.8479168e-05
 -4.0114563e-05
  6.6670320e-05
  3.6150752e-05
  1.5119951e-05
 -1.1390798e-04
  2.9437411e-05
 -1.7968583e-05
  1.8160858e-06
  3.1982032e-05
 -2.8661801e-05
 -8.1077094e-05
 -7.4495052e-05
 -2.6678035e-05
  5.2763557e-05
 -5.5104620e-06
  5.1859453e-05
  3.7532914e-06
  4.9085174e-05
  3.4228029e-05
  1.5598074e-01
 -3.1301879e-05
 -1.6078076e-05
 -2.5095898e-05
 -2.8859973e-05
 -1.6983471e-05
 -1.1026059e-04
 -5.7843458e-06
  4.7383579e-05
 -1.1754129e-05
 -2.8893715e-05
  5.5584758e-05
  4.4804583e-05
  1.1029722e-05
  8.9473524e-06
  5.7554094e-05
  1.2279172e-04
  4.5072247e-05
  5.6217177e-05
  1.0535188e-05
 -1.1179578e-05
  5.6406839e-06
 -2.9276363e-05
 -1.1215726e-04
 -1.7781038e-05
  7.0878676e-05
 -9.3322333e-06
  2.0313176e-04
 -4.8306607e-05
 -1.3719749e-05
 -9.9855897e-06
  6.8321187e-06
 -7.6867937e-06
  1.6423335e-05
  7.4432093e-05
 -2.7491713e-05
  2.3524483e-06
  5.9270555e-05
 -2.6646894e-05
 -6.7240799e-05
  3.0457471e-05
  5.5232020e-05
  1.2845863e-04
 -3.9087263e-05
  2.7191765e-05
  6.0254824e-06
  2.8423070e-05
 -2.0664373e-05
 -2.1467886e-06
  3.9519327e-05
  2.6214373e-05
 -2.7953463e-05
 -4.2423697e-05
  4.0982544e-05
 -3.2475004e-05
  1.0563772e-05
  1.1042916e-04
  9.8349065e-06
 -3.0769243e-05
 -4.5505592e-05
 -2.2841350e-05
 -3.7726790e-05
  9.8084984e-06
 -3.8168440e-05
 -3.2689943e-05
  3.8986800e-05
 -1.0748758e-05
 -3.9987564e-05
  2.6433923e-05
  9.0703026e-05
 -9.1082387e-05
  1.8280185e-05
  2.7689875e-05
 -2.2949698e-05
 -4.8184596e-05
 -8.2255952e-05
 -8.1960043e-06
 -1.7112512e-06
  8.4069114e-05
  1.7504590e-05
 -1.4945690e-04
 -1.9499616e-05
 -8.8730458e-06
 -8.8083900e-05
 -2.0948629e-04
  6.3530126e-05
  3.4234872e-05
 -4.8339956e-05
 -9.3824419e-06
  3.0667809e-06
  4.3111559e-05
 -8.0845632e-05
  4.3183965e-05
  3.2980111e-05
 -2.1588823e-05
 -1.2545979e-04
  3.2371318e-06
 -7.1000204e-06
  2.2367331e-05
  7.9346883e-06
 -3.1021515e-05
 -1.3909973e-04
  1.1224479e-04
  1.2586592e-05
  5.7207603e-06
  4.2607295e-05
 -1.3218314e-05
 -1.3184379e-04
 -1.3099527e-05
 -9.3505942e-06
  2.7260498e-06
 -4.6091102e-07
 -3.9017967e-05
 -3.1390620e-05
  6.7801971e-05
  1.3947976e-04
 -7.6262454e-06
 -3.2086329e-05
 -1.1169509e-05
 -3.4870518e-05
  1.4518482e-04
 -3.9964576e-05
 -2.8858145e-05
  1.1668960e-04
 -3.9498027e-05
  4.1695523e-05
 -2.1483778e-05
  5.4084790e-05
  1.1986100e-04
  3.3705983e-05
  6.7806584e-05
 -3.6343314e-05
  1.1887968e-04
 -1.4217487e-05
 -1.7014195e-06
  6.4109554e-05
 -1.3715092e-05
 -6.0229064e-05
 -2.1780519e-04
 -4.0771090e-05
 -1.6007075e-04
  5.0208095e-05
  1.7821478e-05
  4.3124046e-06
 -7.9002326e-05
  8.0643149e-06
  3.4243278e-06
  2.0198337e-05
 -1.0437400e-04
 -2.5188110e-05
  1.5643382e-05
 -2.5101483e-05
 -5.1983676e-05
  4.2724248e-05
 -2.2352080e-05
 -8.7846187e-05
  2.1868022e-06
  5.6255931e-06
 -1.0117354e-04
 -6.1018131e-05
 -1.4395628e-04
 -1.1310129e-05
 -2.0820125e-06
  1.8126133e-05
  2.8132064e-05
  1.5237327e-05
  2.8612434e-05
  1.6693582e-05
  6.0970153e-05
 -9.3411709e-06
 -3.8767172e-05
  7.9464126e-06
  7.0503032e-05
 -3.7124795e-05
 -5.2631338e-05
  5.5298366e-05
 -2.6442863e-06
  6.3974389e-06
  1.6862517e-05
  3.6669640e-05
  1.0597341e-05
  6.2351905e-06
 -1.7046355e-04
 -6.5451950e-06
  7.4796816e-07
  1.1304714e-04
 -1.3482920e-04
  1.6514271e+00
  4.2379165e-01
  5.2433025e-02
  6.3811350e-01
 -7.7226818e-01
 -1.8753146e-01
 -7.5910492e-03
 -2.9797873e-01
  4.5460248e-01
 -2.8774157e-05
 -8.3194125e-01
 -4.5186612e-01
 -4.3101585e-01
 -4.6062264e-01
  2.6142832e-02
 -6.2997453e-02
  5.2643865e-01
 -2.4190145e-02
  3.2445654e-01
  4.7854255e-06
 -1.1856855e-01
 -6.2985146e-01
  8.5198385e-01
 -8.4534425e-01
  8.4297460e-01
 -2.8637767e-01
 -1.7893368e-01
 -2.4285579e-02
 -2.1806765e-01
  6.6445071e-01
  1.3782456e+00
  7.0640687e-03
 -2.0436370e-05
  4.4114327e-01
 -9.1541076e-01
 -8.3490349e-02
 -3.1553397e-01
  2.8651550e-01
  1.9848782e-01
 -6.1628455e-01
  2.5809181e-01
 -1.1400278e-02
  4.7028792e-01
 -6.3992375e-01
 -6.3735228e-03
 -7.4013211e-03
  4.4721225e-03
 -2.3090374e-02
  6.6374928e-01
 -1.3636589e-01
  3.4802416e-01
  1.3856569e-01
  2.4171971e-01
  1.5675354e-04
  5.2769460e-06
  4.1293963e-05
 -1.1936386e-04
  6.8596681e-05
 -3.0164767e-05
 -6.7940287e-05
  8.6735308e-06
  2.4941844e-06
  5.4332995e-05
  2.7747519e-06
 -1.2606915e-05
 -3.2016495e-05
 -3.2019321e-05
 -7.4145020e-05
  4.3315842e-05
 -4.6277113e-05
  4.1116100e-06
  1.9433377e-05
 -1.3335071e-05
  2.3067134e-05
  2.0030508e-05
 -2.8031536e-05
  2.0447989e-05
  3.1812138e-05
  5.9712507e-05
  6.6345681e-05
  3.0464083e-05
 -1.9298623e-06
  1.9478417e-05
  4.2801767e-05
 -6.3581479e-05
  2.4696829e-04
 -4.7510031e-05
 -5.1888223e-05
  2.4470582e-04
  3.5310244e-05
 -3.6660072e-06
 -2.9903595e-05
 -2.4994548e-05
  6.0865459e-05
 -1.0589772e-05
  4.8392671e-06
  2.8068742e-05
  1.4313453e-06
  3.5786939e-05
  1.8953988e-05
  3.3683402e-05
  2.7471775e-05
 -1.7931866e-06
 -5.6843590e-05
 -1.4841360e-05
  1.0369280e-05
  1.2856521e-04
  4.6551013e-06
  1.1152450e+00
 -5.9019023e-01
  1.4201425e-02
 -5.0924700e-01
  1.4286430e-04
 -4.0169201e-05
  1.4660342e-05
  9.1089547e-05
 -3.7188944e-01
 -2.0836561e-04
  5.4923039e-06
  3.9648011e-04
  1.8006846e-01
 -2.0659096e-05
 -1.5729676e-05
  3.1938159e-01
 -8.2838494e-01
  7.1190610e-05
  1.0411482e-01
  8.9314818e-01
  3.2340910e-04
 -1.2970496e-05
 -1.5694386e+00
 -5.8517580e-06
  5.4397769e-05
  1.0730411e-05
  2.0046573e+00
  2.4232636e-04
 -6.4433329e-02
 -2.8881544e-05
 -1.6471811e-01
  4.8198806e-05
  7.7299868e-05
 -3.4279285e-05
 -5.1315319e-06
 -1.0708746e-01
  8.1600986e-02
  1.3370277e+00
  1.1423421e-05
  1.2701970e-04
 -2.6495268e-06
 -3.3762626e-05
  1.2741010e+00
  3.3353535e-05
  3.1136107e-05
  2.4004274e-05
 -2.2030916e-05
 -3.7945269e-05
  2.0966473e+00
 -3.7749280e-04
  7.4626571e-01
  4.6766672e-01
  2.4693552e-01
  2.4038893e-01
  5.8107348e-06
 -3.4999492e-05
  4.3249715e-05
 -2.4468265e-05
 -6.8979597e-01
  8.4776519e-05
  5.1421035e-02
 -3.2414988e-01
  2.2626662e-01
 -5.2657990e-05
  1.3681605e-05
  3.1539404e-01
 -7.7228487e-01
  2.4921276e-06
  1.9439965e-01
  6.9528896e-01
 -8.7696295e-05
  9.4311014e-02
  6.1804992e-01
 -2.8400195e-06
 -6.2574983e-02
 -7.7482422e-05
  1.3818980e+00
 -2.4768608e-04
  6.6996545e-01
 -1.0928385e-04
  1.4714858e-01
 -1.5027769e-05
  5.7664797e-02
 -2.4745141e-01
 -6.1589539e-02
 -3.9874443e-01
 -1.2510480e-01
  1.0673065e+00
  1.7097427e-05
 -1.3666396e-04
 -7.6642498e-02
 -2.0539654e-02
 -1.5139642e-01
  1.7214903e-04
  1.0064200e-01
  3.5338435e-05
  6.6969233e-06
 -2.1405922e-02
 -8.7616879e-01
 -1.0575163e-04
  7.0914130e+00
 -5.2710301e-01
  8.9311332e-01
  1.2564142e-02
  6.6510898e-01
  4.0603152e-01
 -1.2182121e+00
  1.1860256e+00
  2.9770706e+00
 -2.0936480e+00
 -1.5918562e+00
  5.6934839e-01
  6.7095023e-01
 -3.1271827e-01
  1.0537477e+00
 -3.8465473e-01
  1.7979515e-01
 -1.3234885e+00
  2.4264997e-01
 -1.5871756e-01
  4.8400324e-02
  2.3210095e-01
  1.1009482e+00
  2.5821981e+00
 -4.8784515e-01
  2.8503907e-01
 -6.4838892e-01
  1.7715320e-01
 -3.2271752e-01
 -2.6146170e-01
 -1.0272222e+00
 -1.6669570e+00
  2.0114964e-01
  5.8891940e-01
 -9.2213410e-01
  6.1160833e-01
  3.4894153e-02
  1.1767319e+00
  2.3947721e+00
 -2.1164030e-02
 -5.9232181e-01
 -1.5493579e+00
  1.5973740e+00
 -1.8033766e+00
  1.6536711e-01
 -5.7071269e-01
 -1.1999605e-01
  8.8486028e-01
  1.0100965e-02
 -9.7995192e-01
 -4.5828885e-01
 -1.6233319e+00
 -5.8341897e-01
  9.6095771e-02
  5.6947649e-01
  4.5505279e-01
 -1.6763871e+00
 -5.1407170e-01
  8.8963413e-01
 -5.5506509e-02
 -8.1030630e-02
  4.1024882e-02
 -7.8317314e-01
 -2.1915506e-01
  4.0402421e-01
 -4.4420889e-01
 -5.9378195e-01
 -3.8894185e-01
  1.2015543e-02
 -2.1983509e+00
  1.0244148e+00
  2.8829737e-02
 -1.5608999e-01
  1.4381871e+00
  4.7359726e-01
 -4.5110539e-01
  5.0565577e-01
  1.0427912e-01
 -9.7174084e-01
  2.5623825e-01
  3.8482141e-01
  8.7098521e-01
  2.7475755e+00
  6.4423215e-01
  3.1703132e-01
  4.4039288e-01
 -2.6108043e+00
 -7.3737448e-01
  1.5519103e+00
  6.9513702e-01
  7.5170726e-01
  4.7826564e-01
 -2.5516038e+00
  5.6279188e-01
  2.5868757e-02
 -2.3836806e+00
 -6.1619729e-02
 -8.6434090e-01
  2.6236317e-01
  1.1675558e+00
 -1.1018125e+00
  1.5785348e+00
  1.6500049e+00
  1.3237025e-01
 -4.0774852e-01
  9.4153148e-01
 -5.9483495e-02
 -1.0109934e+00
  1.9185973e+00
 -8.2272463e-02
 -3.0667527e+00
 -1.9801511e+00
  2.2880721e+00
  3.4566265e-01
  2.8581229e-01
 -4.4834722e-02
  1.7596912e+00
  4.6743971e-01
 -2.9499853e-01
  3.6760071e-01
  5.0574750e-01
 -3.5256875e-01
  1.1671287e+00
 -6.4636070e-01
  1.2055845e+00
 -2.6252857e-01
 -6.4792469e-02
  2.3722303e+00
  6.3756734e-01
  2.1387649e+00
 -7.8486872e-01
  1.5838400e-01
  1.7628446e-01
 -2.0473814e+00
  3.1219253e-01
 -3.0381610e+00
  6.1363328e-01
  5.5950826e-01
 -7.7749622e-01
  1.1444318e+00
  1.0475607e+00
  8.2337230e-01
 -9.1587114e-01
 -9.6560073e-01
  4.1118720e-01
 -1.1130703e-01
 -1.5116276e+00
 -1.6738339e-01
 -1.4924062e+00
  8.5453957e-01
 -3.8426226e-01
 -1.7653681e+00
  1.0064020e+00
 -1.0763341e-01
 -8.7910503e-01
  3.3380464e-02
 -2.8051153e-01
  9.0746444e-01
  5.0239146e-01
 -1.5569112e+00
 -1.6521535e+00
 -1.2718747e+00
 -3.5983419e+00
 -1.9978304e-01
 -2.1858845e-02
  2.2244622e-01
 -5.6761050e-01
 -1.9196686e-01
  7.7220249e-01
  8.8075131e-01
 -1.7255818e+00
 -3.7895423e-01
  2.4048924e+00
  1.1817451e+00
 -1.6913459e+00
  3.7592024e-01
 -9.0520787e-01
  1.6739600e+00
 -1.5451537e+00
 -4.0565622e-01
 -1.7872342e+00
  5.6349570e-01
 -3.7194803e-01
  7.9947901e-01
  9.6771792e-02
 -2.1111991e+00
  5.6564456e-01
 -6.3989955e-01
 -1.7681825e+00
  8.0880511e-01
 -7.1510571e-01
  2.4299397e-01
 -1.7939241e-01
 -1.2046010e+00
 -4.4794893e-03
 -5.6572568e-01
 -8.2715678e-01
  7.4088526e-01
  1.0223176e+00
  3.2367163e+00
  3.0320403e-01
 -1.7747228e-01
 -9.7928554e-01
 -2.4523713e-02
 -8.8330001e-01
 -4.9099561e-02
  4.0828103e-01
  1.6380616e+00
  8.7894392e-01
 -1.1666077e+00
  8.9159983e-01
  4.0188360e+00
 -1.8254554e+00
 -2.5673676e-01
  2.6371324e+00
 -1.2320600e+00
 -7.0089400e-01
  1.1931556e+00
  5.6458038e-01
  6.9586970e-02
  6.3334122e-02
 -8.2612121e-01
  7.3008478e-01
  4.4927627e-01
 -1.7740650e+00
  4.7890320e-01
  1.4796351e-01
 -2.0588734e+00
  4.9990496e-01
 -1.4335947e+00
  5.3886437e-01
 -5.7485801e-01
  6.1264294e-01
 -4.7844803e-01
 -7.2158229e-01
  8.1826642e-02
  8.1826642e-02
  8.1826642e-02
  8.1826642e-02
  8.1826642e-02
  8.1826642e-02
  8.1826642e-02
  8.1826642e-02
  8.1826642e-02
  6.9004267e-02
  6.9004267e-02
  6.9004267e-02
  6.9004267e-02
  6.9004267e-02
  6.9004267e-02
  6.9004267e-02
  6.9004267e-02
  6.9004267e-02
  2.2299781e-02
  2.2299781e-02
  2.2299781e-02
  2.2299781e-02
  2.2299781e-02
  2.2299781e-02
  2.2299781e-02
  2.2299781e-02
  2.2299781e-02
  3.3997510e-02
  3.3997510e-02
  3.3997510e-02
  3.3997510e-02
  3.3997510e-02
  3.3997510e-02
  3.3997510e-02
  3.3997510e-02
  3.3997510e-02
  1.7117148e-02
  1.7117148e-02
  1.7117148e-02
  1.7117148e-02
  1.7117148e-02
  1.7117148e-02
  1.7117148e-02
  1.7117148e-02
  1.7117148e-02
  1.1184661e-02
  1.1184661e-02
  1.1184661e-02
  1.1184661e-02
  1.1184661e-02
  1.1184661e-02
  1.1184661e-02
  1.1184661e-02
  1.1184661e-02
